<unk>	0
<pad>	0
[CLS]	0
[SEP]	0
[MASK]	0
▁i	-2.51671
▁feel	-3.37749
▁and	-3.54124
▁to	-3.60029
▁the	-3.67006
▁a	-3.9293
▁that	-4.16476
▁feeling	-4.17167
▁of	-4.20411
▁my	-4.35125
▁in	-4.56679
s	-4.60576
▁it	-4.67404
▁like	-4.7268
ing	-4.74565
▁so	-4.86545
▁im	-4.90087
▁for	-4.90544
▁me	-4.93715
▁have	-4.96451
▁was	-4.9795
▁but	-4.99796
▁this	-5.06818
▁am	-5.07064
▁with	-5.09575
▁is	-5.121
▁be	-5.16284
▁on	-5.17042
ly	-5.17759
▁not	-5.17989
▁about	-5.2162
▁you	-5.35778
▁	-5.36879
▁as	-5.38596
▁just	-5.42616
▁when	-5.46934
▁at	-5.4841
ed	-5.53307
▁or	-5.57833
▁all	-5.64617
▁because	-5.667
▁more	-5.69116
▁do	-5.72143
▁t	-5.74511
▁up	-5.82477
▁can	-5.83568
▁really	-5.86014
▁are	-5.91459
▁by	-5.92021
▁know	-5.93422
▁very	-5.9438
▁get	-5.96886
▁been	-5.97286
▁out	-5.97846
▁if	-5.99724
▁time	-6.0204
▁myself	-6.02303
▁what	-6.03518
▁how	-6.06665
▁little	-6.09735
▁had	-6.1151
▁will	-6.13038
▁they	-6.14864
▁now	-6.14932
▁he	-6.14932
▁from	-6.15701
▁people	-6.18122
▁would	-6.19581
▁being	-6.20277
▁want	-6.22872
d	-6.23787
▁her	-6.24751
▁them	-6.25156
y	-6.25644
▁s	-6.26314
▁who	-6.26878
▁some	-6.30868
▁think	-6.31518
▁still	-6.3228
▁one	-6.33366
▁even	-6.34952
▁there	-6.3528
▁him	-6.3584
▁m	-6.3618
▁an	-6.36782
ve	-6.38677
▁life	-6.40666
▁we	-6.42185
▁bit	-6.45345
▁make	-6.4624
▁no	-6.47765
▁love	-6.48756
▁something	-6.4877
▁its	-6.49977
▁much	-6.50848
▁could	-6.51039
▁things	-6.52942
▁going	-6.53061
e	-6.54317
▁dont	-6.54501
▁she	-6.56109
▁way	-6.57771
▁than	-6.6086
▁day	-6.6291
t	-6.65176
▁too	-6.67599
▁see	-6.67996
▁back	-6.68587
▁go	-6.68812
▁don	-6.68879
▁has	-6.69001
▁need	-6.71788
▁pretty	-6.73667
▁good	-6.746
▁over	-6.75216
▁your	-6.7536
▁into	-6.77219
▁his	-6.8104
▁their	-6.81593
▁always	-6.81941
▁right	-6.82271
▁these	-6.8396
▁other	-6.87874
▁also	-6.88793
▁say	-6.89091
▁work	-6.89373
▁today	-6.91157
▁should	-6.9212
▁did	-6.93488
▁after	-6.93893
▁most	-6.93932
▁then	-6.9524
▁again	-6.97427
▁help	-6.97773
▁around	-6.99034
▁were	-7.00231
▁cant	-7.00292
▁feelings	-7.02285
▁made	-7.02866
▁though	-7.03632
▁through	-7.07775
▁well	-7.08134
▁here	-7.0919
▁our	-7.09313
▁got	-7.09503
▁down	-7.10518
▁someone	-7.12189
▁never	-7.12553
▁didnt	-7.12646
▁those	-7.12756
▁where	-7.13165
▁lot	-7.14632
▁felt	-7.14869
▁any	-7.15202
▁find	-7.16741
▁feels	-7.18332
▁every	-7.19081
▁happy	-7.19283
▁sure	-7.20037
▁less	-7.20194
▁days	-7.20961
▁having	-7.21026
▁quite	-7.21557
▁doing	-7.21816
n	-7.22989
▁makes	-7.23893
▁enough	-7.2454
▁many	-7.26002
▁take	-7.27054
▁kind	-7.27859
▁off	-7.27919
ch	-7.27993
er	-7.28229
▁home	-7.2845
▁look	-7.30833
▁anything	-7.30838
▁away	-7.31539
▁come	-7.32517
▁last	-7.33403
▁person	-7.33626
▁why	-7.33658
▁left	-7.33745
▁better	-7.345
▁everything	-7.3452
nt	-7.34572
▁keep	-7.36009
▁without	-7.36213
▁ever	-7.36784
▁before	-7.36796
▁wh	-7.36898
▁own	-7.38138
▁new	-7.38619
▁friends	-7.40729
▁world	-7.40736
▁whi	-7.41236
▁sometimes	-7.4149
▁while	-7.41528
▁such	-7.43504
▁few	-7.43923
ive	-7.44248
▁remember	-7.44685
▁http	-7.45129
▁actually	-7.46009
▁started	-7.46633
▁let	-7.47314
▁thought	-7.47324
▁thing	-7.48431
▁year	-7.48642
▁trying	-7.49102
ich	-7.49149
▁week	-7.4946
▁first	-7.50252
▁re	-7.50554
▁us	-7.50642
▁family	-7.53839
▁said	-7.54284
▁able	-7.5439
▁tell	-7.55064
▁bad	-7.55334
es	-7.55861
▁long	-7.55997
▁give	-7.56928
▁try	-7.58423
a	-7.58518
▁times	-7.59456
▁part	-7.59743
▁href	-7.6037
▁w	-7.62957
▁read	-7.6533
▁already	-7.65852
▁start	-7.65989
▁since	-7.66276
▁put	-7.66674
▁heart	-7.6671
▁alone	-7.66894
▁same	-7.67976
▁talk	-7.68026
▁strange	-7.68383
▁end	-7.6891
▁two	-7.70062
▁morning	-7.71099
▁nothing	-7.71752
▁others	-7.71825
▁often	-7.72228
▁hard	-7.72281
▁write	-7.72689
▁un	-7.72927
▁yet	-7.73292
▁place	-7.7332
▁strong	-7.73824
▁blog	-7.73907
▁night	-7.74279
▁years	-7.74286
▁mak	-7.74664
▁ill	-7.74799
▁hate	-7.75505
▁stressed	-7.75601
▁god	-7.76011
▁sweet	-7.76081
▁might	-7.76107
▁post	-7.76752
▁may	-7.77383
▁hope	-7.77463
▁moment	-7.78174
▁overwhelmed	-7.79535
▁watch	-7.79543
▁amazing	-7.79545
▁weird	-7.7972
▁hurt	-7.7999
▁sad	-7.80159
▁didn	-7.81353
▁point	-7.81518
▁school	-7.8175
▁another	-7.82539
▁pain	-7.82989
▁whole	-7.83194
al	-7.83515
▁enjoy	-7.84214
i	-7.84759
▁guess	-7.85233
m	-7.85334
▁looking	-7.86069
▁anyone	-7.86235
▁everyone	-7.86241
▁excited	-7.86849
▁stop	-7.87352
▁angry	-7.87478
▁each	-7.88169
▁thinking	-7.89267
▁lost	-7.89475
▁once	-7.8963
▁done	-7.90319
▁gett	-7.90671
▁old	-7.90853
▁loved	-7.9102
▁almost	-7.91347
▁wanted	-7.92232
▁completely	-7.9278
ting	-7.92809
▁friend	-7.9289
▁else	-7.93351
▁blessed	-7.93353
▁went	-7.93604
▁next	-7.94015
▁maybe	-7.94032
▁great	-7.94182
▁believe	-7.9438
ther	-7.94409
▁passionate	-7.94715
▁self	-7.9497
▁body	-7.95093
▁free	-7.95291
▁accepted	-7.95437
▁important	-7.95472
▁ve	-7.96176
▁fact	-7.975
▁helpless	-7.9761
r	-7.97791
▁walk	-7.9781
▁face	-7.97921
▁cold	-7.98212
▁writing	-7.9822
▁hated	-7.98502
▁does	-7.98754
▁r	-7.99582
▁past	-7.99663
▁sleep	-8.00158
▁must	-8.00524
ably	-8.01289
▁show	-8.01604
▁real	-8.01669
▁understand	-8.02614
▁tired	-8.03245
▁care	-8.03416
▁d	-8.03821
▁stupid	-8.03974
▁afraid	-8.04012
▁use	-8.04533
▁least	-8.04805
▁sense	-8.05763
o	-8.06164
▁call	-8.06206
▁agitated	-8.06266
▁book	-8.06441
▁particular	-8.07034
▁job	-8.07056
▁inside	-8.07334
▁towards	-8.07449
▁wonder	-8.07699
▁leave	-8.07833
▁wish	-8.0795
▁mean	-8.08678
▁f	-8.09282
▁share	-8.09306
▁reason	-8.09379
▁sort	-8.09451
▁starting	-8.09602
▁until	-8.10168
▁best	-8.1017
▁man	-8.10256
▁mind	-8.10326
▁head	-8.10877
▁found	-8.10938
▁lately	-8.11128
▁told	-8.11355
▁anxious	-8.11776
▁hear	-8.11872
▁b	-8.12011
▁wonderful	-8.12799
▁girl	-8.13176
re	-8.13245
▁thankful	-8.13815
▁used	-8.14438
▁seem	-8.1489
▁far	-8.15028
on	-8.15048
▁stay	-8.16195
▁supporting	-8.16318
▁generous	-8.16757
▁sorry	-8.16811
▁special	-8.16841
▁live	-8.16949
▁wasnt	-8.17241
▁coming	-8.17323
▁won	-8.17455
▁nervous	-8.1761
▁glad	-8.17646
▁become	-8.17803
▁class	-8.18453
▁depressed	-8.18487
▁slightly	-8.18502
▁house	-8.1949
▁taking	-8.19614
▁words	-8.19793
▁turn	-8.1986
▁ok	-8.20721
▁prob	-8.21103
▁cool	-8.21107
▁extreme	-8.21139
▁deep	-8.21153
▁guilty	-8.21175
▁loving	-8.21201
▁final	-8.22153
▁realize	-8.22714
▁safe	-8.22898
▁amp	-8.23321
▁perfect	-8.23385
▁came	-8.23902
▁working	-8.24533
▁low	-8.2454
▁lonely	-8.24733
▁certain	-8.24764
▁id	-8.25041
ness	-8.25491
▁scared	-8.25688
▁totally	-8.25756
▁close	-8.25859
▁months	-8.26059
▁emotional	-8.26247
▁frustrated	-8.26588
▁reading	-8.27113
in	-8.27224
▁proud	-8.27525
▁positive	-8.2754
▁stuff	-8.27646
ather	-8.27729
▁fine	-8.28245
g	-8.285
▁comfortable	-8.28536
▁spend	-8.2858
▁saying	-8.29154
▁woke	-8.29571
▁child	-8.30474
▁move	-8.30589
▁hot	-8.30644
▁full	-8.30817
▁admit	-8.31267
▁confident	-8.31449
▁kids	-8.31701
▁change	-8.3242
▁dur	-8.32821
▁big	-8.34331
▁exhausted	-8.34404
▁run	-8.34677
▁thoughts	-8.35313
▁cannot	-8.35545
▁eyes	-8.36662
▁cause	-8.36919
▁super	-8.37133
▁awkward	-8.37485
▁ashamed	-8.37535
▁rest	-8.38014
▁ra	-8.3804
▁mad	-8.38056
▁high	-8.38441
▁tortured	-8.38556
▁spent	-8.38557
▁children	-8.38564
▁open	-8.39301
▁hopeful	-8.39507
truly	-8.39567
▁terrified	-8.39602
▁together	-8.39608
▁beloved	-8.3963
able	-8.39678
▁experience	-8.39699
▁missed	-8.39882
▁wrong	-8.39953
st	-8.40386
▁content	-8.40437
▁future	-8.40676
▁funny	-8.40686
▁bothered	-8.40732
▁decided	-8.40788
▁doesnt	-8.40894
▁matter	-8.40999
▁hand	-8.41039
▁embarrassed	-8.41771
▁creative	-8.41774
▁awful	-8.41781
▁c	-8.41834
ies	-8.41904
▁room	-8.42262
▁control	-8.42263
▁miss	-8.42509
▁idea	-8.4261
▁knew	-8.4286
▁miserable	-8.42863
▁anymore	-8.42916
▁hours	-8.43379
▁caring	-8.43511
▁under	-8.4397
▁amazed	-8.43982
▁bed	-8.44146
▁baby	-8.4423
▁calm	-8.44482
▁ask	-8.44638
▁sit	-8.44744
▁irritable	-8.45097
▁unhappy	-8.45099
▁pleasant	-8.45125
▁story	-8.45133
▁lucky	-8.4518
▁weeks	-8.45996
▁wear	-8.46203
▁instead	-8.46232
▁energy	-8.46235
▁horrible	-8.46289
▁inspired	-8.46305
▁liked	-8.46727
▁women	-8.47382
▁both	-8.47389
▁brave	-8.47396
▁disappointed	-8.474
▁living	-8.4745
▁cute	-8.47629
▁deal	-8.47678
▁shitty	-8.48549
▁confused	-8.48569
▁successful	-8.48569
▁somewhat	-8.48582
▁surprised	-8.48588
▁talented	-8.486
an	-8.48642
▁eat	-8.48705
▁fun	-8.49054
ally	-8.49138
▁mother	-8.49382
▁seems	-8.49613
▁between	-8.49723
▁rich	-8.49885
▁ago	-8.50171
▁lovely	-8.50303
▁uncomfortable	-8.50915
▁running	-8.50926
▁popular	-8.50942
▁satisfied	-8.50958
▁terrible	-8.51044
▁punished	-8.52118
▁selfish	-8.52124
▁annoyed	-8.52141
▁useless	-8.52144
▁somehow	-8.52167
▁g	-8.52246
▁longer	-8.52335
▁buy	-8.5262
▁food	-8.52625
▁uncertain	-8.52774
▁knowing	-8.5318
▁unsure	-8.53344
▁situation	-8.53783
usually	-8.53817
▁discouraged	-8.54576
▁dull	-8.54586
▁side	-8.54893
l	-8.54901
▁happen	-8.55291
▁normal	-8.55424
▁hopeless	-8.55853
▁giving	-8.55998
▁talking	-8.56084
▁mom	-8.56138
▁guy	-8.56388
▁small	-8.57083
▁curious	-8.57086
▁woman	-8.57086
▁lethargic	-8.57086
▁vulnerable	-8.57087
▁money	-8.57088
▁incredibl	-8.57092
▁greedy	-8.57095
▁irritated	-8.57125
or	-8.58339
▁useful	-8.58381
▁absolutely	-8.58398
▁convinced	-8.58437
▁kinda	-8.58864
▁music	-8.58917
▁empty	-8.59663
▁violent	-8.59667
▁dumb	-8.59677
▁pissed	-8.59679
▁offended	-8.59706
▁smart	-8.59844
▁needed	-8.60242
▁listen	-8.60574
▁hair	-8.60834
▁couple	-8.60982
▁p	-8.60989
▁devastated	-8.60999
▁determined	-8.61014
▁insecure	-8.61027
▁rude	-8.6103
▁insulted	-8.61071
▁relaxed	-8.61078
▁asked	-8.6143
▁hold	-8.6166
▁gorgeous	-8.62315
▁resentful	-8.62316
▁apprehensive	-8.62316
▁isolated	-8.62333
▁numb	-8.62365
▁impressed	-8.62391
▁comes	-8.62406
▁bitter	-8.6242
▁rushed	-8.62429
▁sincere	-8.6258
▁either	-8.62759
▁al	-8.62808
▁nice	-8.63213
▁different	-8.63287
▁soon	-8.63577
▁precious	-8.63666
▁ugly	-8.63678
▁vain	-8.63679
▁rejected	-8.63686
▁valued	-8.63735
▁against	-8.639
▁wake	-8.63951
▁shy	-8.64027
▁aching	-8.64157
▁relationship	-8.64248
▁sick	-8.64311
▁took	-8.64538
▁jealous	-8.64795
▁support	-8.64999
▁husband	-8.65035
▁energetic	-8.65036
▁sympathetic	-8.65037
▁homesick	-8.65038
▁melancholy	-8.65042
▁car	-8.65201
▁weekend	-8.65618
less	-8.66028
h	-8.66399
▁beautiful	-8.66425
▁unwelcome	-8.66425
▁half	-8.66427
▁disgusted	-8.66429
▁shaken	-8.66484
▁burdened	-8.66516
▁pathetic	-8.66529
▁fucked	-8.66589
▁happened	-8.66752
▁trust	-8.66886
▁set	-8.66928
▁light	-8.67319
▁blank	-8.67818
▁cranky	-8.67831
▁innocent	-8.67832
▁gloomy	-8.67839
▁joyful	-8.67863
▁faithful	-8.67871
▁assured	-8.67895
▁definite	-8.67916
▁tonight	-8.68174
ity	-8.68234
▁young	-8.68619
▁e	-8.6868
▁dream	-8.68978
▁groggy	-8.69259
▁divine	-8.69266
▁tender	-8.69344
▁parents	-8.69468
▁however	-8.69469
▁second	-8.69906
ce	-8.70206
ll	-8.70235
▁crappy	-8.70708
▁valuable	-8.7071
▁dissatisfied	-8.70712
▁dangerous	-8.70712
▁paranoid	-8.70713
▁reluctant	-8.70716
▁worthless	-8.70747
▁bitchy	-8.70802
▁pressured	-8.70849
▁th	-8.70857
▁respected	-8.70928
▁hes	-8.71204
▁exact	-8.7218
▁yesterday	-8.72181
▁hesitant	-8.72182
▁peaceful	-8.72187
▁distracted	-8.72201
▁ignored	-8.72265
▁course	-8.72301
▁productive	-8.72326
▁front	-8.72355
▁honestly	-8.72422
▁longing	-8.72787
▁ready	-8.73014
▁romantic	-8.73673
▁christmas	-8.73673
ever	-8.73674
▁humiliated	-8.73679
▁beaten	-8.73689
▁honored	-8.73692
▁defeated	-8.73693
▁drained	-8.73693
▁pleased	-8.73846
▁lack	-8.73877
▁whatever	-8.73896
▁song	-8.75159
▁eager	-8.75185
▁superior	-8.75188
▁optimistic	-8.75189
▁heartbroken	-8.7519
▁dirty	-8.7519
▁unimportant	-8.75191
▁intimidated	-8.75202
▁weight	-8.75244
▁grow	-8.75274
▁books	-8.75347
▁mine	-8.75433
▁upset	-8.7547
▁couldn	-8.75479
▁play	-8.75824
▁joy	-8.76001
▁friendly	-8.76165
▁skin	-8.76648
▁girls	-8.7668
▁wait	-8.76681
▁clever	-8.76726
▁gentle	-8.76727
▁worthwhile	-8.76728
▁festive	-8.76731
▁inadequate	-8.76734
▁thrilled	-8.76749
▁mellow	-8.76772
▁ways	-8.76816
▁plan	-8.77639
▁ll	-8.7784
▁speak	-8.78023
▁broke	-8.78165
▁petty	-8.78288
▁disheartened	-8.7829
▁boring	-8.78307
▁three	-8.78335
▁tried	-8.78388
▁gone	-8.78456
▁emotions	-8.78636
f	-8.79125
▁men	-8.79157
ought	-8.79509
▁touch	-8.79599
▁list	-8.79603
▁lives	-8.797
▁nostalgic	-8.79878
▁naughty	-8.7988
▁threatened	-8.79884
▁fake	-8.79912
▁damaged	-8.79912
▁troubled	-8.79925
▁follow	-8.80122
▁allow	-8.80426
▁whe	-8.80714
▁cry	-8.80802
ers	-8.8145
▁unfortunate	-8.8149
▁lousy	-8.81496
▁true	-8.81646
▁hour	-8.82387
▁smile	-8.82516
▁near	-8.82721
▁needs	-8.82856
▁outside	-8.82993
▁horny	-8.83125
▁regretful	-8.83131
▁shaky	-8.83141
▁acceptable	-8.83154
▁wanting	-8.8322
cially	-8.83223
▁suddenly	-8.83226
▁supportive	-8.83242
▁resolved	-8.83273
▁name	-8.8328
ment	-8.83345
▁order	-8.83576
▁fair	-8.83691
▁game	-8.83741
▁waiting	-8.8384
▁delicious	-8.84794
▁welcomed	-8.84834
▁summer	-8.84842
▁restless	-8.84877
▁suffering	-8.8507
ww	-8.854
▁continue	-8.85664
▁fear	-8.85788
▁guys	-8.8583
▁bring	-8.86257
▁rotten	-8.86486
▁disturbed	-8.86511
▁shocked	-8.86533
▁supposed	-8.86696
▁oh	-8.86888
▁wronged	-8.86948
▁called	-8.87061
▁type	-8.8714
▁mood	-8.87592
ially	-8.87825
te	-8.88074
▁honoured	-8.88211
▁discontent	-8.88214
▁impatient	-8.88217
▁relieved	-8.88229
▁lame	-8.88287
▁intelligent	-8.88307
▁mention	-8.88342
▁team	-8.88367
▁later	-8.8838
▁learn	-8.88651
▁given	-8.88757
▁stand	-8.8889
▁style	-8.89208
▁month	-8.89217
c	-8.894
▁word	-8.89408
▁along	-8.89604
▁finish	-8.89827
▁loyal	-8.89951
▁behind	-8.89964
▁virtuous	-8.89966
▁grumpy	-8.89967
▁ungrateful	-8.89968
▁fearful	-8.89974
▁country	-8.89982
est	-8.90244
▁reach	-8.90599
espe	-8.90692
▁eating	-8.90907
▁human	-8.90946
us	-8.91
▁hands	-8.9117
▁toward	-8.91285
▁entire	-8.91361
itting	-8.91466
at	-8.91539
▁terrific	-8.91751
▁fabulous	-8.91751
▁fantastic	-8.91752
▁frightened	-8.91755
▁deprived	-8.91757
▁chance	-8.91765
▁doomed	-8.91771
▁remind	-8.91874
▁needy	-8.92032
▁break	-8.92156
▁taken	-8.92529
▁trusting	-8.9258
▁fall	-8.92586
though	-8.92669
▁de	-8.92684
▁consider	-8.92761
▁boy	-8.92943
▁l	-8.93134
▁focus	-8.93345
▁adventurous	-8.9357
▁privileged	-8.93584
▁listless	-8.93588
▁fond	-8.93595
▁grateful	-8.93596
▁generally	-8.93871
▁problems	-8.94059
ion	-8.94434
▁smug	-8.95416
▁rebellious	-8.95422
▁carefree	-8.95422
▁leaving	-8.95445
▁co	-8.95776
▁ones	-8.9604
▁trip	-8.9643
espec	-8.96775
▁isnt	-8.96842
▁meet	-8.97124
▁wasn	-8.97169
▁foolish	-8.97307
▁artistic	-8.97311
▁etc	-8.9732
▁single	-8.97344
▁reassured	-8.97374
▁saw	-8.97433
▁race	-8.97602
gan	-8.97897
▁throw	-8.98063
▁forward	-8.98429
▁add	-8.98783
▁desire	-8.98836
▁answer	-8.98971
▁explain	-8.98974
▁invigorated	-8.99231
▁minutes	-8.99639
▁learning	-8.9999
▁question	-9.00403
▁movie	-9.00412
▁sat	-9.00949
▁suppose	-9.00949
▁stubborn	-9.0119
▁casual	-9.0121
▁amount	-9.01215
▁constantly	-9.0135
▁k	-9.01449
▁space	-9.01615
▁stress	-9.01657
▁pick	-9.02065
▁utter	-9.02114
▁goes	-9.02118
▁phone	-9.02364
▁begin	-9.02448
en	-9.02485
w	-9.02551
▁within	-9.03056
▁vital	-9.03187
▁ecstatic	-9.0319
▁triumphant	-9.03191
▁jaded	-9.03193
▁attention	-9.032
▁abused	-9.03235
▁pay	-9.03307
▁students	-9.03409
▁late	-9.03521
▁learned	-9.03534
▁walked	-9.03947
▁telling	-9.04085
▁short	-9.04443
▁struggle	-9.0449
▁damn	-9.04952
▁unloved	-9.05236
▁easy	-9.05313
▁shit	-9.05436
▁push	-9.05501
▁comments	-9.05765
▁beginning	-9.06441
▁party	-9.06473
▁water	-9.06818
▁worth	-9.07028
▁delicate	-9.07313
▁submissive	-9.07314
▁n	-9.07387
▁moving	-9.07442
▁treat	-9.07594
▁pass	-9.07664
▁yes	-9.07682
▁warm	-9.07695
▁u	-9.07731
▁contented	-9.07878
▁line	-9.0791
ful	-9.07928
▁lose	-9.07935
▁act	-9.07989
▁moments	-9.08039
▁father	-9.08042
▁loss	-9.08275
▁group	-9.08686
▁age	-9.08942
is	-9.09361
▁peace	-9.09439
▁envious	-9.09439
▁perhaps	-9.09439
▁stomach	-9.09439
▁frantic	-9.0944
▁skeptical	-9.09441
▁opportunity	-9.09442
▁worried	-9.0946
▁appreciative	-9.095
▁tomorrow	-9.09519
▁possible	-9.09699
▁four	-9.0981
▁healthy	-9.09968
▁due	-9.10204
out	-9.10939
▁upon	-9.11026
▁personal	-9.11295
▁seen	-9.11389
▁art	-9.11529
▁unpleasant	-9.11617
▁church	-9.1167
▁doesn	-9.11768
▁air	-9.11948
▁expect	-9.12505
▁spirit	-9.12593
▁h	-9.13098
▁please	-9.13117
▁top	-9.13318
▁imagine	-9.13627
▁pull	-9.13744
▁dazed	-9.13838
▁easily	-9.13846
▁o	-9.13863
▁connection	-9.13871
▁means	-9.14004
▁seriously	-9.14016
▁met	-9.14601
▁early	-9.14815
▁forget	-9.15121
▁pray	-9.15213
▁kept	-9.16154
▁negative	-9.16172
▁messy	-9.16254
▁amused	-9.16347
▁arms	-9.16534
▁cut	-9.16832
▁wearing	-9.17417
▁piece	-9.1764
▁usual	-9.17744
▁figure	-9.18023
▁offer	-9.18166
▁anger	-9.1837
▁tragic	-9.18431
▁sentimental	-9.18435
▁crazy	-9.1844
▁src	-9.18444
▁distressed	-9.18474
▁dark	-9.18559
▁tend	-9.18662
▁characters	-9.19007
▁state	-9.19731
▁hit	-9.19736
▁fit	-9.19787
▁missing	-9.19836
▁voice	-9.1998
▁brain	-9.19989
▁sound	-9.20111
▁respect	-9.20529
▁health	-9.20649
▁except	-9.20685
▁suspicious	-9.20815
▁death	-9.2082
▁doubtful	-9.20822
▁community	-9.20822
ation	-9.20905
▁worse	-9.20924
▁recently	-9.2093
▁tears	-9.21143
▁looks	-9.21228
▁red	-9.21274
and	-9.21364
▁worked	-9.2144
▁kiss	-9.21543
▁heard	-9.21589
▁questions	-9.21782
▁step	-9.21872
▁pressure	-9.2219
▁level	-9.22443
▁worry	-9.22593
▁known	-9.22726
▁mix	-9.22751
▁complete	-9.23108
▁difficult	-9.23252
▁themselves	-9.23253
▁attempt	-9.23253
▁fuck	-9.23276
▁general	-9.23315
▁delighted	-9.23322
▁quickly	-9.23375
ry	-9.23635
▁finished	-9.23782
▁hell	-9.2426
▁dis	-9.24313
▁picture	-9.24516
▁count	-9.24634
▁kid	-9.24715
▁truth	-9.24825
▁decision	-9.24956
▁honest	-9.25054
▁case	-9.25155
▁los	-9.25432
▁sun	-9.2547
▁visit	-9.2547
▁express	-9.25619
▁black	-9.25754
▁playful	-9.25766
▁process	-9.26024
▁issues	-9.26387
th	-9.26412
as	-9.26515
▁pictures	-9.27002
▁project	-9.27551
▁br	-9.27594
▁describe	-9.27656
▁readers	-9.27668
▁news	-9.27814
▁keen	-9.27854
▁lie	-9.27854
▁kick	-9.2788
▁appreciate	-9.2815
▁glamorous	-9.28316
▁disillusioned	-9.28317
▁idiotic	-9.28319
▁everyday	-9.28357
▁wife	-9.28361
▁check	-9.28366
▁stories	-9.2837
cross	-9.28512
▁sitt	-9.28657
▁title	-9.28752
▁allowed	-9.2885
▁personally	-9.29088
▁clean	-9.29222
▁meeting	-9.29277
u	-9.29335
▁crying	-9.2935
fucking	-9.29444
▁anyway	-9.30174
▁looked	-9.30436
▁decide	-9.30794
▁college	-9.30945
▁presence	-9.30946
▁remorseful	-9.30948
▁avoid	-9.31001
▁extra	-9.31037
▁doubt	-9.31203
p	-9.31275
▁physically	-9.31317
▁clear	-9.31404
▁thank	-9.3198
▁listening	-9.32265
▁sever	-9.32388
le	-9.32648
▁effort	-9.32726
▁ha	-9.32748
▁sister	-9.32841
▁choice	-9.32855
▁son	-9.33159
▁door	-9.33307
▁sleeping	-9.33349
▁sex	-9.33548
▁subject	-9.33652
▁gotten	-9.33678
▁busy	-9.33756
▁wants	-9.33842
▁huge	-9.3392
▁weather	-9.34019
▁says	-9.34562
▁breath	-9.34767
▁di	-9.35408
▁gift	-9.35631
▁color	-9.35706
▁simple	-9.35783
▁dad	-9.35961
▁guilt	-9.3624
ily	-9.36293
▁hostile	-9.36425
▁blogging	-9.36473
▁yourself	-9.36474
▁sadness	-9.36523
▁training	-9.36784
▁freak	-9.36866
▁photos	-9.36888
ty	-9.37019
▁evening	-9.3706
el	-9.37236
▁helping	-9.3769
▁emotionally	-9.37701
▁social	-9.37723
▁despi	-9.37887
ng	-9.38056
▁return	-9.38109
▁happens	-9.38168
▁st	-9.38175
▁putt	-9.38251
▁film	-9.38506
▁number	-9.38585
▁asking	-9.38698
k	-9.39074
▁reasons	-9.39165
▁create	-9.39241
▁fight	-9.39267
▁grouchy	-9.39281
▁daughter	-9.39282
▁sociable	-9.39282
▁beyond	-9.39284
▁choose	-9.39371
▁managed	-9.39465
▁passed	-9.3964
▁rat	-9.39985
ling	-9.40198
▁hop	-9.40431
gonna	-9.40544
▁drink	-9.40562
▁dog	-9.40906
▁happening	-9.40965
▁ended	-9.41133
▁problem	-9.41435
fully	-9.41442
▁boyfriend	-9.41473
▁area	-9.41608
▁physical	-9.41822
▁comfort	-9.4191
▁strength	-9.42082
▁public	-9.42213
▁indecisive	-9.42223
▁complacent	-9.42223
▁anxiety	-9.42226
▁clothes	-9.42226
▁happiness	-9.4223
▁inhibited	-9.4223
▁dinner	-9.42236
▁j	-9.42251
▁entertained	-9.42257
▁hateful	-9.4227
▁purpose	-9.42303
▁catch	-9.42313
▁soul	-9.42338
▁rain	-9.42382
▁smell	-9.42454
se	-9.4248
▁ahead	-9.42597
▁cover	-9.42697
▁nor	-9.42727
▁shar	-9.43393
special	-9.43754
▁comment	-9.44083
▁computer	-9.44296
▁ideas	-9.44358
▁text	-9.44385
▁season	-9.44443
▁result	-9.44541
▁power	-9.44616
▁paper	-9.44744
▁pregnant	-9.45252
▁further	-9.45253
▁lazy	-9.45253
▁distraught	-9.45253
▁difference	-9.45253
▁knowledge	-9.45264
▁daily	-9.45264
▁company	-9.45288
▁lord	-9.45367
▁main	-9.45431
▁posting	-9.45481
▁la	-9.45487
▁pre	-9.45579
▁lead	-9.4585
▁results	-9.4602
ted	-9.46418
▁view	-9.46494
▁present	-9.47149
▁songs	-9.47229
▁ground	-9.47519
▁conversation	-9.47581
it	-9.47863
▁issue	-9.47928
▁media	-9.48007
b	-9.48198
▁terribl	-9.48251
▁large	-9.48294
▁hang	-9.4832
▁memories	-9.48379
▁crap	-9.48392
▁drive	-9.48394
▁okay	-9.48405
▁himself	-9.48459
▁brother	-9.48462
▁desperate	-9.48598
▁slowly	-9.48693
man	-9.48956
ic	-9.49017
rote	-9.49025
▁shouldnt	-9.49234
her	-9.49593
▁fast	-9.4991
▁simpl	-9.49969
▁die	-9.50144
▁spot	-9.5068
▁character	-9.50707
▁quiet	-9.5124
▁fail	-9.51263
▁genuine	-9.51601
▁written	-9.51601
▁stuck	-9.51606
▁compassionate	-9.51607
▁stopped	-9.51613
▁street	-9.51615
▁nature	-9.51617
▁assaulted	-9.51627
▁search	-9.51628
▁information	-9.51631
▁lol	-9.51632
▁devoted	-9.51639
▁gracious	-9.51645
▁onto	-9.5165
▁chest	-9.51659
▁earth	-9.51684
▁odd	-9.51702
▁older	-9.51987
▁expected	-9.5205
▁realiz	-9.52207
▁ga	-9.53692
▁dress	-9.5391
▁holiday	-9.54135
▁pa	-9.54239
▁sexual	-9.54471
▁date	-9.54492
▁dance	-9.54834
▁sarcastic	-9.54935
▁freedom	-9.5494
▁series	-9.54949
▁jolly	-9.54952
▁charming	-9.54972
▁similar	-9.55011
▁beauty	-9.55018
▁somewhere	-9.55027
▁shake	-9.55037
▁heartless	-9.55054
▁shoes	-9.55054
▁fault	-9.55155
▁haven	-9.55258
▁shamed	-9.55277
▁interesting	-9.55296
▁win	-9.5549
▁posts	-9.55743
▁career	-9.55744
▁ma	-9.55853
▁non	-9.56124
ous	-9.56343
▁playing	-9.56389
▁exercise	-9.5642
tion	-9.56478
ish	-9.56697
▁progress	-9.57311
▁deserve	-9.57326
▁system	-9.57513
▁remain	-9.57574
▁blue	-9.57678
▁rare	-9.57878
▁jump	-9.57938
▁page	-9.58301
▁afternoon	-9.58382
▁favorite	-9.58383
▁faith	-9.58383
▁weepy	-9.58384
▁earlier	-9.58385
▁facebook	-9.58394
▁birthday	-9.58396
▁society	-9.58396
▁fix	-9.58427
▁betrayed	-9.5845
▁message	-9.58569
▁city	-9.58629
▁itself	-9.58897
▁path	-9.58926
▁notice	-9.58956
▁feet	-9.58964
ability	-9.59495
▁complain	-9.59576
▁boys	-9.59901
aking	-9.59916
▁v	-9.60113
▁relationships	-9.6042
▁situations	-9.60643
▁author	-9.60897
▁handle	-9.61049
red	-9.61613
▁office	-9.61811
▁obnoxious	-9.61953
▁business	-9.61954
▁elegant	-9.61959
iddle	-9.62002
▁silly	-9.62057
▁review	-9.62105
▁culture	-9.62113
▁struggling	-9.62166
▁dead	-9.6219
ne	-9.62195
▁white	-9.62249
▁members	-9.62286
tight	-9.62406
▁fans	-9.62458
▁realise	-9.62618
▁bar	-9.62908
▁ex	-9.63025
▁practice	-9.63157
▁tv	-9.63255
▁wouldn	-9.63256
▁gut	-9.63282
▁lively	-9.6367
▁laugh	-9.63735
▁dreams	-9.63846
anna	-9.64193
▁slow	-9.64619
▁emotion	-9.64763
▁sunday	-9.64795
▁draw	-9.64832
▁minute	-9.64863
▁eye	-9.6489
▁ache	-9.64938
na	-9.64985
ts	-9.65042
▁badly	-9.65108
▁rel	-9.6511
▁hi	-9.65116
▁target	-9.65327
▁understanding	-9.65328
me	-9.65357
▁straight	-9.6551
▁suffer	-9.656
▁hide	-9.65639
▁secret	-9.65648
▁episode	-9.65655
▁confidence	-9.65657
▁awesome	-9.65669
▁pride	-9.65686
▁travel	-9.65873
▁stick	-9.66111
▁taste	-9.66309
▁experienced	-9.66448
▁six	-9.66649
▁thanks	-9.66788
▁li	-9.66795
▁falling	-9.66801
▁fat	-9.67494
▁bitch	-9.67518
▁pop	-9.67522
▁meant	-9.67714
▁challenge	-9.685
▁wall	-9.68539
▁mouth	-9.68655
▁changes	-9.68743
▁cross	-9.68913
imply	-9.69152
▁manage	-9.69248
▁discover	-9.69376
▁leaves	-9.69449
▁journey	-9.69485
▁doctor	-9.69495
▁regular	-9.69497
▁bouncy	-9.69512
▁above	-9.69515
ave	-9.69519
▁blamed	-9.69566
ar	-9.69744
▁filled	-9.69751
▁noticed	-9.69902
▁harder	-9.69949
▁mentally	-9.69972
▁currently	-9.69989
ary	-9.70136
▁changed	-9.70397
▁beside	-9.70582
▁pro	-9.70598
▁projects	-9.70702
▁provide	-9.71181
▁join	-9.71229
▁ca	-9.71276
▁sh	-9.715
▁leg	-9.71566
▁relax	-9.71933
▁mo	-9.71973
▁beg	-9.72109
▁blood	-9.72288
▁belong	-9.72714
▁lo	-9.72774
▁whats	-9.72892
▁ba	-9.73122
▁event	-9.73148
▁current	-9.73305
▁partner	-9.7332
▁sing	-9.73464
▁neglectful	-9.73489
▁stunned	-9.73491
▁major	-9.73491
▁outraged	-9.73506
▁weak	-9.73592
▁received	-9.73636
▁size	-9.73675
▁fearless	-9.73725
▁aware	-9.73765
▁folks	-9.7378
▁regard	-9.7386
▁legs	-9.74273
▁works	-9.7429
▁winter	-9.74444
▁kill	-9.74612
▁lived	-9.74653
▁choices	-9.74681
▁wor	-9.74681
▁soft	-9.74898
▁forgive	-9.74936
▁breathe	-9.75177
▁rock	-9.75455
▁lay	-9.76163
am	-9.76524
sh	-9.76548
▁star	-9.76562
▁accept	-9.76567
▁friday	-9.76664
▁road	-9.768
▁mess	-9.76856
▁sweat	-9.76866
▁se	-9.77023
▁cheer	-9.7758
▁possibl	-9.7764
▁contact	-9.77656
▁local	-9.77661
▁distance	-9.77662
▁involved	-9.77679
▁graceful	-9.77688
▁fresh	-9.77704
▁immediately	-9.77714
▁wedding	-9.77722
▁bored	-9.77729
▁poor	-9.77758
▁considerate	-9.77783
▁reality	-9.77837
▁online	-9.77853
▁annoying	-9.77898
▁overall	-9.78134
▁fill	-9.78155
▁bare	-9.78164
▁studying	-9.78203
▁fingers	-9.783
▁save	-9.78743
▁gain	-9.78744
▁grand	-9.78818
▁cat	-9.78838
▁hurts	-9.78902
▁events	-9.79088
▁awake	-9.79533
▁forever	-9.79697
▁shut	-9.80151
by	-9.80338
▁depend	-9.80771
▁experiences	-9.80842
▁internet	-9.80983
▁window	-9.81153
▁video	-9.81262
▁ran	-9.81451
▁service	-9.81475
▁environment	-9.81511
▁tough	-9.81687
▁becomes	-9.81688
▁burden	-9.81709
▁mental	-9.81832
▁success	-9.81948
▁regret	-9.81991
▁coffee	-9.82
▁depression	-9.82007
▁blah	-9.82015
▁email	-9.82019
▁potential	-9.82025
▁idiot	-9.82029
▁lady	-9.82029
▁married	-9.8203
▁repressed	-9.82034
▁universe	-9.82038
▁chocolate	-9.82066
▁goal	-9.8211
▁isn	-9.82227
▁field	-9.82258
▁stage	-9.82365
▁miles	-9.82375
▁mum	-9.82402
▁release	-9.82423
▁flow	-9.82445
▁heat	-9.82491
▁appreciated	-9.82659
▁products	-9.827
▁spiritual	-9.8285
▁test	-9.82939
▁en	-9.83061
▁wind	-9.83139
▁vi	-9.83451
▁tad	-9.83634
ance	-9.83778
▁wo	-9.8399
▁perfectly	-9.84024
▁pair	-9.84614
▁drop	-9.85089
▁suck	-9.85241
▁sore	-9.85347
▁monday	-9.85561
▁link	-9.85588
▁audience	-9.85691
ont	-9.85706
ie	-9.85742
▁artist	-9.85754
▁direction	-9.85842
led	-9.85965
▁scene	-9.86045
aught	-9.86071
▁table	-9.86251
▁agree	-9.86309
▁luck	-9.86346
▁x	-9.86353
▁bus	-9.86385
▁hug	-9.86456
▁language	-9.86545
▁furious	-9.86547
▁pregnancy	-9.86551
▁otherwise	-9.86553
▁eventually	-9.86579
▁anybody	-9.86628
▁edge	-9.86694
▁truthful	-9.86719
▁based	-9.8678
▁lips	-9.86803
▁among	-9.86811
▁bike	-9.86917
▁apart	-9.86967
▁created	-9.86967
ory	-9.86972
▁report	-9.87129
▁broken	-9.87162
▁send	-9.87289
▁effects	-9.87302
▁alive	-9.87385
▁brown	-9.87405
▁wi	-9.87427
x	-9.87505
▁died	-9.87916
▁roll	-9.88084
▁embrace	-9.88329
▁design	-9.8836
▁movies	-9.8842
▁card	-9.88447
▁standing	-9.88626
▁hat	-9.88942
▁bi	-9.89452
▁arm	-9.89643
▁basic	-9.90105
▁bag	-9.90229
▁victim	-9.90368
▁lett	-9.90439
▁girlfriend	-9.90439
▁photo	-9.90509
▁teacher	-9.90564
▁compare	-9.90788
▁tree	-9.90899
▁total	-9.91204
▁prefer	-9.91304
▁accident	-9.91307
▁familiar	-9.91307
▁saturday	-9.91307
▁yeah	-9.91319
▁memory	-9.91319
▁resigned	-9.91323
▁shopping	-9.91325
▁novel	-9.91328
▁history	-9.91347
▁birth	-9.91411
▁fashion	-9.91425
▁obviously	-9.91542
▁equally	-9.91543
▁skills	-9.9158
▁afterwards	-9.91583
▁band	-9.91627
to	-9.91661
▁fab	-9.91801
▁sky	-9.9193
▁carry	-9.91934
▁interested	-9.9197
▁building	-9.92042
▁fan	-9.92309
▁dread	-9.92613
body	-9.92784
▁train	-9.92795
▁topic	-9.92856
▁decisions	-9.92859
▁ride	-9.93341
▁per	-9.934
▁mid	-9.93504
▁yog	-9.93546
▁shower	-9.93723
▁games	-9.93769
▁shop	-9.939
▁sign	-9.93905
▁wa	-9.93915
▁town	-9.94028
▁shouldn	-9.94029
▁sea	-9.94409
▁round	-9.94454
▁cast	-9.94484
▁pace	-9.95101
▁exam	-9.95113
ated	-9.95115
▁wine	-9.95264
nd	-9.95322
▁foot	-9.95326
▁period	-9.95474
▁reaction	-9.95504
▁surround	-9.95582
▁letter	-9.95625
▁position	-9.9568
▁study	-9.9568
▁glass	-9.95819
coming	-9.95866
▁mark	-9.95871
▁key	-9.95885
▁constant	-9.95895
▁serious	-9.95938
▁workout	-9.95955
▁specific	-9.96264
▁jesus	-9.96307
▁breakfast	-9.96307
▁excitement	-9.96308
▁approach	-9.96308
▁english	-9.9631
▁ridiculous	-9.96315
▁garden	-9.96323
▁haha	-9.96341
▁bunch	-9.96363
▁anywhere	-9.96367
▁brush	-9.9637
▁alarmed	-9.96374
▁overwhelming	-9.96406
▁statement	-9.96439
nce	-9.96445
▁treatment	-9.96448
▁sensitive	-9.96476
▁muscles	-9.96537
▁details	-9.96578
▁image	-9.96585
▁po	-9.96717
▁born	-9.96735
▁intense	-9.96744
▁feed	-9.96828
▁common	-9.96908
▁beat	-9.96999
▁clearly	-9.97054
▁lunch	-9.9718
▁north	-9.97193
▁focused	-9.97251
▁bu	-9.97491
▁holidays	-9.97528
▁diet	-9.97641
ny	-9.97803
▁escape	-9.97987
▁pieces	-9.98062
▁shared	-9.98183
res	-9.98212
▁le	-9.98731
▁fin	-9.98796
▁socially	-9.98996
tiny	-9.99021
ke	-9.99091
ter	-9.99502
side	-9.99596
▁form	-9.9978
▁pe	-9.99905
▁product	-10.0059
▁meaning	-10.0062
▁flash	-10.0062
▁fe	-10.0068
▁typ	-10.0075
▁mistake	-10.0077
▁ice	-10.0085
▁build	-10.0087
▁con	-10.0105
fore	-10.0112
▁club	-10.013
▁action	-10.0146
▁kitchen	-10.0157
▁recommend	-10.0157
▁vacation	-10.0157
▁random	-10.0157
▁gym	-10.0157
▁university	-10.0157
▁tool	-10.0159
▁throat	-10.016
▁conscious	-10.0161
▁education	-10.0163
▁silent	-10.0164
▁accomplished	-10.0166
▁financial	-10.0167
▁shoot	-10.0169
▁shall	-10.017
▁properly	-10.0172
▁blow	-10.0172
▁herself	-10.0173
▁cream	-10.0174
▁timid	-10.0175
▁appear	-10.0177
▁somebody	-10.018
▁concerned	-10.018
▁increasing	-10.018
▁brand	-10.0181
▁professional	-10.0184
▁asleep	-10.0191
▁spring	-10.0194
▁discuss	-10.0198
▁coz	-10.0218
▁version	-10.0221
▁law	-10.0222
▁lessons	-10.0229
▁core	-10.0236
▁continued	-10.0247
▁ease	-10.0252
using	-10.0254
▁radio	-10.0259
▁nail	-10.026
ns	-10.0281
▁joke	-10.0287
▁reader	-10.0292
▁blogs	-10.0301
▁sounds	-10.0345
▁prove	-10.035
▁cycle	-10.0354
▁box	-10.0372
▁celebrate	-10.0376
il	-10.0384
stood	-10.0389
ur	-10.0458
▁cos	-10.0506
▁store	-10.052
▁program	-10.0534
▁develop	-10.054
▁bear	-10.0567
▁parent	-10.0567
way	-10.0574
▁price	-10.0599
▁failure	-10.0614
▁frustration	-10.0625
▁fly	-10.0626
▁shame	-10.0631
▁effect	-10.0632
▁response	-10.0632
▁shift	-10.0652
▁america	-10.0662
▁attack	-10.0683
▁balance	-10.0708
▁adult	-10.0712
▁routine	-10.0713
▁appalled	-10.0713
▁neurotic	-10.0713
▁thanksgiving	-10.0713
▁research	-10.0713
▁babies	-10.0713
▁maintain	-10.0713
▁government	-10.0713
▁childhood	-10.0713
▁dismayed	-10.0713
▁neck	-10.0714
▁lifestyle	-10.0714
▁heavy	-10.0716
▁planning	-10.0716
▁chair	-10.0717
▁writer	-10.0717
▁adventure	-10.0724
▁reflect	-10.0725
▁chosen	-10.0725
▁bottom	-10.0727
▁actual	-10.0734
▁gained	-10.0756
▁terms	-10.0766
▁yell	-10.0766
▁held	-10.0768
▁solution	-10.0773
▁match	-10.0774
▁role	-10.0778
▁judge	-10.0782
▁plus	-10.0784
ture	-10.0806
▁simp	-10.0809
▁mis	-10.0816
▁park	-10.0822
▁actions	-10.0832
▁fighting	-10.0833
▁none	-10.0842
▁conversations	-10.0858
ship	-10.0861
▁ab	-10.087
▁lock	-10.0893
▁press	-10.091
▁paint	-10.0911
▁site	-10.0917
ent	-10.0934
▁emo	-10.0935
▁places	-10.0938
id	-10.0983
▁tear	-10.1016
▁swim	-10.1032
age	-10.1035
ized	-10.1084
▁bother	-10.1149
un	-10.1152
▁rid	-10.1153
▁perspective	-10.1216
▁attitude	-10.122
▁headache	-10.122
he	-10.1228
▁scream	-10.1235
▁possib	-10.1237
▁pretend	-10.1238
▁connect	-10.1252
▁enter	-10.1255
▁protect	-10.126
▁sugar	-10.1274
▁require	-10.1285
▁perform	-10.1288
▁surprise	-10.1289
▁american	-10.1294
▁activities	-10.1301
▁twitter	-10.1301
▁album	-10.1301
▁victimized	-10.1301
▁hungry	-10.1301
▁climb	-10.1301
▁wimpy	-10.1302
▁article	-10.1302
▁easier	-10.1302
▁aggravated	-10.1302
▁instantly	-10.1302
▁apartment	-10.1302
▁suggest	-10.1302
▁limit	-10.1304
▁crowd	-10.1304
▁plot	-10.1305
▁performance	-10.1306
▁driving	-10.1306
▁whiney	-10.1309
▁green	-10.1309
▁passion	-10.131
▁receive	-10.1314
▁respond	-10.1318
▁urge	-10.1319
▁floor	-10.1319
▁recognize	-10.1324
▁dear	-10.1324
▁swear	-10.1327
▁cup	-10.1328
▁younger	-10.1335
▁bank	-10.1339
▁waking	-10.1344
▁movement	-10.1356
▁pulled	-10.1373
▁images	-10.1402
▁added	-10.1417
▁scent	-10.1418
▁goals	-10.1419
▁played	-10.1426
▁breathing	-10.1448
▁christ	-10.1451
▁becom	-10.1455
be	-10.1455
▁gifts	-10.1474
▁efforts	-10.1481
▁wound	-10.1489
one	-10.151
▁knows	-10.154
▁brings	-10.158
▁tea	-10.1588
▁fire	-10.1595
▁million	-10.1653
▁heal	-10.1698
▁vote	-10.1711
▁ne	-10.173
ta	-10.1731
▁teach	-10.1749
▁dr	-10.1754
um	-10.1759
▁land	-10.1771
ill	-10.1772
z	-10.1822
▁da	-10.1824
▁showing	-10.1835
▁degree	-10.1838
the	-10.184
▁outfit	-10.1843
▁individual	-10.1844
▁finger	-10.1848
▁willing	-10.1849
▁height	-10.1853
▁shape	-10.1858
▁force	-10.1866
▁master	-10.1877
▁repeat	-10.1879
ine	-10.188
ard	-10.1883
▁natural	-10.1884
▁loneliness	-10.1926
▁relief	-10.1926
▁families	-10.1926
▁fabric	-10.1926
▁gratitude	-10.1926
▁advice	-10.1926
▁google	-10.1926
▁hospital	-10.1926
▁literally	-10.1926
▁bookmark	-10.1926
▁morose	-10.1926
▁fellow	-10.1926
▁motivation	-10.1928
▁heaven	-10.193
▁camera	-10.193
▁treasured	-10.1931
▁warmth	-10.1931
▁personality	-10.1932
▁necessary	-10.1937
▁track	-10.1937
▁cheap	-10.1938
▁invest	-10.1942
▁creating	-10.1943
▁block	-10.1946
▁dating	-10.1949
▁uk	-10.195
▁admired	-10.1954
▁discussion	-10.1968
▁sake	-10.1981
▁refuse	-10.1981
▁classes	-10.1988
▁greater	-10.1988
▁angered	-10.2003
lly	-10.2004
▁reminder	-10.2029
▁walls	-10.2039
▁laughing	-10.2042
▁rise	-10.2046
▁cleaning	-10.2079
▁vision	-10.2083
▁lift	-10.2093
▁load	-10.2096
▁oil	-10.2104
▁points	-10.2111
▁compar	-10.2155
▁hearts	-10.216
▁active	-10.2183
▁rais	-10.2208
ley	-10.221
my	-10.2219
uz	-10.222
▁moral	-10.2236
▁react	-10.2238
▁du	-10.2253
▁alot	-10.2259
either	-10.2269
ism	-10.2307
▁quote	-10.2315
▁parts	-10.2318
▁inter	-10.2325
▁beach	-10.2347
▁tight	-10.2353
▁bo	-10.2367
ible	-10.237
▁starts	-10.2374
of	-10.2408
▁areas	-10.2414
▁market	-10.2429
im	-10.2434
ble	-10.2456
▁nap	-10.2476
▁record	-10.2485
▁interest	-10.2485
over	-10.2494
▁concern	-10.2496
▁drama	-10.25
▁cares	-10.2506
▁christian	-10.2506
▁opinion	-10.2511
▁gt	-10.252
ay	-10.253
▁su	-10.2534
quality	-10.2547
▁sudden	-10.2552
▁trouble	-10.2571
▁chose	-10.2581
▁confess	-10.2582
▁marathon	-10.2592
▁ultimate	-10.2592
▁inspiration	-10.2593
▁vicious	-10.2593
▁unworthy	-10.2593
▁spiteful	-10.2593
▁anticipation	-10.2593
▁horse	-10.2594
▁extent	-10.2594
▁credit	-10.2594
▁succeed	-10.2594
▁affectionate	-10.2594
▁third	-10.2595
▁sympathy	-10.2595
▁ignore	-10.2595
▁energized	-10.2596
▁cheated	-10.2596
▁impact	-10.2599
▁ourselves	-10.26
▁safety	-10.26
▁everywhere	-10.26
▁lyrics	-10.2601
▁admire	-10.2605
▁arrived	-10.261
▁loud	-10.2611
▁motivated	-10.2613
ring	-10.2617
▁button	-10.2629
▁lesson	-10.2635
▁illness	-10.2638
▁ho	-10.2641
▁forced	-10.2643
light	-10.2649
▁rule	-10.2653
▁tasks	-10.2659
▁gettin	-10.2659
▁teaching	-10.2663
▁screaming	-10.2669
▁healing	-10.2671
▁male	-10.2674
▁bond	-10.2677
▁storm	-10.2679
▁rep	-10.2682
▁shirt	-10.2684
▁trees	-10.269
▁picked	-10.2694
▁snow	-10.2694
▁writers	-10.2698
▁exams	-10.2703
▁teachers	-10.2708
▁cards	-10.2709
▁whil	-10.271
▁pages	-10.2736
▁battle	-10.2737
▁touched	-10.2753
▁explore	-10.279
▁burn	-10.2796
▁views	-10.28
▁publish	-10.2801
▁wave	-10.2833
▁gods	-10.2855
iness	-10.2865
▁ending	-10.2884
▁thin	-10.2904
▁fears	-10.2914
▁caus	-10.2926
came	-10.2938
▁plans	-10.2952
der	-10.301
▁wasted	-10.3014
▁fo	-10.3042
▁loves	-10.3047
▁cook	-10.3059
▁sand	-10.3069
ught	-10.3075
les	-10.3107
▁runs	-10.3152
▁ww	-10.3169
▁improve	-10.3197
▁example	-10.3219
▁marriage	-10.3224
▁benefit	-10.3224
▁corner	-10.3225
▁depth	-10.3227
▁dig	-10.3228
▁friendship	-10.3229
rs	-10.3236
▁student	-10.3243
v	-10.3255
▁behavior	-10.3262
▁previous	-10.3264
▁schedule	-10.3271
▁convince	-10.3287
cy	-10.3292
▁achieve	-10.3294
▁fulfill	-10.3305
▁tuesday	-10.3307
▁enraged	-10.3307
▁cloud	-10.3307
▁splendid	-10.3307
▁tongue	-10.3307
▁apparent	-10.3307
▁london	-10.3307
▁unsuccessful	-10.3307
▁blind	-10.3308
▁surgery	-10.3308
▁unwanted	-10.3308
ether	-10.3308
▁drove	-10.3308
▁settle	-10.3309
▁manner	-10.331
▁bigger	-10.3311
▁function	-10.3311
▁pink	-10.3312
▁cried	-10.3314
▁giggly	-10.3314
▁suspect	-10.3315
▁clothing	-10.3315
▁flight	-10.3319
▁smiling	-10.3326
▁animals	-10.3328
▁original	-10.3329
▁outgoing	-10.3332
▁initial	-10.3334
▁forgot	-10.334
▁items	-10.334
▁pics	-10.3343
▁blessings	-10.3346
▁grabb	-10.3346
▁grade	-10.3349
▁below	-10.335
▁unkind	-10.3353
▁gay	-10.3365
▁relate	-10.3366
▁pity	-10.3367
▁prepare	-10.3371
▁makeup	-10.3371
▁sexy	-10.3372
▁prepared	-10.3377
▁horribl	-10.3381
▁dump	-10.3382
▁values	-10.3388
▁wild	-10.3393
▁pool	-10.3405
▁decent	-10.3414
pping	-10.3422
▁ya	-10.3428
ons	-10.3438
▁bright	-10.3443
▁coat	-10.3448
▁challenges	-10.3463
▁sight	-10.3482
▁plane	-10.3501
line	-10.3503
▁contain	-10.3503
▁quit	-10.3505
▁closed	-10.3507
▁colors	-10.3513
▁ju	-10.3541
▁provid	-10.3573
▁hid	-10.3574
▁feature	-10.3584
▁journal	-10.3584
▁nights	-10.3587
▁headed	-10.3609
▁concentrate	-10.3615
▁smoke	-10.3615
▁ear	-10.3706
▁hoped	-10.3707
▁curl	-10.3726
▁aside	-10.377
▁quick	-10.378
ney	-10.3783
▁hole	-10.3809
up	-10.3823
ut	-10.3824
▁mothers	-10.3825
▁pr	-10.3848
▁pm	-10.3854
▁na	-10.3877
ck	-10.3884
▁com	-10.3943
ze	-10.3965
▁value	-10.3968
per	-10.3973
▁term	-10.3973
ure	-10.3975
▁hero	-10.3992
▁craving	-10.3992
▁session	-10.3993
▁recipe	-10.3994
▁teenager	-10.3994
▁exist	-10.3997
▁bill	-10.4001
▁patient	-10.401
▁prayer	-10.4014
▁sorts	-10.402
▁relative	-10.4033
▁member	-10.4042
rew	-10.4046
▁angel	-10.4047
▁cramp	-10.405
land	-10.4051
▁si	-10.4051
▁sell	-10.4052
▁attach	-10.4056
▁sensation	-10.4075
▁hundred	-10.4076
▁medicine	-10.4076
▁plenty	-10.4076
▁suicide	-10.4076
▁tranquil	-10.4076
▁laundry	-10.4076
▁unnecessary	-10.4076
▁poetry	-10.4076
▁giant	-10.4076
▁demand	-10.4077
▁hellip	-10.4077
▁combination	-10.4077
▁identify	-10.4077
▁newborn	-10.4077
▁industry	-10.4077
▁powerful	-10.4078
▁sorrow	-10.4078
▁receiving	-10.4079
▁granted	-10.4079
▁forgotten	-10.4079
▁scale	-10.408
▁charmed	-10.408
▁homework	-10.4081
▁condition	-10.4082
▁basis	-10.4083
▁cancer	-10.4083
▁experiencing	-10.4084
▁circumstances	-10.4093
▁mild	-10.4104
▁abandoned	-10.4104
▁float	-10.4107
▁achieved	-10.4109
▁painting	-10.4113
▁expectations	-10.4113
▁abilities	-10.4117
▁apply	-10.4117
▁unlike	-10.4118
▁official	-10.4135
▁engl	-10.4135
▁boss	-10.4136
turned	-10.4137
▁y	-10.4137
▁naturally	-10.4145
▁presented	-10.415
▁flowers	-10.4152
▁contribute	-10.4156
▁hey	-10.4165
▁opinions	-10.4171
▁workers	-10.4177
▁represent	-10.4179
▁ball	-10.4188
▁gre	-10.4192
▁meal	-10.4194
▁worthy	-10.4196
▁pursue	-10.4198
▁beating	-10.4229
▁setting	-10.4237
▁section	-10.4241
▁gun	-10.4268
▁mission	-10.4277
▁fell	-10.4304
▁sent	-10.4307
▁disappear	-10.4328
▁fac	-10.4353
ries	-10.4359
▁heavi	-10.4362
▁belly	-10.4375
▁breaking	-10.4381
▁flat	-10.4387
shes	-10.4406
are	-10.4451
▁stretch	-10.4457
▁gu	-10.4471
▁includ	-10.4494
▁cope	-10.4511
ious	-10.4543
▁lying	-10.4561
▁craft	-10.4564
▁capture	-10.4565
ff	-10.4575
▁practical	-10.4582
▁jo	-10.4614
all	-10.4619
ds	-10.462
▁wise	-10.4621
dding	-10.464
▁base	-10.4645
protected	-10.4645
ology	-10.4656
▁ears	-10.467
ities	-10.467
▁produce	-10.4692
▁mi	-10.4696
ings	-10.4711
▁mu	-10.4719
▁sa	-10.4766
▁sigh	-10.4774
ical	-10.479
ba	-10.4792
▁smooth	-10.4798
▁excuse	-10.4822
▁equal	-10.483
▁bird	-10.4831
▁option	-10.4833
▁direct	-10.4834
▁colour	-10.4836
▁promise	-10.4838
▁flower	-10.4854
▁obvious	-10.4868
▁recent	-10.487
▁player	-10.4871
▁spread	-10.4873
▁iv	-10.4874
▁abandon	-10.4879
▁excit	-10.4883
ordinary	-10.4884
▁welcome	-10.4888
▁log	-10.489
▁importan	-10.4897
▁available	-10.4909
▁ludicrous	-10.4909
▁semester	-10.4909
▁sunshine	-10.4909
▁website	-10.4909
▁wednesday	-10.4909
▁female	-10.4909
▁religious	-10.4909
▁significant	-10.4909
▁guitar	-10.4909
▁expensive	-10.4909
▁vague	-10.4909
▁ocean	-10.4909
▁thorough	-10.4909
▁grief	-10.4909
▁responsibility	-10.4909
▁creativity	-10.4909
▁immense	-10.4909
▁possibility	-10.491
▁football	-10.491
▁silence	-10.491
▁slutty	-10.491
▁status	-10.491
▁unique	-10.491
▁flawless	-10.491
▁entry	-10.491
▁chicken	-10.491
▁puppy	-10.4912
▁radiant	-10.4912
▁switch	-10.4912
▁display	-10.4913
▁background	-10.4914
▁impossible	-10.4914
▁vibe	-10.4914
▁peers	-10.4914
▁frank	-10.4914
▁fruit	-10.4915
▁dancing	-10.4916
▁cough	-10.4917
▁burst	-10.4917
▁startled	-10.4919
▁painful	-10.4923
▁mommy	-10.4928
▁praise	-10.4928
▁print	-10.4929
▁average	-10.493
fied	-10.4932
▁extend	-10.4938
▁secure	-10.4939
▁intended	-10.494
▁politic	-10.4944
▁settled	-10.4945
▁apologize	-10.4948
▁plain	-10.4962
▁plant	-10.4964
▁customers	-10.4971
▁grey	-10.4975
▁charit	-10.4991
▁serve	-10.4992
▁cooking	-10.4992
▁host	-10.5004
▁returned	-10.5009
▁rush	-10.5019
▁whos	-10.5023
▁awhile	-10.5036
▁mistakes	-10.5041
▁task	-10.5049
▁affect	-10.5051
▁chill	-10.5057
▁jealousy	-10.5062
▁learnt	-10.5075
▁sp	-10.5075
▁score	-10.508
gged	-10.5087
▁sin	-10.5106
▁drinking	-10.5111
▁drawing	-10.5118
▁happi	-10.5144
▁fish	-10.5159
▁loose	-10.5167
▁pen	-10.5173
▁stepp	-10.5177
▁digni	-10.5193
▁holy	-10.5196
▁sta	-10.5222
▁pains	-10.5233
int	-10.5234
▁groups	-10.5239
▁sink	-10.5242
right	-10.5253
▁hill	-10.527
▁spa	-10.5279
et	-10.5298
▁humans	-10.5303
▁cash	-10.5313
▁hopes	-10.5326
no	-10.5331
▁pained	-10.5343
▁crash	-10.5343
follow	-10.5345
▁attract	-10.5346
▁sw	-10.5347
▁lies	-10.5361
ma	-10.5395
▁opening	-10.5409
▁suit	-10.5413
▁pot	-10.5415
▁intention	-10.5426
▁sale	-10.5435
▁war	-10.5441
▁vent	-10.546
▁aren	-10.5466
king	-10.547
ge	-10.5476
▁cu	-10.5493
▁meat	-10.5501
tting	-10.553
▁follower	-10.5619
▁seat	-10.5625
ate	-10.5643
gun	-10.5672
▁fa	-10.5693
▁ten	-10.5697
▁magic	-10.5698
▁mountain	-10.5719
▁pattern	-10.5726
▁expression	-10.5731
▁outcome	-10.5748
▁steal	-10.5757
do	-10.5761
▁minds	-10.5769
▁onl	-10.5776
▁anti	-10.5781
▁conflict	-10.5787
▁resist	-10.579
▁advance	-10.5795
▁drunk	-10.5813
▁compassion	-10.5818
▁appointment	-10.5818
▁benevolent	-10.5818
▁length	-10.5818
▁chinese	-10.5818
▁opposite	-10.5818
▁distinct	-10.5818
▁unknown	-10.5819
▁grandmother	-10.5819
▁defective	-10.5819
▁temperature	-10.5819
▁airport	-10.5819
▁bodies	-10.5819
▁darling	-10.582
▁desk	-10.582
responsibilities	-10.582
▁breast	-10.582
▁understood	-10.582
▁modern	-10.5821
▁humorous	-10.5821
▁breeze	-10.5821
▁collection	-10.5823
▁awareness	-10.5823
▁handsome	-10.5823
▁bedroom	-10.5824
▁development	-10.5824
▁china	-10.5826
▁growth	-10.583
▁photography	-10.5831
▁consistently	-10.5833
▁mor	-10.5833
▁witness	-10.5833
▁trail	-10.5834
▁refreshed	-10.5837
▁prevent	-10.5838
▁defend	-10.5838
▁therapy	-10.5839
▁encourage	-10.5845
▁permanent	-10.5845
▁bones	-10.5849
▁speed	-10.5852
▁fulfilled	-10.5853
ans	-10.5856
▁admitted	-10.5856
▁dying	-10.5858
▁shot	-10.5864
▁sooner	-10.5865
▁remove	-10.5867
▁justice	-10.5869
▁wide	-10.5869
▁related	-10.5876
▁overcome	-10.5882
ntage	-10.5885
▁stranger	-10.5887
▁mode	-10.5888
▁bloggers	-10.5893
▁coach	-10.5897
▁grace	-10.5899
▁aunt	-10.5909
▁grounded	-10.591
▁bash	-10.5916
▁raw	-10.5922
▁expressed	-10.5928
ver	-10.5932
▁motion	-10.5939
▁individuals	-10.594
▁zone	-10.5944
als	-10.595
▁gear	-10.5958
▁fever	-10.5958
▁eight	-10.5961
▁purchase	-10.5966
▁considered	-10.5974
▁cake	-10.5975
▁bath	-10.5979
▁accepting	-10.5986
▁nast	-10.5991
▁shoulder	-10.5999
▁meals	-10.6011
▁cost	-10.6011
▁lil	-10.6018
▁nose	-10.6022
▁yours	-10.6033
▁ge	-10.6048
▁supported	-10.6055
▁hunt	-10.6059
ide	-10.6064
▁lung	-10.607
till	-10.6088
▁kicks	-10.609
etting	-10.6116
ga	-10.6123
dy	-10.6127
▁states	-10.6136
▁stars	-10.614
ia	-10.6141
▁dunn	-10.6161
▁rough	-10.6182
▁thick	-10.6187
▁wood	-10.6195
ence	-10.6215
▁shout	-10.6231
▁acting	-10.6234
ah	-10.6241
▁chat	-10.627
rry	-10.6282
▁acts	-10.6283
▁continues	-10.6286
▁fi	-10.6326
▁par	-10.6368
▁increase	-10.639
▁occasional	-10.6394
▁alcohol	-10.6402
▁shed	-10.6404
▁communicate	-10.6434
▁sides	-10.6435
uring	-10.6447
▁waste	-10.6455
ha	-10.6457
ied	-10.6471
▁teen	-10.6481
▁sl	-10.6525
▁matters	-10.6532
▁tune	-10.6539
pants	-10.6559
▁believ	-10.6576
▁tip	-10.6602
egan	-10.661
▁spin	-10.663
vision	-10.6654
ant	-10.666
nna	-10.6663
▁ass	-10.6669
lept	-10.6672
here	-10.6683
▁mass	-10.6702
▁crack	-10.6708
▁tension	-10.6718
▁religion	-10.6718
▁pleasure	-10.6718
▁fool	-10.6722
▁cla	-10.6726
▁machine	-10.6726
ist	-10.6731
▁obligation	-10.6732
▁calls	-10.6733
▁circle	-10.6734
▁experiment	-10.6737
ri	-10.674
▁habit	-10.6744
▁update	-10.6745
▁hadn	-10.6747
▁consum	-10.6759
▁blogger	-10.6763
▁classic	-10.6771
reated	-10.678
▁neglect	-10.6785
▁reveal	-10.6788
▁delight	-10.6795
▁abuse	-10.6813
▁speech	-10.6816
▁incident	-10.6818
▁jubilant	-10.6818
▁mirror	-10.6818
▁nauseous	-10.6818
▁restaurant	-10.6818
▁bastard	-10.6818
▁volunteer	-10.6818
▁petrified	-10.6818
▁subconscious	-10.6818
▁document	-10.6818
▁companies	-10.6818
▁british	-10.6818
▁conclusion	-10.6819
▁comparison	-10.6819
▁whisper	-10.6819
▁concept	-10.6819
▁private	-10.6819
▁teeth	-10.6819
▁unfair	-10.6819
▁unmotivated	-10.6819
▁ladies	-10.6819
▁prize	-10.6819
▁false	-10.6819
▁indeed	-10.682
▁naked	-10.6821
▁stroke	-10.6821
▁classroom	-10.6821
els	-10.6821
▁studio	-10.6822
▁ticket	-10.6822
▁interview	-10.6822
▁canvas	-10.6823
▁cheeks	-10.6824
▁fiction	-10.6824
▁perceive	-10.6824
▁acceptance	-10.6824
▁reference	-10.6824
▁alright	-10.6824
▁gross	-10.6825
os	-10.6827
▁disgusting	-10.6829
▁minor	-10.683
time	-10.6834
▁regardless	-10.6835
▁everybody	-10.6837
▁deny	-10.6838
▁massive	-10.6839
▁former	-10.684
▁hyper	-10.684
▁scary	-10.6846
▁mar	-10.6846
▁fortunate	-10.6846
▁centered	-10.6847
▁em	-10.6852
▁guests	-10.6855
▁ac	-10.6857
▁helpful	-10.6858
▁drugs	-10.6859
▁temper	-10.6861
▁planet	-10.6863
▁changing	-10.6865
▁connected	-10.687
▁genre	-10.687
▁engage	-10.6876
▁aspects	-10.6881
▁saving	-10.6882
▁cris	-10.6882
▁invite	-10.6888
▁apple	-10.6889
▁foundation	-10.6893
entered	-10.6911
li	-10.6915
▁courage	-10.6918
▁capable	-10.6919
▁patients	-10.692
▁humble	-10.693
▁screen	-10.6931
▁factor	-10.6936
▁method	-10.6937
go	-10.6942
avage	-10.6947
▁interests	-10.6954
▁soo	-10.6967
▁steve	-10.6968
▁bags	-10.6985
▁letters	-10.6989
▁board	-10.699
▁range	-10.6997
▁artists	-10.7008
▁measure	-10.7025
▁fee	-10.7026
▁mile	-10.7039
▁leading	-10.7043
▁deserves	-10.7069
▁gas	-10.7076
▁cop	-10.7096
▁seasons	-10.7101
▁root	-10.7102
▁handed	-10.7118
▁wander	-10.7118
▁viewer	-10.7124
▁seek	-10.7135
▁differently	-10.7146
▁yo	-10.7155
▁levels	-10.717
▁squeeze	-10.7175
▁shell	-10.7182
▁steps	-10.7182
▁youth	-10.7237
ference	-10.7258
▁uncle	-10.7258
ery	-10.7266
▁sew	-10.7282
▁cookie	-10.7287
▁guide	-10.7317
▁ta	-10.7317
hanging	-10.7341
▁pile	-10.7394
▁material	-10.7397
▁seconds	-10.7416
▁div	-10.7423
rely	-10.7425
sy	-10.7459
▁pack	-10.7471
▁creep	-10.7472
de	-10.7481
med	-10.7484
▁crush	-10.7509
een	-10.753
▁dry	-10.7531
ul	-10.7554
▁scar	-10.756
▁cou	-10.7565
▁pour	-10.7587
▁moms	-10.7596
▁offend	-10.7605
▁pit	-10.7628
▁ru	-10.763
▁refer	-10.7649
eaten	-10.7654
ir	-10.766
▁sub	-10.7672
ol	-10.7676
father	-10.7684
ner	-10.7692
▁sum	-10.7692
place	-10.7694
▁heading	-10.7712
▁replace	-10.7718
▁panic	-10.7743
so	-10.7755
▁shock	-10.7771
▁lb	-10.7775
▁behave	-10.7785
▁recover	-10.7831
▁impression	-10.7839
spite	-10.7841
▁accomplishment	-10.7842
▁folk	-10.7846
▁notic	-10.785
dden	-10.7852
▁customer	-10.7853
▁weigh	-10.7855
▁ignor	-10.7857
▁risk	-10.7858
▁generation	-10.7859
▁wan	-10.7863
▁appearance	-10.7865
set	-10.7877
▁ti	-10.7883
▁grab	-10.7883
▁presentation	-10.7896
▁encounter	-10.7897
▁compliment	-10.7898
use	-10.7904
ors	-10.7905
▁damage	-10.7916
cons	-10.7923
son	-10.7925
▁nine	-10.7928
▁catholic	-10.793
▁citizen	-10.793
▁colleague	-10.793
▁disadvantaged	-10.793
▁essential	-10.793
▁glimpse	-10.793
▁magazine	-10.793
▁sandwich	-10.793
▁vigorous	-10.793
▁crawl	-10.793
▁favourite	-10.793
▁phase	-10.793
▁wisdom	-10.793
▁draft	-10.793
▁accord	-10.793
▁violence	-10.793
▁unexpected	-10.793
▁chemo	-10.793
▁surface	-10.793
▁disorder	-10.793
▁cousin	-10.793
▁yarn	-10.793
▁unfold	-10.793
▁exceptional	-10.793
▁creature	-10.793
▁altogether	-10.793
▁substance	-10.793
▁junk	-10.793
▁roommate	-10.7931
▁staff	-10.7931
▁solid	-10.7931
▁toilet	-10.7931
▁decline	-10.7931
▁library	-10.7931
▁conservative	-10.7932
▁disappointment	-10.7932
▁companion	-10.7933
▁alternative	-10.7933
▁clock	-10.7935
▁fitness	-10.7935
▁motor	-10.7936
▁participate	-10.7937
▁clinic	-10.7938
▁punch	-10.7938
▁protest	-10.7939
▁despised	-10.7939
▁boost	-10.794
▁rising	-10.7941
▁injury	-10.7942
▁juice	-10.7942
▁director	-10.7943
▁dishes	-10.7943
▁symptoms	-10.7945
▁dollar	-10.7945
▁security	-10.7946
▁double	-10.7946
▁copy	-10.7959
▁sha	-10.7959
▁larger	-10.7959
▁resource	-10.7964
▁address	-10.7965
▁warning	-10.7969
▁gold	-10.7973
▁affected	-10.7976
▁boat	-10.7976
▁bio	-10.7979
uce	-10.798
▁attending	-10.7982
ned	-10.7985
▁driven	-10.7986
▁pounds	-10.7987
▁packing	-10.7988
▁continuing	-10.7988
▁court	-10.799
▁smaller	-10.7992
▁killed	-10.7998
▁army	-10.7998
▁previously	-10.7998
▁endless	-10.7999
▁award	-10.8
▁moon	-10.8003
▁ro	-10.8005
▁frame	-10.8009
▁model	-10.8023
▁failed	-10.8023
▁laughed	-10.8026
▁ku	-10.8035
▁wrapp	-10.8036
▁options	-10.8041
▁recipes	-10.8051
▁players	-10.8052
▁crime	-10.8055
▁disagree	-10.8057
▁concerns	-10.807
▁magical	-10.8082
ps	-10.8086
▁sucks	-10.8086
▁jack	-10.809
▁ideal	-10.8093
pt	-10.8103
▁shoulders	-10.8105
▁por	-10.8106
▁lower	-10.8111
▁marks	-10.8114
▁reactions	-10.8122
▁responsib	-10.8131
▁wors	-10.8135
▁twi	-10.8145
▁dropp	-10.8162
▁strike	-10.8182
▁dut	-10.819
▁mail	-10.8199
▁pang	-10.8219
ative	-10.8223
▁belonging	-10.8224
▁hum	-10.823
▁je	-10.8232
▁fate	-10.8235
▁films	-10.8261
▁tha	-10.8264
om	-10.8271
▁nicely	-10.8297
▁occasion	-10.83
▁offering	-10.8306
▁knee	-10.8324
▁closet	-10.8325
feel	-10.8335
hood	-10.8349
▁protected	-10.8359
▁sam	-10.8376
▁mere	-10.8379
fa	-10.8388
▁z	-10.84
▁supp	-10.84
shed	-10.8409
▁slid	-10.842
ions	-10.8425
▁desires	-10.8426
▁fu	-10.843
rage	-10.8433
▁string	-10.8451
▁india	-10.8454
ely	-10.846
▁led	-10.8464
▁include	-10.8465
▁bottl	-10.847
▁names	-10.8488
call	-10.8498
▁wal	-10.8519
▁pie	-10.8523
▁remembering	-10.853
▁bet	-10.8538
▁leaders	-10.8545
▁multipl	-10.856
▁strateg	-10.8596
bit	-10.8599
▁adore	-10.8613
▁beca	-10.8626
ian	-10.8632
▁assume	-10.8634
▁pin	-10.8641
▁dun	-10.8654
ream	-10.8659
▁david	-10.8687
▁rely	-10.8694
▁lit	-10.8697
▁mini	-10.87
▁indulge	-10.8724
▁corn	-10.8749
arious	-10.8766
▁ch	-10.8808
▁mac	-10.8812
▁esp	-10.8822
▁pat	-10.8828
ad	-10.8829
nder	-10.8845
tic	-10.8852
▁camp	-10.8861
▁kit	-10.887
▁lean	-10.8874
bility	-10.8879
▁seeming	-10.889
sed	-10.8895
▁cared	-10.8922
▁inform	-10.8966
lor	-10.8973
▁york	-10.898
▁tug	-10.8986
ess	-10.8992
▁norm	-10.9003
▁access	-10.9006
▁span	-10.9012
▁homes	-10.9016
wing	-10.9025
▁talent	-10.9026
▁foreign	-10.9041
▁doll	-10.9047
▁tone	-10.9048
advantage	-10.9066
town	-10.9068
▁temple	-10.9081
aid	-10.9086
▁poem	-10.9091
▁chris	-10.9108
▁clue	-10.9115
▁aspect	-10.9121
▁separate	-10.9127
▁sport	-10.9133
▁encourag	-10.9144
▁click	-10.9148
▁quilt	-10.9148
▁medical	-10.9152
▁phrase	-10.9153
▁trick	-10.916
▁dislike	-10.9166
▁portray	-10.9171
▁center	-10.9176
dom	-10.9177
▁nostalgi	-10.9177
▁california	-10.918
▁african	-10.918
▁flavor	-10.918
▁giddy	-10.918
▁opportunities	-10.918
▁perfume	-10.918
▁philosoph	-10.918
▁sacrifice	-10.918
▁australia	-10.918
▁inevitabl	-10.918
▁technique	-10.918
▁youtube	-10.918
▁simultaneous	-10.918
▁context	-10.918
▁expense	-10.918
▁twenty	-10.918
▁thrift	-10.918
▁saddened	-10.918
▁murder	-10.918
▁neighborhood	-10.918
▁obtain	-10.918
▁transition	-10.918
▁identity	-10.918
▁account	-10.918
▁scheme	-10.918
▁favor	-10.918
▁feedback	-10.918
▁fandom	-10.918
▁network	-10.918
▁complex	-10.918
▁intensity	-10.918
▁harsh	-10.918
▁slightest	-10.918
▁perverse	-10.9181
▁marvel	-10.9181
▁insult	-10.9181
▁horror	-10.9181
▁dizzy	-10.9181
▁butterfl	-10.9181
▁sorrowful	-10.9181
▁withdraw	-10.9181
▁excellent	-10.9182
▁snack	-10.9183
▁julie	-10.9183
▁debt	-10.9184
▁affection	-10.9185
▁danger	-10.9185
▁happier	-10.9185
▁bonus	-10.9186
▁rejection	-10.9186
▁contractions	-10.9186
▁weakness	-10.9186
▁potatoes	-10.9187
▁orange	-10.9187
▁skinny	-10.9189
▁firm	-10.9189
▁debate	-10.9189
▁politician	-10.919
▁specifically	-10.9191
▁tourist	-10.9192
▁nursing	-10.9193
▁reflection	-10.9194
▁code	-10.9194
▁ruin	-10.9195
▁upload	-10.9195
▁consequences	-10.9197
neath	-10.9198
▁critical	-10.9199
▁cafe	-10.92
▁label	-10.9202
▁milk	-10.9203
▁tele	-10.9207
▁famous	-10.9208
▁harm	-10.9208
▁cutting	-10.921
▁vile	-10.9211
▁everytime	-10.9212
▁van	-10.9213
▁gather	-10.9216
▁creation	-10.9216
▁boots	-10.9216
▁production	-10.9217
▁expert	-10.9222
▁electric	-10.9223
▁anime	-10.9225
▁yay	-10.9227
▁typical	-10.9231
▁extraordinar	-10.9243
▁contract	-10.9244
▁begging	-10.9244
▁mama	-10.9244
▁drown	-10.9248
▁beliefs	-10.925
▁saved	-10.9251
▁gathering	-10.9252
▁spill	-10.9256
▁slight	-10.926
▁officer	-10.9263
▁manager	-10.9266
▁regain	-10.9267
▁shots	-10.927
▁loser	-10.9286
▁bah	-10.9287
▁crossed	-10.929
▁shadow	-10.9292
ending	-10.9292
▁cha	-10.9298
▁colours	-10.9303
op	-10.9303
▁island	-10.9304
▁tips	-10.9304
▁bowl	-10.9307
book	-10.9311
▁strangers	-10.9314
▁depths	-10.9325
lin	-10.9326
▁prayers	-10.9326
▁tube	-10.9328
▁friendships	-10.9331
▁seeking	-10.9337
▁bothering	-10.9343
▁parenting	-10.935
▁masters	-10.935
▁structure	-10.9353
▁web	-10.9359
▁paris	-10.9359
▁americans	-10.9364
▁venture	-10.9367
ki	-10.9388
▁dancer	-10.9391
▁caffeine	-10.9392
▁cow	-10.9393
▁actor	-10.9393
▁carrie	-10.9415
▁figur	-10.9429
▁expos	-10.944
▁sites	-10.9443
▁hook	-10.9449
mate	-10.9457
▁cap	-10.9463
read	-10.9474
▁crave	-10.9475
▁predictabl	-10.9479
▁rag	-10.9483
▁tale	-10.9524
▁presents	-10.9529
ates	-10.9539
anta	-10.9542
▁dads	-10.9544
▁elevat	-10.955
▁worrying	-10.9551
▁forum	-10.9558
▁leader	-10.9572
▁sisters	-10.9588
ho	-10.9601
▁doors	-10.9611
▁hu	-10.9614
▁educate	-10.9637
▁jean	-10.9638
▁goods	-10.9639
▁bounce	-10.9657
its	-10.9658
▁pressures	-10.9664
ile	-10.9692
▁lightly	-10.9719
▁west	-10.9732
▁interact	-10.9743
▁nurse	-10.9774
lace	-10.978
▁ja	-10.9795
que	-10.9814
▁competiti	-10.9817
ette	-10.9823
bs	-10.9826
ged	-10.9832
▁acknowledge	-10.9836
ack	-10.9851
▁hobb	-10.9858
▁ad	-10.986
▁gr	-10.9862
▁ur	-10.9864
▁divers	-10.9885
▁nutrition	-10.9898
rated	-10.9906
▁bat	-10.9939
gs	-10.9947
▁trapp	-10.9959
peter	-10.9984
▁musical	-10.9985
put	-10.9987
▁internal	-10.9995
uch	-10.9997
▁skill	-11.0008
▁tr	-11.0011
▁roman	-11.0015
▁cuddle	-11.0023
▁grin	-11.0031
▁assert	-11.0032
▁occur	-11.0037
▁beer	-11.0046
uck	-11.0068
▁foods	-11.0077
▁gate	-11.008
▁wash	-11.0088
▁celebrat	-11.0109
unny	-11.0114
▁lover	-11.0119
▁kat	-11.0128
ding	-11.0134
▁ring	-11.014
▁bigge	-11.0144
▁res	-11.0144
▁educat	-11.0147
ummy	-11.0163
▁studie	-11.0178
▁addition	-11.0179
la	-11.0186
▁liking	-11.0212
▁argue	-11.0217
▁lap	-11.0251
▁definit	-11.0265
▁alex	-11.0296
arent	-11.0319
▁kn	-11.0338
▁sharp	-11.0355
▁fund	-11.0357
ra	-11.0359
ming	-11.0361
▁introduce	-11.0368
▁continu	-11.037
▁lend	-11.0376
space	-11.038
title	-11.038
▁pale	-11.0388
▁sting	-11.0435
ite	-11.0471
▁realis	-11.0471
▁combine	-11.0483
▁str	-11.0487
▁cell	-11.0488
▁annoy	-11.0489
▁prince	-11.0491
▁cr	-11.0493
▁rhythm	-11.0507
▁bathroom	-11.0507
▁science	-11.0508
▁disaster	-11.0511
▁attend	-11.0513
▁bf	-11.0516
▁sentence	-11.0516
▁blanket	-11.0519
▁instinct	-11.0519
▁rate	-11.0524
▁contribut	-11.0524
▁afford	-11.0526
▁belief	-11.0528
▁detail	-11.053
▁despair	-11.0531
▁afterward	-11.0536
▁snap	-11.0549
▁skip	-11.0552
▁pause	-11.0557
▁resent	-11.0557
ms	-11.0559
▁layer	-11.0563
▁jan	-11.0569
▁proper	-11.0573
ice	-11.0573
▁refresh	-11.0579
▁blessing	-11.0581
night	-11.0581
▁pound	-11.0584
▁ar	-11.0586
▁betray	-11.059
▁spoke	-11.0593
▁cal	-11.0593
▁select	-11.06
ets	-11.0603
▁blame	-11.0606
▁wro	-11.0606
▁enthusiasm	-11.0608
▁garbage	-11.0608
▁grocery	-11.0608
▁january	-11.0608
▁misunderstood	-11.0608
▁neutral	-11.0608
▁november	-11.0608
▁october	-11.0608
▁request	-11.0608
▁traffic	-11.0608
▁treadmill	-11.0608
▁japanese	-11.0608
▁immature	-11.0608
▁thousand	-11.0608
▁pocket	-11.0608
▁vomit	-11.0608
▁application	-11.0608
▁zero	-11.0608
▁esteem	-11.0608
▁budget	-11.0608
▁discomfort	-11.0608
▁satisfaction	-11.0608
▁derby	-11.0608
▁grasp	-11.0608
▁guidance	-11.0608
▁width	-11.0608
▁profound	-11.0608
▁capacity	-11.0609
▁tiger	-11.0609
▁apologise	-11.0609
▁imagination	-11.0609
▁existence	-11.0609
▁jewelry	-11.0609
▁entries	-11.0609
▁cringe	-11.0609
▁aggressive	-11.0609
▁swallow	-11.061
▁lenses	-11.061
▁elder	-11.061
▁robin	-11.061
▁foggy	-11.061
▁realistic	-11.061
▁quest	-11.061
▁canada	-11.0611
▁investment	-11.0611
▁crunch	-11.0611
▁antsy	-11.0611
▁protection	-11.0611
▁cheese	-11.0612
▁brillian	-11.0612
▁atmosphere	-11.0612
▁repeatedly	-11.0612
▁disease	-11.0612
▁bridge	-11.0612
▁mindset	-11.0613
▁resentment	-11.0613
▁flick	-11.0613
▁perception	-11.0615
▁dvd	-11.0615
▁powerless	-11.0615
▁labor	-11.0615
▁narrat	-11.0615
▁easter	-11.0615
▁calories	-11.0616
▁korean	-11.0616
▁insane	-11.0616
▁organization	-11.0617
▁route	-11.0617
▁humor	-11.0617
▁childish	-11.0617
▁dust	-11.0617
▁dwell	-11.0618
▁froze	-11.0619
▁inspiring	-11.0619
▁destroy	-11.0621
▁brighter	-11.0622
▁rubb	-11.0622
▁frequently	-11.0623
ka	-11.0624
▁legitimate	-11.0624
▁invade	-11.0626
▁therapist	-11.0628
▁infection	-11.0629
▁veins	-11.0629
▁fift	-11.0629
▁cherished	-11.063
▁explode	-11.0631
▁closure	-11.0632
▁px	-11.0632
▁influence	-11.0634
▁scott	-11.0634
▁offensive	-11.0635
▁dramatic	-11.0635
▁committed	-11.0636
▁daddy	-11.0637
▁blond	-11.0638
▁activity	-11.0638
▁establish	-11.0639
▁paul	-11.064
▁bleed	-11.0641
room	-11.0641
▁suggestions	-11.0642
▁standards	-11.0642
▁knock	-11.0643
▁planned	-11.0643
▁slip	-11.0643
▁correct	-11.0643
▁century	-11.0645
▁dresses	-11.0646
▁survived	-11.0649
▁bold	-11.0649
▁rec	-11.0649
▁nerves	-11.065
▁uni	-11.065
▁spell	-11.0655
▁remote	-11.0658
▁info	-11.0659
▁burnt	-11.0659
▁sip	-11.0659
▁twist	-11.0663
▁counter	-11.0663
▁roller	-11.0664
▁custom	-11.0665
▁flipp	-11.0667
ual	-11.067
▁centre	-11.0671
▁designers	-11.0671
▁eternal	-11.0673
▁amorous	-11.0675
▁virtual	-11.0677
▁police	-11.0677
▁brew	-11.0678
▁tackle	-11.0687
▁hello	-11.0687
▁cam	-11.0691
▁addict	-11.0692
▁dropping	-11.0698
▁anticipat	-11.0701
▁survive	-11.0701
▁claim	-11.0706
▁risks	-11.0713
▁kindness	-11.0717
▁mike	-11.0719
▁nightmare	-11.0722
▁included	-11.0722
▁habits	-11.0727
▁traditional	-11.0732
▁remarkabl	-11.0735
▁darn	-11.0737
▁apathetic	-11.0738
j	-11.0745
▁dri	-11.0747
▁hah	-11.0749
▁birds	-11.0752
▁cd	-11.0757
dium	-11.0758
▁goodness	-11.0762
▁sessions	-11.0769
▁intentions	-11.0769
▁comforted	-11.0771
▁wishes	-11.0778
▁glob	-11.0779
▁melt	-11.0782
▁visited	-11.0791
▁min	-11.0797
▁sooo	-11.0804
▁suppress	-11.0807
▁trait	-11.0814
▁boundar	-11.0815
▁stores	-11.0821
▁headaches	-11.0824
▁outsider	-11.0827
▁responses	-11.0833
▁wet	-11.0835
▁faces	-11.0836
▁metal	-11.0838
▁polite	-11.0838
▁station	-11.0844
▁shade	-11.0845
▁exchange	-11.0846
▁answered	-11.0856
hi	-11.0856
▁deem	-11.0858
▁periods	-11.0862
▁raise	-11.0879
▁tuck	-11.088
▁explained	-11.0883
▁directions	-11.0889
▁hint	-11.0898
▁south	-11.0907
▁gap	-11.0909
▁admitt	-11.0923
▁verse	-11.0938
▁dressing	-11.0938
▁cur	-11.0944
ong	-11.0944
ked	-11.0945
▁organis	-11.0945
ask	-11.0948
cue	-11.0953
ments	-11.0961
▁sold	-11.0965
▁lash	-11.0968
▁entirel	-11.0968
▁racis	-11.0969
▁spite	-11.0987
queen	-11.1009
▁viewing	-11.1023
surprisingly	-11.1046
▁boyfriends	-11.1046
lines	-11.1058
▁treats	-11.1079
▁hits	-11.1095
▁bough	-11.1095
ised	-11.1095
▁trial	-11.1112
alized	-11.1147
▁sel	-11.1148
▁ends	-11.1165
▁ka	-11.1167
▁twitch	-11.1168
▁va	-11.1179
▁sole	-11.119
▁pi	-11.1203
ya	-11.1204
▁justify	-11.1205
▁wee	-11.1212
▁soup	-11.1223
▁ward	-11.1224
▁shorts	-11.1236
pe	-11.1248
▁enth	-11.1248
▁note	-11.1251
▁mill	-11.1257
▁jam	-11.1282
ization	-11.129
inner	-11.1293
ties	-11.1328
▁income	-11.1329
▁wow	-11.1344
▁col	-11.1365
▁pointless	-11.1382
ore	-11.1392
▁hall	-11.1393
▁warn	-11.1395
not	-11.1397
▁greet	-11.1404
ung	-11.1423
▁lights	-11.1423
empted	-11.1474
▁ate	-11.1475
ight	-11.1487
▁chas	-11.1513
cal	-11.1519
▁ador	-11.1524
▁holds	-11.1526
ey	-11.1528
▁lists	-11.1536
ball	-11.1542
▁file	-11.156
▁sens	-11.1572
ss	-11.1577
▁trauma	-11.1587
▁programm	-11.1629
rel	-11.164
ists	-11.165
ping	-11.1652
▁irate	-11.1677
▁matt	-11.1677
▁tolerate	-11.1697
▁mr	-11.1725
veral	-11.1725
▁ski	-11.1746
▁row	-11.176
da	-11.1771
feeling	-11.1786
▁prop	-11.1794
▁curs	-11.1796
wan	-11.1799
▁har	-11.1805
phone	-11.1814
▁julia	-11.1828
▁doc	-11.186
▁unit	-11.1861
▁fuckin	-11.1871
ca	-11.1914
▁photograph	-11.1915
house	-11.1918
url	-11.1957
▁counsel	-11.198
▁chi	-11.1984
healthy	-11.1999
box	-11.1999
ee	-11.2005
mond	-11.201
board	-11.2011
▁din	-11.2032
▁tw	-11.2032
ingly	-11.2054
onic	-11.2055
▁prepar	-11.2059
ians	-11.2086
▁prime	-11.2089
▁sto	-11.2104
▁stare	-11.2112
▁tradition	-11.2131
▁fl	-11.2138
▁knot	-11.2153
ving	-11.2155
▁drag	-11.2168
▁accomplish	-11.2169
▁pub	-11.217
ire	-11.2173
▁prospect	-11.2174
▁econom	-11.2181
▁arrive	-11.2187
▁muscle	-11.2194
▁pu	-11.2198
▁expectation	-11.22
▁refus	-11.2202
erous	-11.2203
▁polic	-11.2222
▁asian	-11.2224
▁yu	-11.2225
▁hung	-11.2234
con	-11.2235
▁absolute	-11.2239
▁disrespect	-11.2243
▁distress	-11.2246
▁muse	-11.2248
oes	-11.2256
▁dish	-11.2259
▁limb	-11.226
▁scratch	-11.2265
▁torture	-11.2265
▁prior	-11.2269
▁civil	-11.2269
▁sometime	-11.227
▁endure	-11.227
▁nausea	-11.2273
▁adjust	-11.2273
▁neighbor	-11.2275
▁anniversary	-11.2275
▁commercial	-11.2275
▁condemn	-11.2275
▁curiosity	-11.2275
▁explanation	-11.2275
▁intelligence	-11.2275
▁professor	-11.2275
▁september	-11.2275
▁sibling	-11.2275
▁snobbish	-11.2275
▁spontaneous	-11.2275
▁succumb	-11.2275
▁supreme	-11.2275
▁transcend	-11.2275
▁zombie	-11.2275
▁acquaint	-11.2275
▁costume	-11.2275
▁dessert	-11.2275
▁trigger	-11.2275
▁category	-11.2275
▁inferior	-11.2275
▁reputation	-11.2275
▁transfer	-11.2275
▁cyber	-11.2275
▁lipstick	-11.2275
▁patience	-11.2275
▁essence	-11.2275
▁whatsoever	-11.2275
▁village	-11.2275
▁convention	-11.2275
▁grandparents	-11.2275
▁europe	-11.2275
▁nonetheless	-11.2275
▁piano	-11.2275
▁hardcore	-11.2275
▁serenity	-11.2275
▁declar	-11.2275
▁toddler	-11.2275
▁element	-11.2275
▁goddamn	-11.2275
▁jackson	-11.2275
▁decade	-11.2276
▁fluff	-11.2276
▁brief	-11.2276
▁confirm	-11.2276
▁academic	-11.2276
▁convey	-11.2276
▁goodbye	-11.2276
▁association	-11.2277
▁chaos	-11.2277
▁evil	-11.2277
▁charlie	-11.2277
▁gig	-11.2277
▁tomato	-11.2277
▁department	-11.2277
▁emily	-11.2277
▁worship	-11.2277
▁martin	-11.2277
▁assistant	-11.2277
▁encouragement	-11.2277
▁monster	-11.2277
▁quarter	-11.2278
▁president	-11.2278
▁latter	-11.2278
▁heartbreak	-11.2278
▁complicated	-11.2278
▁paranoia	-11.2278
▁laughter	-11.2278
▁entertainment	-11.2278
▁josh	-11.2278
▁empathy	-11.2279
▁fancy	-11.2279
▁knitting	-11.228
ility	-11.228
▁frustrating	-11.228
▁preparation	-11.2281
▁contest	-11.2282
▁native	-11.2282
▁unsettled	-11.2283
▁behalf	-11.2285
▁observing	-11.2285
▁insist	-11.2286
▁hardship	-11.2287
▁uneasy	-11.2287
▁intellectual	-11.2287
▁roast	-11.2287
▁excess	-11.2287
▁jacket	-11.2288
▁handful	-11.229
▁darkness	-11.2291
▁resort	-11.2291
▁solo	-11.2291
▁scatter	-11.2292
▁attribute	-11.2293
▁empowered	-11.2295
▁thighs	-11.2296
▁prote	-11.2296
▁region	-11.2297
▁endeavors	-11.2299
▁screwed	-11.23
▁guessing	-11.2301
ton	-11.2302
▁wallet	-11.2303
▁sickness	-11.2304
▁jim	-11.2304
▁spice	-11.2307
▁rice	-11.2309
▁enjoyment	-11.2311
▁prom	-11.2312
▁intent	-11.2316
▁data	-11.2317
▁whining	-11.2317
▁yall	-11.232
▁dragon	-11.2321
▁stitch	-11.2321
▁strive	-11.2321
▁spoken	-11.2322
▁coworker	-11.2325
▁tiredness	-11.2326
▁unnatural	-11.2327
▁duck	-11.2328
▁lu	-11.2328
▁glow	-11.233
▁boob	-11.2332
▁tank	-11.2334
▁conflicted	-11.2335
▁existed	-11.2343
▁independent	-11.2343
▁objects	-11.2347
▁bore	-11.2348
▁passes	-11.2348
▁accomplishing	-11.2349
rank	-11.235
▁someday	-11.2354
▁bra	-11.2354
▁wrestl	-11.2357
▁burger	-11.2358
▁quilting	-11.236
▁ke	-11.2362
▁xd	-11.2364
▁engaged	-11.2365
▁rap	-11.2368
▁lifetime	-11.2369
▁plate	-11.2369
▁exception	-11.2371
▁fog	-11.2374
▁mud	-11.2376
▁baking	-11.2379
▁binge	-11.239
▁hotel	-11.2392
▁sports	-11.2395
▁port	-11.2401
▁deserved	-11.2402
bu	-11.2403
▁challenged	-11.2404
▁brows	-11.2406
developed	-11.2407
▁stairs	-11.241
sia	-11.2413
▁script	-11.2414
▁lore	-11.2421
▁circles	-11.2423
▁nagg	-11.2426
▁existing	-11.2426
▁waves	-11.2426
aster	-11.2427
▁injur	-11.2428
▁settl	-11.2438
▁gra	-11.2442
▁pet	-11.2448
▁item	-11.2449
▁ministr	-11.2449
▁rose	-11.2451
▁marketing	-11.2459
▁lovers	-11.2469
▁teenagers	-11.247
▁soap	-11.2472
▁salt	-11.2473
▁paintings	-11.2473
▁tense	-11.2476
▁pretending	-11.2479
▁behaviors	-11.2485
▁imagined	-11.2487
▁thrill	-11.2493
▁christians	-11.2501
▁recognise	-11.2502
uber	-11.2504
▁seven	-11.251
ua	-11.2513
▁pig	-11.2524
▁necessit	-11.2527
▁rev	-11.2536
▁cho	-11.2537
▁nick	-11.2539
eli	-11.2546
ebook	-11.255
▁washing	-11.255
▁damned	-11.2551
▁cheerful	-11.2552
ster	-11.2558
▁recording	-11.2564
▁necessar	-11.2566
▁strain	-11.2569
▁workouts	-11.258
▁signs	-11.2581
venge	-11.2582
▁sacr	-11.259
▁scenes	-11.2592
heck	-11.2594
laying	-11.2604
▁freez	-11.2606
ins	-11.2611
▁humbl	-11.2612
▁farm	-11.2616
▁grass	-11.2617
▁drops	-11.2619
▁emerg	-11.2633
where	-11.2635
▁reduce	-11.2639
▁stone	-11.2645
▁butter	-11.2669
served	-11.2669
mes	-11.267
ically	-11.2671
▁links	-11.2673
for	-11.2677
▁trusted	-11.2689
▁cru	-11.2705
▁deliver	-11.2705
ified	-11.2712
▁pac	-11.2712
▁contemplat	-11.2714
▁dip	-11.2716
▁reward	-11.2717
▁conc	-11.2718
▁souls	-11.2728
▁submit	-11.2734
▁dia	-11.2738
▁fla	-11.2738
lia	-11.2749
▁crazi	-11.2779
ppl	-11.2779
▁papers	-11.279
▁dam	-11.2805
▁ni	-11.2814
▁evaluat	-11.282
▁numbers	-11.2834
oul	-11.2842
▁apo	-11.2844
▁admir	-11.2848
▁hike	-11.287
sm	-11.2871
▁stink	-11.2877
▁cases	-11.2879
▁xm	-11.2882
tail	-11.2887
▁intentional	-11.2892
▁automati	-11.2894
ried	-11.2894
▁truths	-11.2895
▁exit	-11.2902
▁associate	-11.2917
▁indulg	-11.292
▁scare	-11.2924
▁del	-11.2925
nny	-11.2943
▁cage	-11.2957
pad	-11.2985
▁collect	-11.2992
▁bur	-11.3011
▁jane	-11.3011
▁cuddl	-11.3014
▁alternate	-11.3017
our	-11.3021
▁solve	-11.3026
▁pure	-11.3068
▁begins	-11.3081
▁choi	-11.3103
▁kara	-11.3105
▁op	-11.3108
back	-11.3118
▁moods	-11.3121
ak	-11.3132
▁wis	-11.3143
art	-11.3144
▁mush	-11.3155
▁ages	-11.319
▁litera	-11.3204
ex	-11.3205
stash	-11.3206
▁cor	-11.3233
ura	-11.3263
illa	-11.3263
port	-11.3274
▁needless	-11.3275
▁envelope	-11.3279
▁multi	-11.3279
ssed	-11.3282
▁ki	-11.334
▁comp	-11.3347
▁complaint	-11.3383
life	-11.3384
down	-11.339
▁reg	-11.3437
▁lab	-11.345
▁temp	-11.3461
ku	-11.347
omy	-11.3474
▁clos	-11.3481
pped	-11.3492
▁nu	-11.3503
▁cro	-11.352
▁hasn	-11.3524
▁auto	-11.353
ronic	-11.3532
▁sara	-11.3584
▁defin	-11.3591
but	-11.3591
▁wheel	-11.3612
national	-11.3616
▁era	-11.3622
istic	-11.3631
▁entit	-11.3636
▁slipp	-11.3649
▁para	-11.3673
made	-11.3699
▁charge	-11.3718
umn	-11.3718
▁imp	-11.3729
▁chip	-11.373
used	-11.3731
▁depress	-11.3746
▁rooms	-11.3759
ately	-11.3763
care	-11.3765
▁finance	-11.3786
▁graduate	-11.3787
▁cycl	-11.3795
▁adopt	-11.3808
▁believer	-11.3814
▁judg	-11.3823
▁uncar	-11.3849
ded	-11.3852
▁dan	-11.3854
illy	-11.3868
▁pleas	-11.3873
▁wit	-11.3904
▁sc	-11.3905
▁pal	-11.3914
berry	-11.3924
▁mall	-11.3926
tracted	-11.3933
▁commit	-11.3962
ok	-11.3976
interest	-11.3979
▁pasta	-11.3982
field	-11.3985
▁metaphor	-11.3986
▁pow	-11.3991
ating	-11.4003
▁sur	-11.4008
va	-11.4012
▁expose	-11.402
▁bomb	-11.4024
zed	-11.4047
arily	-11.4055
thing	-11.4056
▁prep	-11.4059
▁confus	-11.407
▁max	-11.4078
▁describ	-11.4083
▁repair	-11.4093
gging	-11.4096
▁drug	-11.41
yard	-11.4103
▁loos	-11.4116
▁pai	-11.4141
ternal	-11.4142
ys	-11.4155
▁object	-11.4155
▁logic	-11.4155
▁dar	-11.4156
ances	-11.4161
▁rant	-11.4165
pray	-11.4175
▁achievement	-11.4177
▁aut	-11.4179
▁source	-11.4182
▁chick	-11.4184
▁arriv	-11.4184
▁celebration	-11.4185
▁cigarette	-11.4188
▁argument	-11.4189
elated	-11.4191
▁define	-11.4194
▁announce	-11.4195
▁decid	-11.4202
▁semi	-11.421
▁guest	-11.4211
▁designer	-11.4222
ching	-11.4223
lt	-11.4223
▁visitor	-11.4227
▁unusual	-11.4227
▁determin	-11.423
▁rights	-11.4232
top	-11.4239
▁medication	-11.424
▁disappoint	-11.424
ground	-11.4241
▁disregard	-11.4242
▁screw	-11.4244
▁cherish	-11.4244
▁distract	-11.4245
▁q	-11.4245
version	-11.4245
▁disturb	-11.4246
▁destin	-11.4247
▁devastat	-11.4248
ap	-11.4254
ggy	-11.4255
▁nest	-11.4255
▁defeat	-11.4255
▁accus	-11.4256
▁careful	-11.4259
rky	-11.4259
▁cock	-11.4264
▁stole	-11.4265
dication	-11.427
▁wipe	-11.427
▁john	-11.4274
▁accommodat	-11.4275
▁campaign	-11.4275
▁convenience	-11.4275
▁convenient	-11.4275
▁cricket	-11.4275
▁divorce	-11.4275
▁insignificant	-11.4275
▁neighbour	-11.4275
▁pencil	-11.4275
▁permalink	-11.4275
▁privacy	-11.4275
▁rejuvenate	-11.4275
▁scenario	-11.4275
▁suspens	-11.4275
▁temporarily	-11.4275
▁temporary	-11.4275
▁thursday	-11.4275
▁december	-11.4275
▁inclined	-11.4275
▁michael	-11.4275
▁volume	-11.4275
▁manuscript	-11.4275
▁cautious	-11.4275
▁contrast	-11.4275
▁entrance	-11.4275
▁introvert	-11.4275
▁picnic	-11.4275
▁cupcake	-11.4275
▁nowadays	-11.4275
▁absence	-11.4275
▁affair	-11.4275
▁heartbeat	-11.4275
▁gesture	-11.4275
▁glamourous	-11.4275
▁sniff	-11.4275
▁daniel	-11.4275
▁gallery	-11.4275
▁restrict	-11.4275
▁separation	-11.4275
▁examination	-11.4275
▁robert	-11.4275
▁virginia	-11.4275
▁backpack	-11.4275
▁athletic	-11.4275
▁violated	-11.4275
▁assistance	-11.4275
▁nonsense	-11.4275
▁french	-11.4275
▁population	-11.4275
▁purple	-11.4275
▁chunk	-11.4275
▁hollywood	-11.4275
▁flex	-11.4275
▁obsession	-11.4276
▁clarity	-11.4276
▁milestone	-11.4276
▁panel	-11.4276
▁philip	-11.4276
▁hmmm	-11.4276
▁throbbing	-11.4276
▁dedicate	-11.4276
▁rapid	-11.4276
▁highschool	-11.4276
▁sauce	-11.4276
ava	-11.4276
▁etsy	-11.4276
▁property	-11.4276
▁addiction	-11.4277
▁misery	-11.4277
▁trash	-11.4277
▁artwork	-11.4277
▁unappreciated	-11.4277
▁sloth	-11.4277
▁devil	-11.4277
▁meditation	-11.4277
▁sensible	-11.4277
▁duties	-11.4277
▁honor	-11.4277
▁alien	-11.4278
▁wrist	-11.4278
▁ignorant	-11.4278
▁cruel	-11.4278
▁precise	-11.4278
▁constructive	-11.4278
▁shallow	-11.4278
▁invitation	-11.4278
▁corps	-11.4278
▁shiver	-11.4279
▁homeschool	-11.4279
▁apology	-11.428
▁relaxation	-11.428
washington	-11.428
▁zoom	-11.428
▁election	-11.428
▁empathize	-11.428
▁cabin	-11.4281
▁spider	-11.4281
▁editor	-11.4281
▁teenage	-11.4282
▁flesh	-11.4282
▁mentality	-11.4283
▁smack	-11.4284
▁meaningless	-11.4284
▁flatte	-11.4284
▁tweet	-11.4284
▁giveaway	-11.4284
▁overload	-11.4285
▁alarm	-11.4285
▁crew	-11.4286
▁demons	-11.4286
▁pursuing	-11.4286
▁curtains	-11.4286
▁consideration	-11.4286
▁stiff	-11.4286
▁enemy	-11.4286
▁soooo	-11.4286
▁translate	-11.4287
▁tech	-11.4287
▁engineer	-11.4288
▁cities	-11.4288
▁stopping	-11.4288
▁remarks	-11.429
▁attraction	-11.429
▁munch	-11.4291
▁luxur	-11.4292
▁pump	-11.4292
▁gaming	-11.4293
▁geek	-11.4293
▁determine	-11.4293
▁jerk	-11.4293
▁lj	-11.4293
▁jaw	-11.4294
▁butt	-11.43
▁insincere	-11.4301
▁lemon	-11.4303
▁effective	-11.4303
▁fantas	-11.4303
▁steady	-11.4304
▁licen	-11.4305
▁improvement	-11.4305
▁stock	-11.4306
▁grieving	-11.4307
▁woeful	-11.4307
rus	-11.4308
▁naive	-11.4309
▁surroundings	-11.431
▁graduating	-11.4311
▁march	-11.4312
▁severely	-11.4312
▁disliked	-11.4313
▁virus	-11.4314
▁hopelessness	-11.4315
▁disrespected	-11.4315
▁hubby	-11.4315
▁improving	-11.4316
▁bless	-11.4317
▁steam	-11.4317
▁advocate	-11.4318
▁conscience	-11.4319
▁insight	-11.4319
▁destiny	-11.432
ab	-11.432
▁german	-11.4323
▁fiance	-11.4323
▁stereotype	-11.4324
▁flaws	-11.4324
▁num	-11.4325
▁pinch	-11.4326
▁lake	-11.4326
▁travell	-11.4326
▁advanced	-11.433
▁harmful	-11.433
▁attended	-11.4332
▁gown	-11.4333
▁dawn	-11.4334
▁complimented	-11.4335
▁ego	-11.4336
▁flood	-11.4338
▁formula	-11.4341
▁revealed	-11.4342
▁runners	-11.4342
▁chapters	-11.4343
▁neglected	-11.4343
▁theater	-11.4344
▁buff	-11.4345
▁delivery	-11.4346
▁legend	-11.4349
ham	-11.4352
you	-11.4353
▁tag	-11.4355
▁yearning	-11.4355
▁profit	-11.4359
▁blush	-11.4359
▁sucker	-11.4362
▁cigarettes	-11.4362
▁arguments	-11.4362
▁heap	-11.4362
ston	-11.4363
▁stirr	-11.4364
▁cancel	-11.4366
▁mount	-11.4368
▁interaction	-11.4369
▁tingle	-11.4372
▁chore	-11.4372
▁justified	-11.4375
▁breed	-11.4376
▁torn	-11.4379
▁consume	-11.438
▁strengthen	-11.438
▁soak	-11.438
▁haircut	-11.4385
thyroid	-11.4387
▁bombing	-11.4389
▁snapp	-11.4389
▁needle	-11.4392
▁economic	-11.4392
▁promotion	-11.4393
▁puzzle	-11.4394
▁attacked	-11.4397
▁trans	-11.4398
ain	-11.4399
▁agent	-11.44
▁crushing	-11.4403
▁def	-11.4405
▁dialog	-11.4405
▁nuts	-11.4407
▁sinus	-11.441
ped	-11.441
▁spark	-11.441
▁bride	-11.4413
ax	-11.4415
▁marry	-11.4417
▁discovery	-11.4417
▁intimate	-11.4418
furi	-11.4418
▁square	-11.4419
trospect	-11.442
▁giggl	-11.4424
▁bills	-11.4425
▁fishing	-11.4428
▁nicer	-11.443
serving	-11.4434
▁stares	-11.4435
▁dragg	-11.4435
▁prick	-11.444
ub	-11.4441
▁lisa	-11.4444
▁beef	-11.4449
bama	-11.445
▁stable	-11.4452
▁gna	-11.4456
▁deni	-11.4456
▁obligations	-11.4459
ize	-11.4462
▁candy	-11.4465
▁ugg	-11.4472
▁sparkle	-11.4473
▁haze	-11.4475
▁politics	-11.4478
▁wealth	-11.4488
solation	-11.4491
▁rape	-11.4508
▁skipp	-11.451
▁haul	-11.4511
▁dressed	-11.4518
jo	-11.4519
▁fleet	-11.4526
▁benefits	-11.4529
▁ol	-11.4533
▁corners	-11.4537
▁worrie	-11.4539
▁saint	-11.4541
▁bla	-11.4549
▁ev	-11.4557
▁myster	-11.4564
ware	-11.4564
▁balls	-11.4569
▁detox	-11.4577
▁outfits	-11.4578
▁soothe	-11.4579
▁plug	-11.4582
▁replie	-11.4586
▁spur	-11.4587
▁attitudes	-11.4606
▁psych	-11.4611
▁chase	-11.4624
▁bod	-11.4625
▁rever	-11.4628
▁angle	-11.4631
▁shops	-11.4637
▁keys	-11.4642
▁eve	-11.4655
▁cath	-11.4666
▁shoe	-11.4666
▁feelin	-11.4678
▁todd	-11.4683
lump	-11.4685
▁rud	-11.4688
▁gradua	-11.4692
▁audiences	-11.4692
▁positions	-11.4692
▁slack	-11.4697
▁rang	-11.47
▁pol	-11.4704
▁timing	-11.4708
more	-11.4709
▁videos	-11.4711
▁windows	-11.4711
▁services	-11.4711
▁possess	-11.4718
▁gamer	-11.4727
▁reread	-11.4731
▁sweater	-11.4737
his	-11.4739
▁subtl	-11.474
ru	-11.4749
▁shimm	-11.475
▁glar	-11.476
▁clo	-11.476
alled	-11.4771
▁tour	-11.4774
▁skirt	-11.4774
facing	-11.4782
▁pulse	-11.4789
▁stops	-11.4795
▁finds	-11.4795
▁primar	-11.4798
▁lighten	-11.4798
▁remains	-11.4805
▁cab	-11.4806
▁chain	-11.4807
▁pl	-11.4812
▁rally	-11.4816
hat	-11.4821
▁ness	-11.4832
lic	-11.4833
▁sca	-11.4833
epic	-11.4842
▁poke	-11.4847
▁whim	-11.4856
▁worker	-11.4863
▁slave	-11.4871
rian	-11.4875
ew	-11.4883
▁backward	-11.4897
ryan	-11.4906
iling	-11.4907
ise	-11.4909
▁shak	-11.4909
ot	-11.4911
▁wax	-11.4914
▁massag	-11.4927
ril	-11.4934
▁drinks	-11.4937
tics	-11.4938
▁makin	-11.4984
▁waters	-11.5003
cally	-11.5007
ux	-11.5027
hed	-11.5027
▁tap	-11.503
▁anyways	-11.503
▁barn	-11.5034
ith	-11.5034
▁spl	-11.5043
▁cave	-11.5054
ids	-11.5061
▁transform	-11.5062
▁ironic	-11.5067
ception	-11.508
▁voices	-11.5083
▁sleepy	-11.5083
▁complet	-11.5092
▁quo	-11.5098
▁rested	-11.5105
▁bump	-11.5113
▁seque	-11.5121
▁boo	-11.5135
mi	-11.514
▁awe	-11.5147
▁fascinat	-11.5148
▁twin	-11.5157
▁mon	-11.5159
ants	-11.516
apor	-11.5172
▁gen	-11.5177
▁feminis	-11.5179
▁surprising	-11.5183
▁traumati	-11.5184
▁ban	-11.5195
▁spirits	-11.5208
▁cling	-11.5214
▁employe	-11.5216
▁starve	-11.5217
ince	-11.5223
▁ske	-11.5235
uki	-11.5267
btw	-11.527
▁cas	-11.527
ome	-11.5282
▁adds	-11.5289
▁sch	-11.5291
charged	-11.5295
tha	-11.5296
▁jer	-11.5299
rent	-11.5302
ook	-11.5311
sa	-11.5314
ign	-11.5327
ssing	-11.5335
▁pee	-11.5341
rous	-11.5348
▁stands	-11.5357
▁bl	-11.5358
▁bro	-11.5364
▁pos	-11.5371
▁var	-11.5387
▁toes	-11.5391
zz	-11.5395
▁king	-11.5395
▁bite	-11.5396
promised	-11.5401
▁fro	-11.5415
ced	-11.5429
ial	-11.543
▁bell	-11.5434
men	-11.5434
▁package	-11.5442
▁pip	-11.5456
▁speaks	-11.5457
ier	-11.5464
▁dose	-11.5471
pressed	-11.5487
▁vast	-11.5507
oke	-11.5509
▁lee	-11.5513
▁gene	-11.553
▁lip	-11.5552
paid	-11.5553
▁blur	-11.5568
▁kin	-11.5575
rimming	-11.5578
▁bits	-11.5588
▁introduc	-11.5589
ach	-11.5605
▁coope	-11.5608
▁exercis	-11.5609
▁bow	-11.5612
▁universal	-11.5641
sically	-11.5645
ular	-11.5664
▁contemplate	-11.5677
▁weekends	-11.5689
▁poll	-11.5691
▁shir	-11.5714
▁prov	-11.5716
we	-11.5723
▁articulate	-11.5754
ella	-11.5756
ruly	-11.578
shi	-11.5794
day	-11.5799
▁joint	-11.5805
▁sis	-11.5825
▁sheet	-11.5825
ations	-11.5881
etic	-11.5887
▁lest	-11.5895
▁bru	-11.5908
bc	-11.5912
▁babys	-11.5934
▁ben	-11.5936
▁user	-11.5944
▁polish	-11.5946
▁ken	-11.5947
▁kidd	-11.5953
mb	-11.5954
▁plasti	-11.5959
▁ver	-11.5966
▁induce	-11.597
▁scrap	-11.5994
load	-11.5999
long	-11.6008
▁notion	-11.601
▁defens	-11.6024
star	-11.6035
ven	-11.6045
▁grit	-11.6046
▁tur	-11.6059
▁linu	-11.6095
▁moves	-11.6116
▁emerge	-11.6125
▁wars	-11.6128
▁disrupt	-11.6133
▁gl	-11.6143
umped	-11.6144
▁earn	-11.6153
▁bum	-11.6156
▁medi	-11.6156
▁appreciati	-11.616
if	-11.6183
▁vari	-11.6185
world	-11.6188
ctively	-11.6189
q	-11.619
▁echo	-11.6212
blog	-11.6215
▁integr	-11.6219
▁rubbi	-11.6228
animate	-11.6241
mic	-11.6255
friend	-11.6259
head	-11.6271
dol	-11.6279
▁tick	-11.628
▁dash	-11.6284
▁dub	-11.6295
ls	-11.6321
antic	-11.6335
▁adre	-11.6343
▁seed	-11.6343
ugh	-11.6343
▁execut	-11.6346
▁ap	-11.6352
▁bumm	-11.6358
lung	-11.6359
▁cars	-11.6401
▁bang	-11.6404
front	-11.6407
kind	-11.6408
▁rac	-11.6413
▁ri	-11.643
▁readings	-11.6435
ously	-11.6437
elle	-11.6441
▁bubbl	-11.645
▁boot	-11.6452
paper	-11.6454
▁trade	-11.6458
▁owe	-11.6468
shirt	-11.6473
screen	-11.648
issue	-11.6481
▁ji	-11.6483
boy	-11.6486
wed	-11.6487
pool	-11.6487
▁stra	-11.6501
tain	-11.6501
polite	-11.651
▁eco	-11.651
capable	-11.651
▁valid	-11.6525
▁yearn	-11.6528
ache	-11.6537
▁surviv	-11.6539
▁stem	-11.6542
▁spit	-11.6564
interested	-11.6566
bbed	-11.6571
shadow	-11.6577
wind	-11.6578
▁toys	-11.6579
▁bound	-11.6603
dia	-11.6605
▁hip	-11.6613
▁commun	-11.6614
band	-11.6616
▁coll	-11.6638
▁entertain	-11.6639
▁cre	-11.6654
▁extrem	-11.6656
▁bliss	-11.6664
▁reject	-11.6676
▁terror	-11.6677
▁description	-11.6683
▁exhibition	-11.6683
▁contribution	-11.6686
▁chapter	-11.6688
▁recogniz	-11.6693
▁negativ	-11.6697
▁profession	-11.6701
▁achiev	-11.6703
▁champ	-11.6704
▁reli	-11.6705
ured	-11.6706
▁prompt	-11.6706
▁rot	-11.6706
▁appeal	-11.6708
▁wrap	-11.671
▁trend	-11.6713
erry	-11.6714
off	-11.6714
▁animal	-11.6716
▁strip	-11.6716
bi	-11.6716
▁flip	-11.6718
sters	-11.6721
▁nerve	-11.6721
▁independen	-11.6723
▁shine	-11.6725
▁irrational	-11.6727
▁enormous	-11.6727
cks	-11.6729
▁packe	-11.6736
den	-11.6737
▁republic	-11.674
▁anguish	-11.674
▁immediate	-11.6741
▁fierce	-11.6743
▁empower	-11.6743
▁exhaust	-11.6745
▁privilege	-11.6752
▁illustrat	-11.6752
▁runner	-11.6753
▁jac	-11.6755
▁intellect	-11.6756
▁driver	-11.6757
▁manifest	-11.6758
▁resolve	-11.676
▁relieve	-11.676
▁char	-11.6764
▁drain	-11.6768
▁command	-11.6768
▁loop	-11.6769
ying	-11.677
gh	-11.6772
▁exhibit	-11.6773
▁remorse	-11.6774
▁virgin	-11.6774
▁amsterdam	-11.6775
▁authentic	-11.6775
▁barrier	-11.6775
▁bewildered	-11.6775
▁cubicle	-11.6775
▁emptiness	-11.6775
▁encompass	-11.6775
▁epidural	-11.6775
▁february	-11.6775
▁frequenc	-11.6775
▁furniture	-11.6775
▁hilarious	-11.6775
▁impatience	-11.6775
▁jersey	-11.6775
▁morbid	-11.6775
▁mundane	-11.6775
▁obstacle	-11.6775
▁occupied	-11.6775
▁pakistan	-11.6775
▁platform	-11.6775
▁premature	-11.6775
▁prisoner	-11.6775
▁refuge	-11.6775
▁reinforce	-11.6775
▁simplicity	-11.6775
▁supermarket	-11.6775
▁syndrome	-11.6775
▁trimester	-11.6775
▁tsunami	-11.6775
▁unemploy	-11.6775
▁absurd	-11.6775
▁ancient	-11.6775
▁benedict	-11.6775
▁bracelet	-11.6775
▁channel	-11.6775
▁chicago	-11.6775
▁conspiracy	-11.6775
▁democrat	-11.6775
▁disdain	-11.6775
▁florida	-11.6775
▁flustered	-11.6775
▁george	-11.6775
▁liberal	-11.6775
▁module	-11.6775
▁monitor	-11.6775
▁mutual	-11.6775
▁sponsor	-11.6775
▁tremendous	-11.6775
▁unrealistic	-11.6775
▁zealand	-11.6775
▁assumption	-11.6775
▁fragrance	-11.6775
▁reckon	-11.6775
▁passenger	-11.6775
▁shield	-11.6775
▁baptized	-11.6775
▁bullshit	-11.6775
▁evidence	-11.6775
▁homophobi	-11.6775
▁impuls	-11.6775
▁unsavo	-11.6775
▁occupy	-11.6775
▁suffocate	-11.6775
▁injustice	-11.6775
▁micro	-11.6775
▁nephew	-11.6775
▁tantrum	-11.6775
▁luggage	-11.6775
▁conquer	-11.6775
▁league	-11.6775
▁thirty	-11.6775
▁euphori	-11.6775
▁clique	-11.6775
▁tutorial	-11.6775
▁goddess	-11.6775
▁possibilities	-11.6775
▁unreasonabl	-11.6775
▁floral	-11.6775
▁poison	-11.6775
▁psychotic	-11.6775
▁unwilling	-11.6775
▁plague	-11.6775
▁snuggle	-11.6775
▁cliff	-11.6775
▁chaotic	-11.6775
▁sufficient	-11.6775
▁unconscious	-11.6775
▁bundle	-11.6775
▁cynic	-11.6775
▁decorations	-11.6775
▁comfy	-11.6775
▁mercy	-11.6775
▁edgy	-11.6775
▁narrow	-11.6775
▁righteous	-11.6775
▁mournful	-11.6775
▁abdomen	-11.6775
▁oncologist	-11.6775
▁proclaim	-11.6775
▁wardro	-11.6775
▁jazz	-11.6775
▁legacy	-11.6775
▁built	-11.6775
▁smirk	-11.6775
▁moaning	-11.6775
▁olympic	-11.6775
▁diabet	-11.6775
▁forehead	-11.6775
▁embarrassment	-11.6776
▁oscar	-11.6776
▁ghost	-11.6776
▁scripture	-11.6776
▁thief	-11.6776
▁verbal	-11.6776
▁labour	-11.6776
▁mormon	-11.6776
▁drastic	-11.6776
▁que	-11.6776
▁desperation	-11.6776
▁senior	-11.6776
▁exhaustion	-11.6776
▁fridge	-11.6776
▁ignorance	-11.6776
▁discount	-11.6776
▁psychologist	-11.6776
▁sidewalk	-11.6776
▁household	-11.6776
▁quar	-11.6776
▁asshole	-11.6777
▁commitment	-11.6777
▁existance	-11.6777
▁muffin	-11.6777
▁diagnosis	-11.6777
▁unsafe	-11.6777
▁selection	-11.6777
▁ministries	-11.6777
▁veggie	-11.6777
▁siren	-11.6777
harmony	-11.6777
▁missionary	-11.6777
▁underneath	-11.6777
▁yellow	-11.6777
▁potter	-11.6777
▁transport	-11.6777
▁loathe	-11.6777
▁resume	-11.6778
▁adorable	-11.6778
sing	-11.6778
▁finland	-11.6778
▁assessment	-11.6778
▁classmate	-11.6779
away	-11.6779
▁hypocrite	-11.6779
▁blake	-11.6779
▁fulfillment	-11.6779
▁scientist	-11.6779
▁emoti	-11.678
▁campus	-11.678
▁sarah	-11.678
▁predict	-11.678
▁interrupt	-11.678
▁obligated	-11.678
▁disoriented	-11.678
▁accent	-11.6781
▁golden	-11.6781
▁priority	-11.6781
▁inherent	-11.6782
▁daydream	-11.6782
▁jones	-11.6784
▁panicky	-11.6784
▁affirmation	-11.6784
▁consistent	-11.6784
▁tablets	-11.6785
▁splash	-11.6785
▁communication	-11.6785
▁hype	-11.6785
▁outcast	-11.6785
▁slut	-11.6785
▁certifi	-11.6785
▁pillow	-11.6786
▁adjustment	-11.6786
▁riders	-11.6786
▁dismiss	-11.6787
▁condescending	-11.6787
▁envy	-11.6787
▁jason	-11.6787
▁shiny	-11.6787
▁lucy	-11.6788
▁impressive	-11.6788
▁transformation	-11.6789
▁insecurities	-11.6789
▁disconnected	-11.6789
▁pursuits	-11.6789
▁sheep	-11.6789
▁ingredients	-11.6789
▁assignments	-11.6789
▁indulgent	-11.6789
▁fuel	-11.679
▁ordeal	-11.679
▁knit	-11.679
▁lurk	-11.6791
▁exceed	-11.6792
▁compromised	-11.6792
▁popped	-11.6792
▁concert	-11.6792
▁flag	-11.6792
▁immerse	-11.6793
▁loyalty	-11.6794
▁carrot	-11.6795
▁stolen	-11.6795
▁seams	-11.6796
▁bunny	-11.6797
minated	-11.6798
▁buddy	-11.6798
▁equi	-11.6798
▁minister	-11.6799
▁adapt	-11.6799
▁batch	-11.6799
▁truck	-11.68
▁plung	-11.68
▁loner	-11.6801
▁circu	-11.6801
▁expand	-11.6802
▁angeles	-11.6802
▁eagle	-11.6802
▁deadline	-11.6802
▁comeback	-11.6803
▁combo	-11.6803
▁confrontation	-11.6803
▁ankle	-11.6804
▁publisher	-11.6804
▁haunt	-11.6805
alian	-11.6805
▁insensitive	-11.6806
▁vivi	-11.6806
▁bitten	-11.6806
▁stoned	-11.6806
▁authority	-11.6806
▁daycare	-11.6806
▁conducted	-11.6807
▁collected	-11.6808
▁appropriately	-11.6808
▁lowest	-11.6809
▁dramatically	-11.6809
▁eggs	-11.6809
▁portrayal	-11.681
▁kidnappe	-11.6811
▁dick	-11.6813
▁highlight	-11.6813
▁instructions	-11.6814
▁outdoors	-11.6814
▁hollow	-11.6816
▁ambula	-11.6816
▁disregarded	-11.6817
▁vulnerabilit	-11.6819
▁delivered	-11.682
▁pumped	-11.682
▁telephon	-11.6821
▁grave	-11.6821
▁numbness	-11.6821
▁confession	-11.6822
▁douche	-11.6822
▁protective	-11.6823
▁tangibl	-11.6824
▁patrioti	-11.6824
▁boil	-11.6826
▁nudge	-11.6826
▁ste	-11.6827
▁pills	-11.6827
▁gloss	-11.6827
▁agreement	-11.6827
▁mineral	-11.6828
▁nerd	-11.6829
▁weaker	-11.683
▁accurate	-11.683
▁annual	-11.683
▁military	-11.6831
▁slo	-11.6831
▁jew	-11.6832
▁destroyed	-11.6832
▁separated	-11.6833
▁stupidity	-11.6836
▁blink	-11.6837
▁raped	-11.6838
▁recovery	-11.6838
▁tackl	-11.6839
▁clients	-11.6839
ron	-11.6839
▁miracles	-11.6839
▁visible	-11.6839
▁relations	-11.6841
▁perfection	-11.6842
▁candle	-11.6845
▁crib	-11.6845
▁judgment	-11.6845
▁peep	-11.6849
newest	-11.6852
▁landscape	-11.6853
▁encountered	-11.6855
▁tall	-11.6856
seas	-11.6858
▁socializ	-11.6859
▁retain	-11.6859
▁align	-11.686
▁zum	-11.6863
▁greatness	-11.6864
▁carefully	-11.6867
▁gently	-11.6868
▁bitches	-11.6871
▁nations	-11.6873
rt	-11.6874
▁tuition	-11.6875
▁jona	-11.6875
▁swings	-11.6876
▁hunger	-11.6877
▁til	-11.6877
▁pertain	-11.6878
hu	-11.6886
▁sho	-11.6889
▁medications	-11.689
▁chicks	-11.6892
wn	-11.6892
ulation	-11.6893
▁disc	-11.6894
▁shatter	-11.6895
▁nation	-11.6897
▁provocati	-11.6898
▁explored	-11.69
▁pounding	-11.69
▁piling	-11.6901
▁treasures	-11.6901
▁inspire	-11.6903
▁hoard	-11.6907
▁duke	-11.6908
▁mobile	-11.6914
▁partners	-11.6915
▁convo	-11.6915
rma	-11.6921
▁stride	-11.6921
▁balanced	-11.6924
▁coaster	-11.6924
▁vocal	-11.6928
▁greed	-11.6929
bound	-11.6936
▁agreed	-11.6937
▁kay	-11.694
nner	-11.6942
▁resident	-11.6946
▁kim	-11.6946
▁illusion	-11.695
▁clar	-11.6951
▁revel	-11.6952
cky	-11.6957
▁conduct	-11.6957
tality	-11.6958
▁bloody	-11.6958
ji	-11.6961
▁bone	-11.6964
▁arab	-11.6965
▁phrases	-11.6967
▁xan	-11.6967
tribute	-11.6968
▁desp	-11.6969
▁confine	-11.6972
logging	-11.6974
▁tape	-11.6977
▁jenn	-11.698
▁stealing	-11.6981
▁generations	-11.6983
▁sample	-11.6983
▁broad	-11.6983
▁console	-11.6985
▁royal	-11.6986
ks	-11.6989
uff	-11.6991
▁accomplishments	-11.6992
▁solved	-11.6992
ag	-11.6993
▁linked	-11.6993
▁penn	-11.6997
▁uncles	-11.7001
▁ties	-11.7004
iest	-11.7005
ik	-11.7007
▁relatives	-11.7009
ro	-11.701
▁dork	-11.7016
▁tub	-11.702
▁whine	-11.7021
acy	-11.7021
▁targeted	-11.7024
▁updates	-11.7026
bq	-11.7028
ggie	-11.7033
▁destructi	-11.7051
▁stellar	-11.7059
▁doom	-11.7063
nior	-11.7065
▁excuses	-11.7067
▁fold	-11.7068
▁vow	-11.7071
▁occasions	-11.7073
▁fri	-11.7075
illion	-11.7079
iff	-11.7082
▁legion	-11.709
▁cravings	-11.7092
tious	-11.7093
▁plants	-11.7098
▁magn	-11.7099
pines	-11.7101
▁killer	-11.7105
agne	-11.7106
▁sil	-11.7111
▁ethic	-11.7113
hes	-11.7116
▁examples	-11.712
▁bubble	-11.7132
▁squir	-11.7133
▁ven	-11.7139
▁brat	-11.7141
▁yard	-11.7152
▁tang	-11.7154
▁cul	-11.7156
▁bal	-11.7162
▁footing	-11.7166
▁attain	-11.7167
▁degrees	-11.7169
▁inches	-11.717
▁quietly	-11.717
▁swing	-11.7176
▁liqu	-11.7192
▁rings	-11.7194
▁bab	-11.7194
▁imagin	-11.7201
od	-11.7206
▁lull	-11.7212
▁laur	-11.7215
nts	-11.7217
▁comb	-11.722
▁frustrations	-11.7223
lush	-11.7232
▁carol	-11.7241
▁programs	-11.7242
▁starter	-11.7248
▁tests	-11.7255
▁usa	-11.7258
▁stew	-11.7259
▁loung	-11.7273
▁awards	-11.7278
anity	-11.7279
▁rib	-11.7284
▁griev	-11.7289
▁girlfriends	-11.7305
eur	-11.7305
▁apr	-11.731
try	-11.7312
gle	-11.7322
ass	-11.7322
▁practic	-11.7323
▁retire	-11.7323
▁national	-11.7327
▁momo	-11.7327
ging	-11.7335
▁interven	-11.7341
▁monast	-11.7365
▁organiz	-11.7365
▁glanc	-11.737
▁progressing	-11.7374
▁trop	-11.7378
▁mary	-11.7379
za	-11.7393
▁flu	-11.7397
▁tastes	-11.7398
▁nipp	-11.7408
▁celebrit	-11.741
▁sober	-11.7411
▁stre	-11.7419
▁slice	-11.7423
▁ray	-11.7428
some	-11.7435
▁math	-11.7453
▁sundays	-11.7456
ig	-11.7462
▁hoo	-11.7463
▁arouse	-11.7464
▁distan	-11.7468
▁covers	-11.747
▁plead	-11.7472
▁blues	-11.7473
▁donut	-11.7481
teen	-11.7486
▁thr	-11.7489
kin	-11.7496
▁deceive	-11.7496
▁supporter	-11.75
▁lifes	-11.75
▁systems	-11.7505
▁mos	-11.7517
▁shin	-11.7523
▁brea	-11.7526
▁schools	-11.7539
▁techn	-11.7542
▁handl	-11.7545
▁chew	-11.755
▁spots	-11.7551
▁hyp	-11.7566
geni	-11.7584
▁hone	-11.7599
▁thro	-11.7603
▁nic	-11.7611
bel	-11.7612
▁replac	-11.763
▁margin	-11.7631
qui	-11.7645
▁referr	-11.7664
▁edit	-11.7666
tch	-11.7667
▁struggl	-11.7667
▁stated	-11.7674
▁returns	-11.7678
▁cure	-11.7692
▁tempt	-11.7704
ola	-11.7705
ger	-11.7716
▁profi	-11.7718
▁hesitat	-11.7751
cc	-11.7762
bo	-11.7766
▁tumbl	-11.777
egal	-11.7781
▁flush	-11.7783
▁gripp	-11.7787
utting	-11.7787
▁wire	-11.7789
mpathetic	-11.7791
berg	-11.7799
▁recreat	-11.7831
opped	-11.7831
ake	-11.7834
▁thread	-11.7842
▁interna	-11.7846
▁cats	-11.785
sert	-11.787
▁tickle	-11.7871
▁parad	-11.788
tional	-11.7889
mont	-11.7892
ency	-11.7893
▁stumble	-11.7897
▁devotee	-11.7904
well	-11.7905
▁assist	-11.7909
▁uneas	-11.7918
▁ash	-11.7921
▁bruise	-11.7921
tly	-11.7923
ender	-11.7941
▁bob	-11.7943
▁verg	-11.7962
posed	-11.7963
▁decorate	-11.7984
▁clip	-11.7991
▁digg	-11.8014
clear	-11.802
know	-11.8022
▁wrongly	-11.8027
ordan	-11.8039
ow	-11.8049
▁captur	-11.8051
▁eff	-11.806
▁rea	-11.8064
▁pleases	-11.8065
▁qualif	-11.8067
ren	-11.8081
▁fr	-11.8092
▁gi	-11.8103
▁comprehen	-11.8106
▁gaz	-11.8111
▁behavio	-11.812
lem	-11.8123
▁surge	-11.8124
placement	-11.813
ellie	-11.8132
▁calv	-11.8135
▁radi	-11.8146
▁styles	-11.8153
▁yea	-11.816
▁teens	-11.8161
▁tai	-11.8163
rite	-11.817
▁pb	-11.8171
ria	-11.8172
ug	-11.8186
lets	-11.8193
▁intern	-11.8207
mo	-11.8235
▁gai	-11.8239
▁minim	-11.8242
nstance	-11.8242
▁breaks	-11.8246
▁sn	-11.8281
▁bin	-11.8284
▁congest	-11.8288
▁grows	-11.8289
end	-11.8291
anne	-11.8307
bout	-11.8308
▁bay	-11.8313
ept	-11.8341
▁popp	-11.8346
rance	-11.8369
ac	-11.8383
▁vis	-11.8391
cted	-11.8413
rate	-11.8436
▁sour	-11.8471
▁spinn	-11.8498
▁clau	-11.8501
▁paw	-11.851
▁mothering	-11.8513
sprint	-11.8518
ker	-11.8533
▁forc	-11.854
▁mc	-11.8553
▁za	-11.8567
▁jar	-11.857
ered	-11.8571
▁dave	-11.8572
▁calming	-11.8581
ber	-11.859
▁mari	-11.8614
▁guid	-11.8624
mmed	-11.8627
▁swo	-11.8631
▁antho	-11.8635
han	-11.8635
▁smok	-11.865
ose	-11.8652
▁cra	-11.8652
orn	-11.8662
▁bou	-11.8663
▁devote	-11.8701
▁parti	-11.8706
▁embrac	-11.8708
nly	-11.8713
lock	-11.8714
▁rack	-11.8721
rained	-11.8727
▁meditat	-11.8735
was	-11.874
claim	-11.8746
books	-11.8752
shful	-11.8753
going	-11.8754
▁socialis	-11.8756
▁closes	-11.8761
▁nud	-11.8773
▁alb	-11.8803
▁hind	-11.8808
▁radiat	-11.8816
ob	-11.8823
▁alternat	-11.8834
▁tru	-11.8844
▁apt	-11.886
cute	-11.8865
otherhood	-11.8881
alked	-11.8893
▁flirt	-11.8908
nched	-11.8916
ank	-11.8933
pol	-11.8935
▁auss	-11.8964
▁pete	-11.8965
▁distribut	-11.8976
any	-11.898
▁inspect	-11.8996
▁forgiven	-11.8998
▁piss	-11.9012
ters	-11.9013
▁cl	-11.9018
▁explor	-11.9024
nish	-11.903
dly	-11.9036
▁tra	-11.904
▁salva	-11.9053
▁seri	-11.9066
mmar	-11.9067
oops	-11.91
your	-11.9113
▁speaker	-11.9118
▁humili	-11.9118
hand	-11.9131
▁che	-11.9139
▁kisse	-11.9143
▁bake	-11.9164
▁fed	-11.9166
▁musicians	-11.9173
▁await	-11.9174
▁colla	-11.9191
cked	-11.9197
ifying	-11.9197
▁gar	-11.92
▁bind	-11.9201
ward	-11.9204
trick	-11.9205
times	-11.921
ightly	-11.9227
▁mal	-11.9229
▁wed	-11.9233
▁nois	-11.9257
with	-11.9272
fare	-11.9278
▁homeless	-11.9286
ten	-11.9293
quake	-11.9302
oo	-11.9305
▁consult	-11.9305
▁exaggerat	-11.9306
rence	-11.9319
hen	-11.9352
▁subsid	-11.9353
point	-11.9354
pay	-11.9365
und	-11.9374
▁dine	-11.9377
▁watcher	-11.9389
odor	-11.939
▁cleans	-11.9391
aging	-11.9392
▁strik	-11.9395
▁moisturiz	-11.9397
▁histor	-11.9399
▁desir	-11.9411
ica	-11.9411
nia	-11.9412
valent	-11.9432
ership	-11.945
rewarding	-11.946
▁participa	-11.946
let	-11.9464
▁cleanse	-11.9464
▁varie	-11.9465
list	-11.9467
ium	-11.9497
▁beings	-11.9508
uche	-11.9509
▁donate	-11.9509
▁eric	-11.9515
▁lad	-11.9517
▁measur	-11.9517
mp	-11.9518
▁likeable	-11.9533
mming	-11.9536
orant	-11.9539
▁lou	-11.9548
▁hav	-11.9561
▁restore	-11.9572
aries	-11.9577
▁mov	-11.9599
▁recogni	-11.96
face	-11.9602
rp	-11.9615
uper	-11.9623
full	-11.9624
▁qui	-11.9628
least	-11.9631
ltitude	-11.9632
joy	-11.965
hem	-11.9672
words	-11.9672
methods	-11.9676
hb	-11.9676
fact	-11.9683
▁emphasi	-11.9685
burn	-11.9685
bul	-11.9687
both	-11.9704
lapse	-11.9714
aving	-11.9719
productive	-11.9721
▁nurtur	-11.9723
▁flee	-11.9725
course	-11.9732
▁porti	-11.9733
resolved	-11.9739
▁raid	-11.9741
break	-11.9744
dded	-11.9746
bucks	-11.9751
graduate	-11.9774
▁engag	-11.9781
▁san	-11.9783
water	-11.9786
heartedly	-11.9791
wood	-11.9799
flow	-11.9801
script	-11.9801
▁influenc	-11.9803
▁han	-11.9808
stairs	-11.9812
characteristic	-11.9814
post	-11.9814
▁conduc	-11.9817
service	-11.9818
▁nico	-11.9829
soft	-11.9842
ning	-11.9842
standing	-11.9847
▁lea	-11.9847
ea	-11.986
cies	-11.9862
math	-11.9876
▁puzzl	-11.9898
▁vibra	-11.9908
mention	-11.9912
▁poo	-11.9918
ang	-11.9926
▁affirm	-11.9929
nail	-11.9929
love	-11.9933
▁tax	-11.9942
▁dec	-11.9943
hhh	-11.9945
▁zen	-11.9952
▁hel	-11.9956
▁choos	-11.9986
▁treasure	-12.0001
▁lecture	-12.0006
▁cartoon	-12.0007
▁fluid	-12.0008
▁possession	-12.001
aches	-12.0014
▁resolution	-12.0015
▁vibration	-12.0017
▁produc	-12.0017
▁challeng	-12.0017
▁distraction	-12.0019
▁releas	-12.0019
▁miracle	-12.0019
▁client	-12.002
tape	-12.0022
▁circumstance	-12.0026
▁grip	-12.0027
eeeeee	-12.0028
▁palm	-12.0028
▁balanc	-12.003
▁glu	-12.0031
▁standard	-12.0033
▁suggestion	-12.0033
▁relation	-12.0043
sta	-12.0043
▁intimidat	-12.0045
▁cara	-12.0046
sky	-12.0052
▁psychological	-12.0055
▁relentless	-12.0057
▁consumer	-12.0059
▁compete	-12.0059
▁optimis	-12.0059
▁continuous	-12.0062
tes	-12.0063
fertil	-12.0066
▁confront	-12.007
phones	-12.0073
▁desert	-12.0073
▁victor	-12.0075
▁assault	-12.0079
▁guarantee	-12.008
▁revis	-12.008
▁brit	-12.0083
▁jog	-12.0084
▁flaw	-12.0084
▁engine	-12.0085
ened	-12.0086
▁bloat	-12.0087
▁gloom	-12.0088
shop	-12.0088
▁noise	-12.0088
get	-12.0092
▁scru	-12.0094
▁enem	-12.01
▁govern	-12.0106
▁homosexual	-12.0106
▁enthusiast	-12.0107
relevant	-12.0107
▁triumph	-12.0108
▁neuro	-12.0108
▁administration	-12.0108
▁benjamin	-12.0108
▁blogosphere	-12.0108
▁blossom	-12.0108
▁caterpillar	-12.0108
▁contradict	-12.0108
▁dehydrated	-12.0108
▁diminish	-12.0108
▁district	-12.0108
▁egypt	-12.0108
▁evident	-12.0108
▁evolution	-12.0108
▁excruciating	-12.0108
▁fatigue	-12.0108
▁hurricane	-12.0108
▁impractical	-12.0108
▁inconvenience	-12.0108
▁insomnia	-12.0108
▁interpretation	-12.0108
▁katniss	-12.0108
▁netflix	-12.0108
▁nugget	-12.0108
▁olivia	-12.0108
▁oxygen	-12.0108
▁pedestrian	-12.0108
▁pizza	-12.0108
▁pupils	-12.0108
▁rhetoric	-12.0108
▁sarcasm	-12.0108
▁sceptical	-12.0108
▁scissor	-12.0108
▁shinobi	-12.0108
▁soundtrack	-12.0108
▁thirsty	-12.0108
▁tournament	-12.0108
▁tunnel	-12.0108
▁unconditional	-12.0108
▁vampire	-12.0108
▁vertigo	-12.0108
▁zimbabwe	-12.0108
▁collaborati	-12.0108
▁council	-12.0108
▁percieve	-12.0108
▁rhyme	-12.0108
▁accessories	-12.0108
▁excluded	-12.0108
▁exclusively	-12.0108
▁gospel	-12.0108
▁mathematic	-12.0108
▁pessimis	-12.0108
▁rabbit	-12.0108
▁remembrance	-12.0108
▁fundamental	-12.0108
▁georgi	-12.0108
▁instagram	-12.0108
▁masculin	-12.0108
▁muslim	-12.0108
▁territory	-12.0108
▁caregiver	-12.0108
▁criminal	-12.0108
▁parallel	-12.0108
▁stanza	-12.0108
▁sublime	-12.0108
▁ailments	-12.0108
▁fraud	-12.0108
▁implement	-12.0108
▁investigat	-12.0108
▁occupation	-12.0108
▁acquire	-12.0108
▁beneficial	-12.0108
▁glitter	-12.0108
▁bladder	-12.0108
▁chuffed	-12.0108
▁horizon	-12.0108
▁masterpiece	-12.0108
▁pepper	-12.0108
▁prestig	-12.0108
▁reckless	-12.0108
▁midterm	-12.0108
▁abroad	-12.0108
▁orphan	-12.0108
▁snug	-12.0108
▁suburb	-12.0108
▁suitcase	-12.0108
▁iraq	-12.0108
▁oregon	-12.0108
▁register	-12.0108
▁mexican	-12.0108
▁slumber	-12.0108
▁tattoo	-12.0108
▁dallas	-12.0108
▁thailand	-12.0108
▁tornado	-12.0108
▁brazil	-12.0108
▁queasy	-12.0108
▁spritz	-12.0108
▁canadian	-12.0108
▁balloon	-12.0108
▁spectator	-12.0108
▁advise	-12.0108
▁garments	-12.0108
▁paralysed	-12.0108
▁lemonade	-12.0108
▁column	-12.0108
▁borrow	-12.0108
▁deploy	-12.0108
▁recession	-12.0108
▁housewife	-12.0108
▁humbug	-12.0108
▁productivity	-12.0108
▁whimsical	-12.0108
▁dubai	-12.0108
▁montana	-12.0108
▁minimum	-12.0108
▁noodle	-12.0108
▁ebay	-12.0108
▁obedien	-12.0108
▁prominent	-12.0108
▁euro	-12.0108
▁laziness	-12.0108
huckle	-12.0109
▁fingernail	-12.0109
▁spazz	-12.0109
▁straightforward	-12.0109
▁surfacing	-12.0109
▁generic	-12.0109
▁courthouse	-12.0109
▁unlovable	-12.0109
▁chronicles	-12.0109
▁twinges	-12.0109
▁urgency	-12.0109
▁xxx	-12.0109
▁sluggish	-12.0109
▁uninteresting	-12.0109
▁upbeat	-12.0109
▁tutor	-12.0109
▁tabby	-12.0109
▁ladder	-12.0109
▁vendor	-12.0109
▁ferocious	-12.0109
▁bullet	-12.0109
▁micah	-12.0109
▁preform	-12.0109
▁representative	-12.0109
▁welcoming	-12.0109
▁xvi	-12.0109
▁ensue	-12.0109
▁prosecut	-12.0109
▁stadium	-12.0109
▁salad	-12.0109
▁urban	-12.0109
▁erik	-12.0109
▁sunrise	-12.0109
▁keyboard	-12.0109
▁preschool	-12.0109
▁adverse	-12.0109
▁cardio	-12.0109
▁swamp	-12.0109
▁panties	-12.0109
▁teddy	-12.0109
▁depart	-12.0109
▁exposure	-12.0109
▁dentist	-12.0109
▁limitations	-12.0109
▁conceal	-12.011
▁pompo	-12.011
▁prejudice	-12.011
▁robbed	-12.011
▁mantra	-12.011
▁nathan	-12.011
▁barrage	-12.011
▁obey	-12.011
▁java	-12.011
▁shelter	-12.011
▁persevere	-12.011
▁shortlist	-12.011
▁transparen	-12.011
▁allergies	-12.011
▁terrain	-12.011
▁expansive	-12.011
▁priest	-12.0111
▁snob	-12.0111
▁consist	-12.0111
▁extension	-12.0111
▁sincerity	-12.0111
▁vinegar	-12.0111
▁abusive	-12.0111
▁steep	-12.0111
▁despise	-12.0111
▁alert	-12.0112
▁observation	-12.0112
▁squeal	-12.0112
▁flourish	-12.0112
▁wreck	-12.0112
▁plateau	-12.0112
▁irrita	-12.0112
▁immigrant	-12.0112
▁glory	-12.0112
▁submission	-12.0112
▁omg	-12.0112
▁william	-12.0112
▁instructor	-12.0112
▁ginger	-12.0113
stone	-12.0113
▁sinai	-12.0113
▁spoon	-12.0113
▁ipod	-12.0113
calcula	-12.0113
▁hahaha	-12.0113
▁motivator	-12.0113
▁preference	-12.0114
▁secretary	-12.0114
▁horrid	-12.0114
▁minority	-12.0114
▁clench	-12.0114
▁excitment	-12.0114
▁sickening	-12.0115
▁sweetheart	-12.0115
▁genetic	-12.0116
▁cluttered	-12.0116
▁barbie	-12.0116
▁bryan	-12.0116
▁dissect	-12.0116
▁unfit	-12.0117
▁hedge	-12.0117
▁atheist	-12.0117
▁orgasm	-12.0117
▁temptation	-12.0117
▁downstairs	-12.0117
▁stripped	-12.0117
▁baff	-12.0118
thomas	-12.0118
▁exhilarated	-12.0118
▁embarass	-12.0118
▁psycho	-12.0118
▁revelation	-12.0118
▁advertising	-12.0118
▁sympathize	-12.0119
▁pushover	-12.0119
▁turkey	-12.0119
▁undertaking	-12.0119
▁mayhem	-12.012
▁constitution	-12.012
▁admission	-12.0121
▁provoking	-12.0121
▁herald	-12.0121
▁teasing	-12.0122
▁thumb	-12.0122
▁bearable	-12.0122
▁clutch	-12.0123
▁aimless	-12.0123
▁angsty	-12.0123
▁niko	-12.0124
▁analyzing	-12.0124
▁hesitation	-12.0124
▁festival	-12.0125
▁squad	-12.0125
plex	-12.0126
▁announcement	-12.0126
▁alice	-12.0126
▁lat	-12.0126
▁thunder	-12.0127
▁outrageous	-12.0128
▁karen	-12.0128
▁devour	-12.0128
▁spouse	-12.0128
▁winners	-12.0128
▁enriched	-12.0129
▁repercussions	-12.0129
▁intend	-12.0129
▁aesthetics	-12.013
▁undeserving	-12.013
▁spoiled	-12.013
▁publicity	-12.013
▁strolling	-12.013
▁disbelie	-12.0131
▁eyelid	-12.0132
▁employers	-12.0132
▁princess	-12.0133
nerable	-12.0133
▁theories	-12.0133
▁whiske	-12.0134
▁enact	-12.0135
▁preten	-12.0136
▁unbearable	-12.0136
▁glee	-12.0137
▁jewel	-12.0138
▁superman	-12.0138
▁appropriate	-12.0138
▁centr	-12.0138
▁shaming	-12.0139
▁accompani	-12.014
▁graphic	-12.014
▁imminent	-12.014
▁owls	-12.014
▁agony	-12.0141
▁thigh	-12.0142
▁flirty	-12.0142
▁excel	-12.0143
▁mature	-12.0143
▁terrorist	-12.0144
fault	-12.0144
▁embark	-12.0146
▁proceed	-12.0146
▁compell	-12.0146
▁sleeve	-12.0147
▁arrival	-12.0147
▁blade	-12.0147
▁salon	-12.0148
▁slum	-12.0148
▁masses	-12.0149
▁elusive	-12.0149
▁mouse	-12.0149
▁morph	-12.015
▁concentrating	-12.0152
▁supervis	-12.0152
▁meantime	-12.0153
▁tidying	-12.0154
▁frequent	-12.0154
▁breastfeeding	-12.0155
▁perpetua	-12.0155
▁anguished	-12.0156
▁continuously	-12.0157
bet	-12.0157
▁june	-12.0158
▁ambitio	-12.0158
▁republican	-12.0158
▁bald	-12.0159
▁dorm	-12.0159
▁chemistry	-12.0161
▁operation	-12.0162
cer	-12.0163
▁trainer	-12.0163
waddle	-12.0163
▁borders	-12.0164
▁stimulating	-12.0165
▁chambers	-12.0165
▁marie	-12.0165
▁weapons	-12.0165
▁wiped	-12.0165
▁rainbows	-12.0165
▁hormones	-12.0166
▁flop	-12.0167
▁detest	-12.0167
▁threatening	-12.0167
▁rating	-12.0168
▁comfortably	-12.0168
▁urgent	-12.0171
sen	-12.0171
▁cents	-12.0171
▁artisan	-12.0173
ft	-12.0173
▁fiercely	-12.0174
▁nov	-12.0175
▁enormously	-12.0176
▁irrationally	-12.0176
that	-12.0176
▁creator	-12.0176
▁flame	-12.0177
▁ponder	-12.0179
▁compensate	-12.0183
▁comic	-12.0183
▁construction	-12.0185
▁statistic	-12.0185
▁enthusiastic	-12.0185
versary	-12.0187
▁salut	-12.0187
▁manipulate	-12.0187
▁hammer	-12.0188
▁validation	-12.0188
▁contrary	-12.0188
▁drift	-12.019
▁leaf	-12.0191
ital	-12.0191
▁oak	-12.0192
▁urging	-12.0192
▁memoriz	-12.0194
▁ruined	-12.0195
▁hyun	-12.0196
▁effectively	-12.0196
▁refine	-12.0197
▁whale	-12.0198
competent	-12.0198
▁spotless	-12.0199
▁creepy	-12.02
▁distractions	-12.0202
▁vibrations	-12.0202
▁spotlight	-12.0206
ops	-12.0206
▁resolutions	-12.0207
▁vine	-12.0207
▁clicked	-12.0207
▁relish	-12.0208
▁consumers	-12.0209
▁shove	-12.021
▁crud	-12.0213
▁adequate	-12.0213
▁surgeon	-12.0214
▁trends	-12.0214
▁feeble	-12.0214
▁appli	-12.0217
servation	-12.0219
rinth	-12.0219
▁humanity	-12.022
▁bec	-12.0225
▁inadequac	-12.0225
▁brad	-12.0227
wagon	-12.0229
▁pic	-12.0229
▁visibl	-12.0231
▁shines	-12.0233
acted	-12.0234
▁proce	-12.0235
▁oneself	-12.0236
▁resonate	-12.0236
▁delay	-12.0237
▁descriptions	-12.0239
▁exhibitions	-12.0239
▁contributions	-12.024
▁shark	-12.0241
▁merit	-12.0243
▁crampy	-12.0243
▁holly	-12.0248
▁separately	-12.0248
iled	-12.0249
▁bully	-12.0249
▁tangle	-12.0251
▁italy	-12.0253
▁tire	-12.0253
▁journalist	-12.0256
▁prompting	-12.0256
▁allah	-12.0256
ek	-12.0257
▁conclude	-12.0258
▁convers	-12.0259
nnie	-12.026
▁apathy	-12.0262
▁thrilling	-12.0262
▁slapp	-12.0265
position	-12.0267
warm	-12.0272
▁stup	-12.0276
▁emergenc	-12.0276
▁celebrations	-12.0277
▁blissful	-12.0284
▁bomber	-12.0285
▁stats	-12.0287
▁sugary	-12.0288
▁prettie	-12.0289
▁priced	-12.0292
▁void	-12.0294
▁pill	-12.0294
rivi	-12.0296
avi	-12.0298
▁savor	-12.0303
▁spine	-12.0307
▁despairing	-12.0309
▁files	-12.0309
aring	-12.0314
▁earning	-12.0315
▁frigg	-12.032
cule	-12.0321
▁troph	-12.0322
▁assure	-12.0328
▁severe	-12.033
▁behaving	-12.0332
endar	-12.0333
tled	-12.0335
▁punctu	-12.0335
vity	-12.0337
▁atlant	-12.0337
▁whip	-12.0338
▁jamie	-12.0338
▁arrives	-12.0339
▁unusually	-12.034
co	-12.0342
▁unsu	-12.0343
▁sources	-12.0343
▁whims	-12.0343
▁lone	-12.0344
▁lin	-12.0345
ards	-12.0347
▁instincts	-12.0349
▁sentences	-12.035
▁woods	-12.0354
▁defense	-12.0354
▁impress	-12.0354
▁jens	-12.0354
theless	-12.0355
▁influences	-12.0357
ential	-12.0358
▁crumble	-12.0358
▁layers	-12.0364
▁hump	-12.0365
oved	-12.0369
▁clues	-12.0373
▁scann	-12.0374
▁recovering	-12.0374
▁blam	-12.0377
▁vu	-12.0377
▁gosh	-12.0378
▁slugg	-12.0379
▁poems	-12.0381
▁understands	-12.0382
▁owner	-12.0382
▁consec	-12.0383
▁broom	-12.0384
ewing	-12.0385
▁swell	-12.0388
▁cinema	-12.0392
▁approv	-12.0392
▁deck	-12.0396
▁vic	-12.0397
▁cultural	-12.0401
▁jay	-12.0401
nk	-12.0405
▁slate	-12.0407
▁scan	-12.0409
ches	-12.0411
▁marginali	-12.0411
▁slump	-12.0415
▁curr	-12.0418
just	-12.042
lery	-12.0423
▁impressions	-12.0425
▁presentations	-12.0427
▁batter	-12.0434
▁constrain	-12.0435
▁wins	-12.0436
peak	-12.0436
▁onions	-12.0436
▁awoke	-12.0437
▁materials	-12.0437
itarian	-12.0443
▁betty	-12.0445
▁judgement	-12.0447
hire	-12.0448
▁confusi	-12.0449
ell	-12.0451
▁legal	-12.0452
bor	-12.0453
▁el	-12.0458
liar	-12.046
▁machines	-12.0462
mmun	-12.0463
▁invit	-12.0468
▁demotivate	-12.0473
▁tyle	-12.0475
vement	-12.0478
▁heartedly	-12.0479
▁showcas	-12.0479
test	-12.048
▁directing	-12.0481
ished	-12.0483
▁overpower	-12.0485
rator	-12.0489
giving	-12.0494
▁patterns	-12.05
tagonis	-12.05
▁expressions	-12.0506
▁peek	-12.0506
▁pastor	-12.0507
▁israeli	-12.0508
▁nurture	-12.0508
▁valentine	-12.0509
▁buzz	-12.0509
▁cheat	-12.0515
umbleupon	-12.0521
ction	-12.0523
▁oils	-12.0524
▁outcomes	-12.0525
ouldnt	-12.0526
▁lax	-12.0528
ided	-12.0533
▁residu	-12.054
stroph	-12.0541
▁cease	-12.0542
▁ny	-12.0548
scepti	-12.0552
▁environmental	-12.0553
▁shocking	-12.0557
▁bloom	-12.056
▁updat	-12.0562
▁rug	-12.0564
▁honesty	-12.0568
▁swee	-12.0572
hr	-12.0574
▁satan	-12.0574
▁mat	-12.0576
▁pushy	-12.0577
▁assess	-12.0585
stal	-12.0586
▁qa	-12.0593
▁kai	-12.0593
▁slipper	-12.0594
▁allerg	-12.0595
▁budd	-12.06
backs	-12.06
▁razo	-12.0602
▁repl	-12.0619
▁beast	-12.0625
fu	-12.0629
ncidence	-12.0632
reacted	-12.0632
▁whistle	-12.0635
▁phoned	-12.0637
▁shifting	-12.0639
▁shameful	-12.064
▁wick	-12.0646
▁capit	-12.0649
▁rod	-12.0649
rugged	-12.0656
▁gott	-12.0658
▁dramas	-12.0662
sons	-12.0668
emotional	-12.0671
hael	-12.0677
▁rip	-12.0684
▁heights	-12.0688
dure	-12.0688
▁snor	-12.0693
▁planting	-12.0694
asha	-12.0704
ika	-12.071
done	-12.0715
tta	-12.073
▁sounded	-12.0747
pi	-12.0747
▁prices	-12.0757
▁outings	-12.0757
▁nei	-12.0759
▁harden	-12.076
aint	-12.076
▁relat	-12.0763
agnate	-12.0764
▁explosi	-12.0768
tive	-12.0774
▁locate	-12.0774
ponent	-12.0792
▁mammo	-12.0801
▁quantit	-12.0801
▁fade	-12.0806
▁rocking	-12.0808
yash	-12.081
▁kar	-12.0829
dependent	-12.083
▁uh	-12.0831
▁luna	-12.0835
▁wig	-12.0845
hobic	-12.0848
▁dope	-12.0848
▁peni	-12.086
▁melod	-12.0865
▁bug	-12.0867
▁scum	-12.0869
▁denis	-12.0871
cade	-12.0877
▁poop	-12.0879
▁moisturize	-12.088
▁smoothi	-12.0881
ou	-12.0887
▁victims	-12.0899
▁summar	-12.0902
▁ton	-12.092
akes	-12.0926
▁spec	-12.093
▁tail	-12.0932
▁disciple	-12.0938
▁sang	-12.094
owing	-12.0954
ocre	-12.096
like	-12.0961
▁integrate	-12.0966
▁warri	-12.0966
cho	-12.0983
oc	-12.0987
river	-12.0992
lk	-12.0992
tful	-12.1033
tuition	-12.1042
tical	-12.1046
▁refra	-12.1051
▁definiti	-12.1055
▁denni	-12.1055
▁poly	-12.1057
▁overeat	-12.1062
▁laps	-12.1079
millions	-12.1084
thful	-12.1084
▁reassure	-12.1086
ribe	-12.1088
sual	-12.1088
▁provides	-12.1092
hub	-12.1094
▁lev	-12.1099
▁tri	-12.1102
▁feast	-12.1112
▁pil	-12.1115
▁ec	-12.1117
las	-12.1123
tched	-12.1127
rushing	-12.114
▁chant	-12.1142
▁disabilit	-12.1143
▁musician	-12.1147
▁flo	-12.1149
▁poet	-12.115
corporate	-12.1154
▁laughs	-12.1157
alm	-12.1157
▁fails	-12.1158
ue	-12.1183
▁amish	-12.1184
▁argu	-12.1188
ester	-12.1194
▁bury	-12.1196
▁grat	-12.1212
▁mrs	-12.1213
little	-12.1214
▁roads	-12.1219
▁deepen	-12.1223
▁unde	-12.1223
▁oppose	-12.1226
po	-12.123
table	-12.1232
waiting	-12.1233
▁informal	-12.1242
▁compet	-12.125
gress	-12.1253
ese	-12.1255
▁mamma	-12.1261
▁stor	-12.1263
ast	-12.1271
▁authorit	-12.128
▁wince	-12.1291
fe	-12.1291
▁instill	-12.1304
▁ugli	-12.1309
▁additional	-12.1311
▁grounds	-12.1315
▁persona	-12.1318
▁neat	-12.1318
cking	-12.1321
▁pinn	-12.1331
▁blurr	-12.1332
▁thi	-12.1344
▁watche	-12.1346
▁trac	-12.1347
▁overtake	-12.1352
▁induc	-12.1371
▁shack	-12.1384
▁indi	-12.1391
▁grumble	-12.1393
oured	-12.1395
▁giver	-12.1426
▁hips	-12.1427
▁dial	-12.1436
▁stru	-12.1436
▁histori	-12.144
rie	-12.1441
vas	-12.1444
▁net	-12.1455
ush	-12.1457
▁blend	-12.1461
wise	-12.1506
▁repet	-12.1519
▁influ	-12.1526
▁linger	-12.1533
▁flak	-12.1541
ene	-12.1545
▁occurr	-12.1555
▁describes	-12.156
how	-12.1564
ashes	-12.1567
sk	-12.158
▁jok	-12.1587
ina	-12.1592
llows	-12.1594
▁bri	-12.16
mor	-12.1604
▁tolerat	-12.1608
leans	-12.161
▁stray	-12.1621
reading	-12.1626
▁skillz	-12.1642
▁rins	-12.1645
▁peach	-12.1646
▁cooperati	-12.1652
▁jon	-12.1653
nalin	-12.1663
▁girly	-12.1676
▁communicat	-12.1685
unk	-12.1687
▁cliche	-12.1688
old	-12.1689
▁deed	-12.1697
▁evoke	-12.1703
ravity	-12.1703
▁bel	-12.1718
▁davids	-12.1727
rup	-12.1727
▁testi	-12.1733
▁generat	-12.1743
▁aid	-12.1748
zzy	-12.1756
▁union	-12.176
▁bre	-12.1765
▁definat	-12.1775
hur	-12.1785
▁carb	-12.1785
essed	-12.1803
▁iron	-12.1813
tries	-12.1826
par	-12.1827
▁scha	-12.183
pouring	-12.1847
ification	-12.1867
ocks	-12.1871
yyy	-12.1872
tastic	-12.188
▁vega	-12.1898
▁beginnings	-12.1911
▁sneak	-12.1919
cial	-12.1925
▁hai	-12.1945
lying	-12.1949
oids	-12.1974
▁peas	-12.1979
▁assum	-12.1982
cs	-12.1983
▁bask	-12.1992
amp	-12.2038
rcis	-12.204
gu	-12.2049
▁scot	-12.2052
▁ter	-12.206
cation	-12.2066
weve	-12.2068
▁pickle	-12.207
▁uplift	-12.2071
abba	-12.2073
▁finals	-12.2074
▁soil	-12.2077
ejected	-12.2085
▁stimulat	-12.209
▁organ	-12.2099
▁funk	-12.2104
▁examine	-12.2108
▁frost	-12.2112
▁uncertaint	-12.2115
elve	-12.2126
▁sy	-12.213
sue	-12.213
ition	-12.2137
rd	-12.2139
▁rocket	-12.2143
▁whoop	-12.2157
wards	-12.2158
ect	-12.2173
mposed	-12.219
tique	-12.2194
▁croc	-12.2195
lick	-12.2195
▁ce	-12.2201
play	-12.2219
ister	-12.2223
itt	-12.2228
isplaced	-12.2229
erson	-12.223
▁ag	-12.2239
▁justin	-12.2239
▁maria	-12.2244
mint	-12.225
ole	-12.2252
mph	-12.2277
▁bon	-12.228
rl	-12.2283
▁squa	-12.2285
iv	-12.2289
eh	-12.2311
cker	-12.2317
sma	-12.2323
▁rom	-12.2329
▁enable	-12.2336
ved	-12.2337
toxin	-12.2339
eel	-12.2349
▁packag	-12.2368
this	-12.2379
▁sol	-12.2379
▁dive	-12.2383
sion	-12.2388
▁tooth	-12.2391
▁phones	-12.2396
dow	-12.2397
▁overdo	-12.2401
▁bun	-12.2405
vi	-12.2415
▁enca	-12.2417
▁loo	-12.243
▁surv	-12.2443
▁drip	-12.2451
reaching	-12.2454
▁hea	-12.2477
▁bb	-12.2477
▁glo	-12.2479
▁ups	-12.2496
▁programme	-12.2507
even	-12.2512
▁sees	-12.2521
▁organi	-12.2523
▁alt	-12.2524
mon	-12.2533
▁strapp	-12.2542
▁ye	-12.2543
laced	-12.2546
gen	-12.2552
ct	-12.2558
▁repress	-12.2569
lam	-12.2569
rock	-12.2569
things	-12.259
ppy	-12.259
▁controll	-12.2595
ick	-12.26
apping	-12.2605
▁gag	-12.2623
cle	-12.2632
▁dee	-12.2636
▁pine	-12.2642
tal	-12.2647
ited	-12.2654
▁magnif	-12.2655
▁hur	-12.2657
▁spi	-12.2682
▁bern	-12.2684
▁ros	-12.2709
mba	-12.272
gr	-12.2723
▁leak	-12.2727
▁employ	-12.2733
▁regime	-12.2735
▁dew	-12.2736
nate	-12.2736
mper	-12.2745
rin	-12.2747
▁whipp	-12.2767
▁glas	-12.2773
hoo	-12.2776
urned	-12.2783
ttered	-12.2792
▁blo	-12.28
llen	-12.2803
awaken	-12.2835
than	-12.2839
bb	-12.284
▁sla	-12.2859
▁joys	-12.286
▁promis	-12.2863
vent	-12.2865
ways	-12.2869
ebra	-12.2873
work	-12.2875
▁luk	-12.2875
dv	-12.2901
mm	-12.2903
▁ut	-12.2919
▁squ	-12.2926
▁bounc	-12.2928
aka	-12.2952
▁ensur	-12.2959
pers	-12.2976
▁incen	-12.2978
omet	-12.2982
▁marginal	-12.2989
gary	-12.299
▁analyze	-12.2995
ucky	-12.2997
overs	-12.3009
au	-12.3021
di	-12.3025
▁cub	-12.3037
ena	-12.3048
com	-12.3049
▁blu	-12.3052
aying	-12.3059
▁tin	-12.3065
aunted	-12.3075
▁sle	-12.3081
arts	-12.3085
▁compuls	-12.3086
▁energi	-12.3101
▁rai	-12.3125
fi	-12.3125
ngs	-12.3128
obs	-12.3132
own	-12.3133
ld	-12.3143
▁tex	-12.3156
▁hawk	-12.3167
▁nao	-12.3169
▁val	-12.317
▁improv	-12.3172
▁guil	-12.3177
ife	-12.3181
quel	-12.3187
▁weirdly	-12.3189
▁cus	-12.3197
ud	-12.3199
uk	-12.3204
ives	-12.3207
mise	-12.3212
▁stumbl	-12.3212
aze	-12.3234
urt	-12.324
▁tab	-12.3256
early	-12.3257
ez	-12.326
▁jug	-12.326
▁bam	-12.3281
ration	-12.3282
▁dev	-12.3302
oma	-12.3305
▁tamp	-12.3323
ai	-12.3324
▁arche	-12.3346
otic	-12.3348
▁opi	-12.3349
min	-12.335
▁app	-12.3353
▁sk	-12.3357
bed	-12.337
eri	-12.3371
▁decorat	-12.3382
▁bout	-12.3404
▁hugg	-12.3407
tuous	-12.3415
▁restrain	-12.3419
lessness	-12.3441
opping	-12.3451
tle	-12.3457
ssy	-12.346
ouch	-12.3464
▁den	-12.3477
pro	-12.3484
other	-12.3489
▁fran	-12.3503
apture	-12.3507
ere	-12.352
▁forgiv	-12.3527
▁feder	-12.3535
rise	-12.3537
▁wen	-12.3543
ana	-12.3543
▁sci	-12.3546
▁ble	-12.3554
▁intima	-12.3564
▁acc	-12.3579
▁mock	-12.3591
war	-12.365
▁mich	-12.3664
▁babysit	-12.3686
lated	-12.3691
yc	-12.3692
▁heel	-12.3697
ci	-12.37
▁trav	-12.3703
mme	-12.3708
ral	-12.3727
des	-12.3739
▁accuse	-12.3739
ively	-12.3742
▁radia	-12.3742
▁preci	-12.3754
▁demo	-12.3756
▁supplie	-12.376
dd	-12.3768
bal	-12.3773
fortune	-12.3773
coffin	-12.3773
rc	-12.3776
ort	-12.3777
ared	-12.378
▁tim	-12.3781
▁skirts	-12.3781
through	-12.379
rib	-12.3808
▁pla	-12.381
▁midwest	-12.3813
suits	-12.3815
him	-12.3819
very	-12.3828
▁gro	-12.3831
inking	-12.3841
ern	-12.3856
fighter	-12.3867
▁retir	-12.3878
▁scient	-12.3878
▁discipl	-12.3884
cia	-12.3884
▁eva	-12.3888
qu	-12.3926
▁rad	-12.3928
treat	-12.393
gans	-12.3931
selling	-12.3932
ripped	-12.3936
▁trimm	-12.394
rify	-12.3944
tine	-12.3945
nounce	-12.3949
tty	-12.396
ford	-12.3966
balm	-12.3971
▁sympathi	-12.3982
▁spar	-12.3983
dies	-12.3984
ishing	-12.3996
▁uninten	-12.4043
ggle	-12.4045
py	-12.4046
▁caress	-12.4049
sque	-12.405
nig	-12.4055
▁shari	-12.4084
▁plea	-12.4087
nal	-12.4097
▁whore	-12.4104
replace	-12.4104
axed	-12.4105
astic	-12.412
attracti	-12.4127
mad	-12.413
have	-12.4136
ody	-12.4137
lux	-12.4152
▁mas	-12.4162
mental	-12.4164
▁abou	-12.4173
family	-12.4178
▁charg	-12.4193
nuff	-12.4196
roll	-12.4199
▁mun	-12.4209
ght	-12.4215
▁copie	-12.4223
nation	-12.4228
titude	-12.4229
▁rash	-12.424
▁mull	-12.4241
▁te	-12.4249
▁logical	-12.4254
case	-12.426
▁lac	-12.4266
▁sor	-12.4267
flare	-12.4271
▁clam	-12.4274
▁schedul	-12.4276
run	-12.4277
tition	-12.4278
▁defi	-12.4278
▁roo	-12.4278
▁lau	-12.4285
ncy	-12.4294
ocated	-12.4303
mind	-12.431
beck	-12.432
▁battl	-12.4323
stic	-12.4324
▁fli	-12.433
ural	-12.4331
tches	-12.4332
▁chan	-12.4337
▁ah	-12.4344
▁sti	-12.4348
▁hopefull	-12.4351
sweet	-12.4351
write	-12.4366
▁plac	-12.437
rat	-12.4377
rid	-12.4386
speci	-12.4392
roads	-12.4399
vice	-12.4417
sync	-12.4421
▁nas	-12.4421
jin	-12.4425
tude	-12.4426
cu	-12.4426
▁graduat	-12.4433
▁cum	-12.4437
▁laure	-12.4437
wear	-12.4448
▁stat	-12.4453
▁monog	-12.446
ths	-12.4463
about	-12.4467
new	-12.4474
▁flac	-12.4479
▁israel	-12.4487
▁tram	-12.4491
▁longe	-12.4494
stand	-12.4495
▁lik	-12.4502
▁thre	-12.4512
mart	-12.4522
confident	-12.4522
ific	-12.4522
mitten	-12.4529
look	-12.4539
graph	-12.4539
▁russ	-12.4543
▁worldly	-12.4547
▁crim	-12.4551
key	-12.4552
liness	-12.4556
em	-12.4557
nstru	-12.4559
▁vers	-12.4561
▁patt	-12.4563
▁effin	-12.4572
▁organise	-12.4597
anged	-12.4609
▁conv	-12.4617
food	-12.4629
elf	-12.4636
▁sep	-12.4637
tro	-12.464
▁nightmar	-12.465
bag	-12.4651
mission	-12.4655
matic	-12.466
stop	-12.4661
▁wonderfull	-12.4661
owners	-12.4668
step	-12.4673
onia	-12.4677
▁spac	-12.4679
▁starv	-12.468
▁imperfect	-12.4681
▁childs	-12.4687
▁conta	-12.4695
▁nam	-12.4697
ography	-12.47
▁irre	-12.4703
▁defini	-12.4704
count	-12.4708
current	-12.471
erd	-12.471
gram	-12.4718
mark	-12.4718
bac	-12.4719
personal	-12.4724
page	-12.4735
▁intri	-12.4744
finished	-12.4746
▁injuri	-12.4746
appreciated	-12.4749
design	-12.4749
ja	-12.4755
▁portl	-12.4757
▁cel	-12.4762
border	-12.4768
guard	-12.477
▁unjust	-12.4773
▁hills	-12.4775
frame	-12.4776
abo	-12.4778
spring	-12.4782
articulate	-12.4786
behavior	-12.479
▁vol	-12.4791
coaster	-12.4794
mobile	-12.4798
bike	-12.4799
ushing	-12.4799
rall	-12.4803
▁remed	-12.4803
▁heads	-12.4803
spirit	-12.4803
ishi	-12.4808
structure	-12.4809
phrase	-12.4809
prepared	-12.481
▁generate	-12.4817
▁insid	-12.4822
dominant	-12.4822
icul	-12.4823
burger	-12.4823
▁blast	-12.4827
touched	-12.4836
▁apologiz	-12.4836
▁blas	-12.4841
foot	-12.4844
▁arrange	-12.4852
sale	-12.4853
ples	-12.4854
fer	-12.4857
uit	-12.486
▁bani	-12.4863
aker	-12.4865
▁au	-12.4868
▁ruth	-12.487
▁epi	-12.487
▁nip	-12.4871
▁cine	-12.4874
pathy	-12.4878
bri	-12.4878
▁midd	-12.4881
later	-12.4883
understanding	-12.4884
▁sir	-12.4887
coz	-12.4887
hai	-12.4891
songs	-12.4893
▁sass	-12.49
cumber	-12.49
▁communi	-12.4903
sheet	-12.4903
▁nig	-12.491
held	-12.4914
▁crumbl	-12.4915
▁rub	-12.4918
▁spoil	-12.4922
morrow	-12.4926
▁subm	-12.4928
form	-12.4934
telling	-12.4936
storm	-12.4937
iation	-12.4938
▁weave	-12.4938
ficial	-12.494
▁custo	-12.4943
opia	-12.4943
wa	-12.4946
ugged	-12.4948
links	-12.4948
ju	-12.4949
inform	-12.4953
vari	-12.496
gust	-12.4967
mix	-12.4968
▁indig	-12.4969
worked	-12.497
▁isolat	-12.497
▁mash	-12.4975
▁threaten	-12.4983
▁coerce	-12.4988
ler	-12.4988
▁lily	-12.4994
je	-12.4995
▁pap	-12.4999
usage	-12.4999
▁manag	-12.5007
▁recl	-12.5008
▁newspaper	-12.501
▁weapon	-12.5016
▁chamber	-12.5017
▁rainbow	-12.5017
▁doodle	-12.5017
▁instruction	-12.5021
▁endeavor	-12.5023
▁consequence	-12.5025
▁embarras	-12.5025
▁symptom	-12.5025
▁outdoor	-12.5026
▁lyric	-12.5026
▁embarrass	-12.5027
▁practi	-12.5027
▁breastfeed	-12.5032
▁slug	-12.5032
▁agen	-12.5032
▁wil	-12.5033
shy	-12.5034
▁egg	-12.5035
▁hormone	-12.5035
▁cloth	-12.5037
▁photographer	-12.5037
chie	-12.504
▁whooooo	-12.5041
▁slap	-12.5041
▁involv	-12.5042
lity	-12.5042
▁tidy	-12.5045
▁sinc	-12.5045
▁charm	-12.5047
▁pimp	-12.5048
▁med	-12.5049
ogue	-12.5054
▁dissolv	-12.506
▁unbearabl	-12.5062
zine	-12.5065
▁hy	-12.5067
▁eventual	-12.507
eat	-12.5071
▁tortur	-12.5075
▁enrich	-12.5075
▁disconnect	-12.5076
▁korea	-12.5076
▁sensitiv	-12.5077
▁unsettl	-12.5077
▁damag	-12.5077
▁princ	-12.5079
▁societ	-12.508
▁demonstrat	-12.5083
▁melanchol	-12.5083
▁bas	-12.5084
▁physic	-12.5086
lance	-12.5086
▁centur	-12.5086
▁irritate	-12.5087
▁mona	-12.5088
▁hubb	-12.5088
undant	-12.5088
▁energiz	-12.5088
▁trap	-12.5091
▁fig	-12.5091
▁percepti	-12.5093
▁retro	-12.5094
lute	-12.5095
▁soooooooo	-12.5098
▁cogni	-12.5098
ilities	-12.5102
▁compromise	-12.5103
▁sentiment	-12.5105
nstitution	-12.5106
▁phil	-12.5106
dcast	-12.5107
▁bachelor	-12.5108
▁inflammat	-12.5108
▁oblivio	-12.5108
interpreted	-12.5108
tinguished	-12.5108
▁adjectives	-12.5108
▁administrator	-12.5108
▁antonio	-12.5108
▁appetite	-12.5108
▁baltimore	-12.5108
▁bizarre	-12.5108
▁bureaucra	-12.5108
▁captivated	-12.5108
▁cassandra	-12.5108
▁categorie	-12.5108
▁chemicals	-12.5108
▁chivalr	-12.5108
▁constipated	-12.5108
▁constructivism	-12.5108
▁coordinate	-12.5108
▁deteriorate	-12.5108
▁disapprove	-12.5108
▁dynamic	-12.5108
▁edmonton	-12.5108
▁eloquen	-12.5108
▁emptied	-12.5108
▁endorphin	-12.5108
▁entrenched	-12.5108
▁estrogen	-12.5108
▁extrovert	-12.5108
▁facilitat	-12.5108
▁fanfiction	-12.5108
▁feauture	-12.5108
▁flavour	-12.5108
▁gimmick	-12.5108
▁halloween	-12.5108
▁hallucinat	-12.5108
▁hawaii	-12.5108
▁inclination	-12.5108
▁isprivate	-12.5108
▁kardashi	-12.5108
▁liberated	-12.5108
▁maneuver	-12.5108
▁mascara	-12.5108
▁melbourne	-12.5108
▁miraculous	-12.5108
▁murmur	-12.5108
▁navigat	-12.5108
▁netherlands	-12.5108
▁nyquil	-12.5108
▁occassional	-12.5108
▁orchestra	-12.5108
▁outweigh	-12.5108
▁pajama	-12.5108
▁pavilion	-12.5108
▁pediatric	-12.5108
▁philadelphia	-12.5108
▁premonition	-12.5108
▁preposterous	-12.5108
▁procrastinat	-12.5108
▁protocol	-12.5108
▁punjabi	-12.5108
▁reciprocate	-12.5108
▁recollection	-12.5108
▁recruiter	-12.5108
▁retaliation	-12.5108
▁rivalry	-12.5108
▁rupees	-12.5108
▁screenwriter	-12.5108
▁sensibilities	-12.5108
▁sephora	-12.5108
▁shunned	-12.5108
▁subscriber	-12.5108
▁subsequently	-12.5108
▁sulfate	-12.5108
▁technorati	-12.5108
▁therapeutic	-12.5108
▁trepidatio	-12.5108
▁triangle	-12.5108
▁uncontrollabl	-12.5108
▁unfulfilled	-12.5108
▁unworthiness	-12.5108
▁vehicle	-12.5108
▁verdict	-12.5108
▁vietnam	-12.5108
▁vitamins	-12.5108
▁wainwright	-12.5108
▁credential	-12.5108
▁enforce	-12.5108
▁rearrange	-12.5108
bertram	-12.5108
brisbane	-12.5108
▁beijing	-12.5108
▁capacities	-12.5108
▁dissipate	-12.5108
▁ethnic	-12.5108
▁generosity	-12.5108
▁hijack	-12.5108
▁incessant	-12.5108
▁irresist	-12.5108
▁jessica	-12.5108
▁katrina	-12.5108
▁oxford	-12.5108
▁passersby	-12.5108
▁pistol	-12.5108
▁pitiful	-12.5108
▁poignant	-12.5108
▁predator	-12.5108
▁prevail	-12.5108
▁rigorous	-12.5108
▁segregate	-12.5108
▁stigma	-12.5108
▁suicidal	-12.5108
▁superstition	-12.5108
▁sustained	-12.5108
▁trumpeter	-12.5108
▁undesired	-12.5108
▁unloveable	-12.5108
dickinson	-12.5108
▁depleted	-12.5108
▁inaugura	-12.5108
▁inquisiti	-12.5108
▁japan	-12.5108
▁ritual	-12.5108
▁slaughter	-12.5108
▁ultra	-12.5108
▁uncommon	-12.5108
▁analogy	-12.5108
▁antisocial	-12.5108
▁arrogan	-12.5108
▁eviction	-12.5108
▁glycerin	-12.5108
▁nominees	-12.5108
▁photoshoot	-12.5108
▁censor	-12.5108
▁monarch	-12.5108
▁nonexisten	-12.5108
▁substitute	-12.5108
▁sustainability	-12.5108
▁swedish	-12.5108
centric	-12.5108
phobia	-12.5108
▁consolidat	-12.5108
▁dammit	-12.5108
▁hamster	-12.5108
▁inhaler	-12.5108
▁oliver	-12.5108
▁ominous	-12.5108
▁senator	-12.5108
sophist	-12.5108
▁psychopath	-12.5108
▁savior	-12.5108
▁hannah	-12.5108
▁peanut	-12.5108
▁elicit	-12.5108
▁midwife	-12.5108
▁permeate	-12.5108
▁caretaker	-12.5108
▁commodities	-12.5108
▁delusion	-12.5108
▁klein	-12.5108
▁menswear	-12.5108
▁paralysis	-12.5108
▁quixot	-12.5108
▁unavoidabl	-12.5108
▁utopia	-12.5108
▁domestic	-12.5108
▁zipl	-12.5108
discriminate	-12.5108
▁loathing	-12.5108
▁oriented	-12.5108
▁shortcomings	-12.5108
▁hyena	-12.5108
▁supplement	-12.5108
▁enchant	-12.5108
▁mishandl	-12.5108
▁outsourc	-12.5108
▁pokemon	-12.5108
▁screenshot	-12.5108
▁terrifying	-12.5108
▁futile	-12.5108
▁guardian	-12.5108
▁jubilation	-12.5108
▁plummet	-12.5108
▁consumption	-12.5108
▁malign	-12.5108
▁scrunch	-12.5108
▁swimsuit	-12.5108
▁vagina	-12.5108
▁diapers	-12.5108
▁dickens	-12.5108
▁marvellous	-12.5108
▁opposition	-12.5108
▁criticism	-12.5108
▁diarrh	-12.5108
▁harmonious	-12.5108
▁solicit	-12.5108
▁candidate	-12.5108
▁insatiabl	-12.5108
▁soldier	-12.5108
▁webpage	-12.5108
▁seizure	-12.5108
▁epiphan	-12.5108
▁sanct	-12.5108
▁shuffle	-12.5108
▁patroni	-12.5108
bourg	-12.5108
▁clerk	-12.5108
▁sweden	-12.5108
▁whitley	-12.5108
▁ahaha	-12.5108
▁prawn	-12.5108
▁biscuit	-12.5108
▁component	-12.5108
▁fanatic	-12.5108
▁leslie	-12.5108
▁spencer	-12.5108
▁climate	-12.5109
▁favour	-12.5109
▁pumpkin	-12.5109
▁decreas	-12.5109
▁hummus	-12.5109
▁sinister	-12.5109
▁tactic	-12.5109
▁subdue	-12.5109
▁consumerism	-12.5109
▁crotch	-12.5109
▁audio	-12.5109
▁intoxicati	-12.5109
▁britney	-12.5109
▁ballistic	-12.5109
▁cereal	-12.5109
▁luminar	-12.5109
▁rekindle	-12.5109
▁bunnies	-12.5109
▁victorious	-12.5109
▁columb	-12.5109
▁zhu	-12.5109
▁austen	-12.5109
▁skelet	-12.5109
▁innovati	-12.5109
▁approximate	-12.5109
▁mistress	-12.5109
▁falter	-12.5109
▁isaac	-12.5109
▁galax	-12.5109
▁mourn	-12.5109
▁portug	-12.5109
▁wizard	-12.5109
▁rachel	-12.5109
litary	-12.5109
▁krem	-12.5109
▁eternity	-12.5109
▁distrust	-12.5109
▁atheism	-12.5109
▁daunting	-12.5109
▁resembl	-12.5109
▁flatmate	-12.5109
▁swirl	-12.5109
▁attire	-12.5109
▁fragment	-12.5109
▁teeter	-12.5109
▁entrust	-12.5109
▁regulation	-12.5109
▁queries	-12.5109
▁unhappiness	-12.5109
▁consolation	-12.5109
▁sledding	-12.5109
▁nfl	-12.5109
▁burrow	-12.5109
▁grimac	-12.5109
▁irrelevant	-12.5109
▁embedd	-12.5109
▁eyelash	-12.5109
▁marilla	-12.5109
▁claire	-12.511
▁assembl	-12.511
▁illicit	-12.511
▁kilter	-12.511
▁underpaid	-12.511
▁personnel	-12.511
▁flounder	-12.511
▁detached	-12.511
▁savour	-12.511
▁recycl	-12.511
▁relocati	-12.511
estimate	-12.511
▁sulk	-12.511
▁morris	-12.511
▁moonlight	-12.511
▁stepchildren	-12.511
▁healthier	-12.511
▁biggie	-12.511
▁tedious	-12.511
▁orthodo	-12.511
▁softball	-12.511
▁adulthood	-12.511
penetra	-12.511
▁earnest	-12.511
▁suzann	-12.511
▁grandpa	-12.511
▁celebratory	-12.511
▁exploration	-12.511
▁revolve	-12.511
▁accessory	-12.511
▁pirate	-12.511
▁positivity	-12.511
▁irrespon	-12.511
▁feverish	-12.511
▁autistic	-12.511
▁johnny	-12.511
▁frightful	-12.511
▁blabber	-12.5111
▁situat	-12.5111
▁external	-12.5111
▁merciless	-12.5111
▁bookstore	-12.5111
▁sandals	-12.5111
cessor	-12.5111
▁handbag	-12.5111
▁revenue	-12.5111
▁pillar	-12.5111
▁elite	-12.5111
dolph	-12.5111
▁homosexuality	-12.5111
sciatic	-12.5111
▁unpaid	-12.5111
▁melodies	-12.5111
▁modify	-12.5111
lvani	-12.5111
mony	-12.5111
▁refocus	-12.5112
▁flutter	-12.5112
▁ohio	-12.5112
▁angie	-12.5112
▁homemaker	-12.5112
▁nationality	-12.5112
▁composed	-12.5112
▁bombard	-12.5112
▁haptic	-12.5112
▁alteration	-12.5112
▁vegetable	-12.5112
▁deform	-12.5112
▁hoax	-12.5112
▁frazzle	-12.5112
squeak	-12.5112
▁molest	-12.5112
▁frapp	-12.5112
▁organizers	-12.5112
▁juicy	-12.5112
▁xia	-12.5112
▁mudder	-12.5112
▁slough	-12.5112
▁compost	-12.5112
▁zack	-12.5112
▁conversion	-12.5112
gitate	-12.5113
▁museum	-12.5113
▁snippet	-12.5113
▁entertainers	-12.5113
▁taryn	-12.5113
▁dudes	-12.5113
▁treacher	-12.5113
▁angst	-12.5113
▁sitcom	-12.5113
▁barney	-12.5113
▁brotherhood	-12.5113
davis	-12.5114
▁actress	-12.5114
▁pronto	-12.5114
▁woodland	-12.5114
▁commuter	-12.5114
▁proposal	-12.5114
▁quiver	-12.5114
▁underwear	-12.5114
erlands	-12.5114
▁impotent	-12.5114
▁envision	-12.5114
▁chatter	-12.5114
▁desirable	-12.5115
▁clumsy	-12.5115
▁yummy	-12.5115
▁spook	-12.5115
▁bucket	-12.5115
▁obese	-12.5115
▁hamper	-12.5115
▁tulip	-12.5115
▁morsel	-12.5116
▁apron	-12.5116
▁harvest	-12.5116
▁liberty	-12.5116
▁error	-12.5116
▁nauseated	-12.5116
▁vegeta	-12.5116
▁congregation	-12.5116
▁advertisement	-12.5116
▁belittled	-12.5116
▁ditched	-12.5117
▁taller	-12.5117
▁unsatisfied	-12.5117
▁schoolgirl	-12.5117
▁xx	-12.5117
▁jail	-12.5117
▁denial	-12.5118
▁energies	-12.5118
▁jelly	-12.5118
▁strict	-12.5118
▁womanhood	-12.5118
▁heartburn	-12.5118
▁blatant	-12.5118
▁deliberation	-12.5118
▁blaze	-12.5118
▁addison	-12.5118
▁observer	-12.5118
▁marsh	-12.5118
ulge	-12.5119
▁graders	-12.5119
▁unwind	-12.5119
▁tmr	-12.5119
▁muddy	-12.5119
▁domain	-12.512
▁dirt	-12.512
▁punk	-12.512
▁powerlessness	-12.512
▁jimmy	-12.512
▁manda	-12.512
▁morgan	-12.512
▁clamour	-12.5121
▁misrepresent	-12.5121
▁disorientated	-12.5121
ambia	-12.5122
▁criticized	-12.5122
▁uninspired	-12.5122
audi	-12.5122
▁zic	-12.5122
▁obsessive	-12.5122
▁grievance	-12.5122
▁boredom	-12.5123
▁speechless	-12.5123
▁toenail	-12.5123
▁storyline	-12.5123
▁broaden	-12.5123
▁detect	-12.5123
quinn	-12.5123
▁basket	-12.5123
▁blunder	-12.5123
▁gerry	-12.5124
▁wonderland	-12.5124
▁shelves	-12.5124
▁overweight	-12.5125
weightloss	-12.5125
▁naught	-12.5125
▁cruise	-12.5126
▁christianity	-12.5126
▁contaminated	-12.5126
freud	-12.5126
▁arrangement	-12.5126
iliate	-12.5126
lewis	-12.5126
▁heinous	-12.5127
▁inquire	-12.5127
▁snatch	-12.5127
▁motorcycl	-12.5127
illian	-12.5127
▁snark	-12.5127
▁consultant	-12.5127
▁snapback	-12.5127
▁unbelievable	-12.5127
ccup	-12.5127
▁plusone	-12.5127
▁undone	-12.5127
lulu	-12.5128
vocab	-12.5128
▁prank	-12.5128
▁creme	-12.5129
▁civilian	-12.5129
▁pix	-12.5129
▁auster	-12.5129
▁misty	-12.5129
bj	-12.513
nepal	-12.513
▁dyke	-12.513
▁classwork	-12.513
▁infant	-12.513
▁knitter	-12.513
▁coward	-12.513
▁titani	-12.513
▁distort	-12.5131
▁karma	-12.5131
▁filter	-12.5131
▁freezer	-12.5131
pend	-12.5132
▁choc	-12.5132
amous	-12.5133
▁moisturising	-12.5133
▁abundan	-12.5133
▁joey	-12.5133
▁rooster	-12.5133
▁preaching	-12.5133
balls	-12.5134
▁demonstration	-12.5134
▁tacos	-12.5134
▁scrubb	-12.5134
▁sooooooooooo	-12.5134
▁vul	-12.5135
▁jig	-12.5135
▁shelf	-12.5136
▁yank	-12.5136
▁incorporated	-12.5136
minent	-12.5137
▁lawyer	-12.5137
▁tigger	-12.5138
▁spiraling	-12.5138
▁species	-12.5138
▁snoop	-12.5138
ettos	-12.5138
▁grappling	-12.5139
▁skater	-12.5139
▁commandment	-12.5139
▁ambition	-12.514
udent	-12.514
▁sufferers	-12.5141
▁pelvis	-12.5141
▁monke	-12.5141
▁monta	-12.5142
▁devotion	-12.5142
▁torso	-12.5142
▁copper	-12.5142
playdate	-12.5142
bf	-12.5142
▁theatre	-12.5143
▁perce	-12.5143
stract	-12.5143
lar	-12.5143
▁mechani	-12.5143
rafina	-12.5143
▁slopes	-12.5143
▁bagel	-12.5143
▁momma	-12.5144
▁scratches	-12.5144
▁suspicion	-12.5144
ronto	-12.5144
▁yknow	-12.5145
▁scandal	-12.5145
▁battery	-12.5145
▁devices	-12.5146
fit	-12.5146
▁outbursts	-12.5146
▁artificial	-12.5146
▁wrinkles	-12.5146
▁eyebrows	-12.5146
▁congratulations	-12.5146
▁snakes	-12.5146
▁lieb	-12.5146
▁manifestation	-12.5146
▁bushes	-12.5147
▁cuff	-12.5147
▁infer	-12.5148
▁drunken	-12.5148
▁bowel	-12.5148
▁enclose	-12.5149
▁counselling	-12.5149
▁underage	-12.5149
▁variation	-12.5149
unt	-12.5149
▁satisfy	-12.5149
▁pathological	-12.5149
▁zay	-12.515
▁frag	-12.515
▁sob	-12.515
▁endorse	-12.5151
▁nuance	-12.5151
▁gree	-12.5152
▁pearls	-12.5152
▁medal	-12.5152
▁historian	-12.5153
▁incomplete	-12.5153
▁dense	-12.5154
▁lingering	-12.5154
▁guaranteed	-12.5154
▁kristi	-12.5154
▁checklist	-12.5154
▁ashame	-12.5155
▁msg	-12.5155
▁dissolve	-12.5156
▁saddle	-12.5157
▁trailer	-12.5157
▁anonym	-12.5158
▁mani	-12.5158
▁origins	-12.5158
▁mytholog	-12.5158
▁luh	-12.5158
▁waft	-12.5159
▁pulp	-12.5159
aiko	-12.5159
▁illustration	-12.516
▁meditated	-12.516
lanche	-12.516
▁competitive	-12.5161
▁efficient	-12.5161
▁surf	-12.5162
▁pitcher	-12.5162
▁waist	-12.5162
▁rode	-12.5162
▁lens	-12.5163
▁printer	-12.5164
▁supervision	-12.5164
▁shoved	-12.5165
▁loopy	-12.5165
▁wilder	-12.5166
▁deserted	-12.5166
▁scarlet	-12.5166
bronz	-12.5167
▁penny	-12.5167
▁combin	-12.5167
▁blowout	-12.5168
▁incorrect	-12.5168
▁stroller	-12.5168
▁rampa	-12.5168
▁churn	-12.5168
▁ovation	-12.5168
▁overhear	-12.5169
▁barbe	-12.5171
▁deaf	-12.5171
▁nearness	-12.5172
▁involves	-12.5173
▁pimple	-12.5173
▁technical	-12.5175
rgie	-12.5175
ently	-12.5176
▁sensational	-12.5178
▁underway	-12.5178
ni	-12.5178
pity	-12.518
ricks	-12.5183
gang	-12.5183
▁cosmo	-12.5183
▁maps	-12.5183
▁lava	-12.5184
scape	-12.5185
▁grove	-12.5186
▁floss	-12.5187
▁yelp	-12.5189
▁glances	-12.5189
▁streak	-12.519
▁uneven	-12.519
▁poles	-12.5191
hance	-12.5191
▁relentlessly	-12.5192
▁persuasi	-12.5192
▁branch	-12.5193
▁revisit	-12.5193
▁aspi	-12.5194
stral	-12.5194
▁crows	-12.5194
ump	-12.5194
▁clash	-12.5195
▁psychologically	-12.5196
▁gratefulness	-12.5196
workaholic	-12.5196
▁cocky	-12.5197
▁jude	-12.5198
donald	-12.5198
▁performer	-12.5198
▁smother	-12.5199
▁bulls	-12.5201
cary	-12.5202
▁bonk	-12.5202
▁holler	-12.5202
▁peril	-12.5202
▁differs	-12.5203
▁bolt	-12.5204
▁noncha	-12.5205
▁objective	-12.5205
gious	-12.5205
▁wishful	-12.5206
▁tripped	-12.5206
ishment	-12.5207
▁chronic	-12.5208
▁porc	-12.5208
▁academi	-12.521
▁newspapers	-12.521
▁sooooo	-12.521
▁ranch	-12.5211
▁uplifting	-12.5211
▁adopted	-12.5211
▁dhar	-12.5212
▁incorporate	-12.5212
▁riot	-12.5212
▁doodles	-12.5212
▁spout	-12.5212
▁lightness	-12.5212
▁brook	-12.5213
▁photographers	-12.5216
▁retired	-12.5216
▁formal	-12.5218
▁collaps	-12.5219
sting	-12.522
▁threat	-12.522
▁victoria	-12.522
▁caption	-12.5221
vin	-12.5221
▁smash	-12.5221
▁islam	-12.5222
▁waaaa	-12.5222
▁scold	-12.5223
▁crisp	-12.5224
mar	-12.5225
▁hsp	-12.5229
wendy	-12.523
▁dodg	-12.523
▁behold	-12.523
▁trustworthy	-12.5231
▁coerc	-12.5231
▁selective	-12.5232
▁twat	-12.5233
▁bellm	-12.5235
▁embarrassing	-12.5236
▁fathom	-12.5238
▁coca	-12.5238
▁bee	-12.5239
▁grudg	-12.524
▁passage	-12.524
▁venue	-12.524
▁confuse	-12.5242
▁boast	-12.5242
stalker	-12.5242
aska	-12.5243
▁fertil	-12.5244
▁audre	-12.5244
▁marble	-12.5245
▁incredul	-12.5248
▁architectural	-12.5248
▁muffl	-12.5249
▁chilli	-12.5249
▁dusted	-12.525
▁afrad	-12.5251
▁lane	-12.5254
▁jong	-12.5256
▁endured	-12.5256
▁bleache	-12.5257
▁cava	-12.5257
▁compile	-12.5258
▁earlie	-12.526
tray	-12.5262
▁spoiler	-12.5265
▁stinks	-12.5265
▁palms	-12.5266
▁zap	-12.5268
▁timetable	-12.5269
pice	-12.527
▁tags	-12.5271
▁mcca	-12.5273
inary	-12.5274
▁requirement	-12.5276
▁cartoons	-12.5276
▁fluids	-12.5276
▁endur	-12.5276
▁lectures	-12.5277
▁possessions	-12.5277
▁exploit	-12.5278
▁butcher	-12.5279
ustin	-12.5279
▁musings	-12.5282
works	-12.5283
▁inflat	-12.5285
▁domin	-12.5286
▁sandy	-12.5287
▁appealing	-12.5288
▁noises	-12.5289
gues	-12.5291
▁dangle	-12.5291
▁conformi	-12.5294
uty	-12.5295
▁listeners	-12.5297
▁feminine	-12.5298
▁harmed	-12.53
▁wip	-12.53
▁bull	-12.5303
▁mags	-12.5305
▁gal	-12.5305
ighhh	-12.5307
▁mumb	-12.5308
▁homeland	-12.531
headed	-12.5311
▁intrusi	-12.5313
lobby	-12.5313
▁intens	-12.5314
▁chai	-12.5317
domen	-12.5318
azi	-12.5319
▁figs	-12.532
▁resented	-12.532
▁carni	-12.532
igns	-12.5321
▁cumber	-12.5323
▁thoughtful	-12.5327
fra	-12.5328
▁continent	-12.5328
▁nana	-12.5328
▁announc	-12.5331
▁robot	-12.5331
▁owl	-12.5331
▁woodsto	-12.5331
aken	-12.5331
▁fanc	-12.5332
▁entertaining	-12.5333
▁dominat	-12.5333
▁erupt	-12.5334
▁ebo	-12.5337
yoshi	-12.5337
▁memo	-12.5337
utely	-12.5338
▁styl	-12.5341
▁adopting	-12.5342
▁ambien	-12.5346
strom	-12.5349
▁reasonabl	-12.5354
▁limbs	-12.5355
▁tu	-12.5356
▁drivers	-12.5356
▁arrang	-12.5357
▁indicate	-12.5358
anny	-12.536
▁roug	-12.536
▁compound	-12.5361
▁straighten	-12.5362
▁goose	-12.5363
lit	-12.5368
▁medically	-12.5371
▁stuffing	-12.5373
issan	-12.5377
▁stamp	-12.538
▁resistan	-12.5382
tory	-12.5383
▁border	-12.5383
kami	-12.5384
lord	-12.5384
tigated	-12.5387
▁pester	-12.5387
▁drinkin	-12.5389
▁rants	-12.539
▁effortless	-12.5392
▁defer	-12.5392
starlight	-12.5394
bert	-12.5394
▁sweetness	-12.5395
▁dominant	-12.5403
▁hopper	-12.5404
mmie	-12.5405
rose	-12.5406
tionally	-12.5406
iator	-12.5407
▁pupp	-12.5408
▁scheduled	-12.541
ult	-12.5412
▁ep	-12.5413
▁achievements	-12.5413
▁rays	-12.5414
▁western	-12.5415
▁stunt	-12.5416
▁intru	-12.5416
▁visitors	-12.5417
▁nitch	-12.5417
▁conceiv	-12.5418
▁helen	-12.5418
▁grant	-12.5418
▁crab	-12.5419
▁pret	-12.5419
ip	-12.542
exa	-12.5425
▁usage	-12.5427
eep	-12.5429
▁stoner	-12.543
▁listener	-12.5431
▁mate	-12.5431
ounce	-12.5438
▁doub	-12.544
▁feist	-12.5443
▁accompan	-12.5446
raini	-12.5447
▁stub	-12.5451
▁offens	-12.5453
▁emm	-12.5456
▁passer	-12.5461
▁guard	-12.5465
greg	-12.5465
▁clubb	-12.5467
▁prospects	-12.5477
▁agonis	-12.5478
▁transi	-12.5482
▁rustl	-12.5486
▁thoughtless	-12.5489
▁cosm	-12.5495
▁hinder	-12.5495
▁rex	-12.5503
▁completing	-12.5505
▁hats	-12.5509
▁broodin	-12.5512
laine	-12.5516
▁deco	-12.5519
▁botan	-12.5519
▁pressur	-12.5522
▁moder	-12.5525
▁psycholog	-12.5526
▁elation	-12.553
▁pubs	-12.5533
▁geograph	-12.5535
▁occurs	-12.5535
▁atom	-12.5535
▁sciences	-12.5539
▁disasters	-12.5541
▁reverse	-12.5545
▁rhythms	-12.5545
▁affords	-12.5545
▁bathrooms	-12.5546
▁eid	-12.5548
▁needles	-12.5549
▁blankets	-12.5553
▁stretched	-12.5553
▁hideous	-12.5558
▁foil	-12.5559
hell	-12.5562
▁east	-12.5563
▁appease	-12.5563
▁sticky	-12.5566
umi	-12.5575
▁prim	-12.5577
▁committ	-12.558
▁starters	-12.5582
▁sarco	-12.5589
▁jess	-12.5589
▁asians	-12.5589
▁structures	-12.5596
▁luc	-12.5597
▁stud	-12.5599
▁kath	-12.56
▁naeg	-12.5608
▁summ	-12.5609
▁characteristic	-12.5612
▁temples	-12.5613
▁sane	-12.5614
sp	-12.5617
truck	-12.5617
shift	-12.5619
▁experimenting	-12.5622
▁lamb	-12.5622
▁weightless	-12.5623
▁zend	-12.5625
▁omeg	-12.5627
▁rebuild	-12.5627
▁tricks	-12.5631
prit	-12.5631
lfie	-12.5631
duality	-12.5632
word	-12.5638
same	-12.5642
▁analyse	-12.5646
▁costs	-12.5647
▁suppli	-12.5649
car	-12.5653
dicur	-12.5655
ducts	-12.5656
gar	-12.5657
▁intake	-12.5657
▁rye	-12.5658
▁vet	-12.566
▁complainy	-12.5661
▁rig	-12.5667
▁towel	-12.5674
▁empathi	-12.5678
▁hehe	-12.5683
▁referee	-12.5684
▁minis	-12.5684
▁appearances	-12.5685
cast	-12.5687
▁squee	-12.5692
▁wallow	-12.5693
cel	-12.5695
▁validat	-12.5697
lo	-12.57
▁condon	-12.5702
▁niggl	-12.5707
▁dearly	-12.5708
dental	-12.5711
▁bagg	-12.572
mplications	-12.5725
▁unacceptabl	-12.5735
lot	-12.5737
▁maker	-12.5739
ribbl	-12.574
▁burning	-12.5744
▁startling	-12.5744
▁religions	-12.5745
▁conditioning	-12.5746
▁sack	-12.5747
▁pleasures	-12.5748
ddit	-12.5749
▁internalize	-12.575
▁lifts	-12.5753
tention	-12.5754
olu	-12.5756
▁seren	-12.5762
angelic	-12.5764
▁tensions	-12.5766
▁gastr	-12.5767
▁bucks	-12.5772
▁cruci	-12.5777
▁talents	-12.578
▁mould	-12.5783
▁progressive	-12.5787
ays	-12.5789
▁vibrate	-12.5789
▁communit	-12.5799
cause	-12.5799
traction	-12.5803
▁foreigner	-12.5805
offs	-12.5807
▁liz	-12.5814
▁mountains	-12.5817
▁apps	-12.5818
▁jolt	-12.5819
▁owners	-12.582
▁fur	-12.5821
▁journaling	-12.5824
▁cush	-12.5829
▁schs	-12.583
omeo	-12.5831
zzar	-12.5833
▁trem	-12.5833
▁kame	-12.5839
▁emphasis	-12.5839
▁plu	-12.5841
ound	-12.5845
▁sighs	-12.5845
urgh	-12.5849
▁compa	-12.5849
ieve	-12.5854
▁colom	-12.5856
roth	-12.5857
▁prosper	-12.5859
eeds	-12.5866
▁fools	-12.587
sterous	-12.5872
▁cellul	-12.5872
scrib	-12.5883
▁ther	-12.5886
mur	-12.589
wee	-12.5892
bitter	-12.5906
▁wretch	-12.5909
pause	-12.5912
▁gall	-12.5913
▁oppress	-12.5915
▁disgr	-12.5924
join	-12.5925
▁maid	-12.5926
endous	-12.5927
▁dre	-12.5929
▁cracker	-12.5932
▁fame	-12.5939
eek	-12.5941
marry	-12.5952
▁comme	-12.5958
▁invi	-12.5963
▁commented	-12.5969
▁gats	-12.5973
ribb	-12.5975
▁eyeli	-12.5977
intelligent	-12.5986
▁equa	-12.5993
▁basics	-12.5993
▁analysi	-12.5998
▁metaphoric	-12.6
▁dependenc	-12.6002
attain	-12.6003
▁ox	-12.6004
▁bibl	-12.6006
▁spectac	-12.6011
▁appr	-12.6015
▁marriages	-12.6023
▁surrounding	-12.6024
▁schedules	-12.6025
▁nicol	-12.6033
▁cohen	-12.6033
▁mingle	-12.6044
umor	-12.6048
ashi	-12.6048
meal	-12.6053
af	-12.6059
onogram	-12.6065
rational	-12.6068
ends	-12.6071
whelmed	-12.6072
gow	-12.6072
ali	-12.6075
▁frailt	-12.6081
deem	-12.6083
▁bias	-12.6083
chief	-12.6086
▁absor	-12.6088
▁cypr	-12.6106
▁markets	-12.6108
▁blows	-12.6113
▁likes	-12.6113
▁enjo	-12.6114
▁raini	-12.6121
▁journals	-12.6122
▁champion	-12.6123
link	-12.6125
eak	-12.6126
▁hrs	-12.6126
▁bunk	-12.6131
ucked	-12.6133
▁yorks	-12.6139
eels	-12.6142
▁stan	-12.6148
▁motiv	-12.6155
ote	-12.6155
nted	-12.6168
▁bombs	-12.6177
▁lite	-12.6182
▁trudg	-12.6183
aw	-12.6199
▁ali	-12.62
roque	-12.6201
amper	-12.6203
iggle	-12.6205
▁lex	-12.6206
zofr	-12.6208
kit	-12.6209
ening	-12.6213
hair	-12.6217
▁participat	-12.6219
lair	-12.622
▁fam	-12.6224
ublin	-12.6227
ury	-12.6229
▁perspectives	-12.6231
▁nev	-12.6232
powers	-12.6236
rselves	-12.6237
▁skinn	-12.6239
▁chin	-12.6244
▁spew	-12.6247
ret	-12.6252
hip	-12.6257
rou	-12.6258
▁endings	-12.6265
▁fai	-12.6266
cribe	-12.6267
▁activis	-12.6268
▁smiley	-12.6269
▁tyre	-12.6275
lead	-12.6276
ailed	-12.6281
▁panick	-12.6283
▁grain	-12.6288
when	-12.6292
deral	-12.6293
clusive	-12.6293
culp	-12.6295
▁failures	-12.6298
sala	-12.6298
lon	-12.6305
living	-12.6308
▁tel	-12.6308
▁blurt	-12.6317
ath	-12.6324
▁synth	-12.633
▁qu	-12.6333
nter	-12.6336
▁sku	-12.6336
riety	-12.6337
violation	-12.6351
▁espress	-12.6351
▁termin	-12.6352
western	-12.6355
ngrate	-12.6356
▁testing	-12.6356
now	-12.6357
▁photographic	-12.6363
▁olds	-12.6365
▁weren	-12.6366
▁hatch	-12.637
▁persisten	-12.637
▁keenly	-12.6373
pelt	-12.6373
template	-12.6379
ngle	-12.6389
▁stressor	-12.639
▁les	-12.6394
▁enjoys	-12.6404
▁pri	-12.6404
kah	-12.6411
ky	-12.6414
raham	-12.6414
stan	-12.6426
▁apologi	-12.6427
ican	-12.6435
▁bothers	-12.6438
▁misle	-12.6454
▁perpetuat	-12.6458
lustr	-12.6458
▁sen	-12.6458
ork	-12.6461
assurance	-12.6461
▁amusing	-12.6465
▁orci	-12.6468
lway	-12.6479
▁cart	-12.649
uous	-12.65
spire	-12.6506
▁eater	-12.6507
secu	-12.6518
▁intim	-12.6528
eurgh	-12.6528
leted	-12.6535
▁manic	-12.6541
▁fetch	-12.6543
▁touchy	-12.6543
ink	-12.6554
eral	-12.6557
aallyy	-12.6582
▁mondays	-12.6584
sses	-12.6587
▁subside	-12.6589
▁chalk	-12.6597
▁trib	-12.6597
▁purel	-12.6598
▁rus	-12.6609
sexuality	-12.661
arten	-12.6613
▁surre	-12.6626
allet	-12.663
▁writt	-12.6634
icated	-12.6641
▁fre	-12.6643
ti	-12.665
logically	-12.666
dioc	-12.6668
ht	-12.6671
▁erm	-12.6678
kaj	-12.6679
som	-12.668
▁snooze	-12.6693
▁pant	-12.6699
▁turk	-12.6699
▁rave	-12.67
▁alley	-12.6705
▁annul	-12.6708
▁alexa	-12.6708
rge	-12.6723
lies	-12.6727
▁berry	-12.6731
▁cind	-12.6737
▁fridays	-12.6737
▁fic	-12.674
▁stance	-12.6743
urse	-12.6748
▁refr	-12.6752
▁arse	-12.6753
▁soda	-12.6766
ttle	-12.6771
ail	-12.6781
zel	-12.6783
▁mouths	-12.6783
sc	-12.6799
ological	-12.6803
ncible	-12.6805
▁banishe	-12.6809
tor	-12.6809
▁jen	-12.6816
▁ethi	-12.6824
▁phenomena	-12.6832
▁mil	-12.6836
equality	-12.6839
▁prey	-12.684
▁fut	-12.6843
▁bears	-12.6845
▁holl	-12.6847
yre	-12.6853
educe	-12.6855
▁rita	-12.6877
▁frown	-12.6879
erence	-12.6883
fo	-12.6895
allen	-12.6899
eased	-12.6909
▁seg	-12.6914
▁colo	-12.6917
forget	-12.6919
erva	-12.6922
▁invent	-12.6923
▁intermi	-12.6931
▁fare	-12.6932
▁overreact	-12.6932
▁singer	-12.6937
▁fru	-12.6939
earned	-12.6941
jah	-12.6944
slacker	-12.6944
▁producer	-12.6947
▁julian	-12.6951
blo	-12.6952
ups	-12.6952
▁lego	-12.696
av	-12.6966
▁earle	-12.6969
▁swi	-12.6969
ightened	-12.6976
▁imbi	-12.6979
gi	-12.6979
nes	-12.698
ind	-12.6981
lubber	-12.6983
▁hyd	-12.6998
▁vein	-12.7003
nating	-12.7026
stance	-12.7034
▁intr	-12.7038
▁developer	-12.7044
▁minu	-12.705
▁hal	-12.7051
▁acce	-12.7065
▁dep	-12.7071
therin	-12.7081
hol	-12.709
▁atm	-12.709
rade	-12.71
▁capt	-12.7128
▁hous	-12.713
wl	-12.7131
issa	-12.7157
▁forming	-12.7157
▁iris	-12.7176
▁expe	-12.7181
▁antiqu	-12.7184
▁sim	-12.7188
▁comedi	-12.7193
▁jak	-12.7202
▁unf	-12.7204
whore	-12.7216
lds	-12.7238
pine	-12.724
▁coco	-12.7244
▁hun	-12.7263
▁bud	-12.7268
▁fren	-12.7271
▁capabilit	-12.7273
▁sinful	-12.7275
tribution	-12.7276
▁undu	-12.7276
endant	-12.7277
▁trad	-12.7279
▁pidd	-12.7284
▁hurri	-12.73
tr	-12.7302
▁aff	-12.7302
bbing	-12.7304
▁sheri	-12.7304
▁glare	-12.7313
ckles	-12.7322
▁detr	-12.7341
▁computers	-12.7349
▁wat	-12.736
nat	-12.7362
▁flirti	-12.7363
espond	-12.7364
▁hom	-12.7366
▁brun	-12.737
▁spy	-12.7379
rious	-12.738
install	-12.7386
longer	-12.7393
die	-12.7393
zo	-12.7397
camper	-12.7408
▁restor	-12.7422
fan	-12.7428
uc	-12.7429
itude	-12.7434
▁tether	-12.7443
▁sect	-12.7446
▁pacifi	-12.745
▁babysitt	-12.7465
amic	-12.747
evolve	-12.7483
signed	-12.7484
vill	-12.7484
lu	-12.7491
▁turb	-12.7492
salvag	-12.7493
▁susan	-12.7499
hawks	-12.7502
▁ingrain	-12.7506
fff	-12.7507
lie	-12.7519
ussi	-12.7524
rown	-12.7528
cision	-12.7536
▁prohibit	-12.7543
cas	-12.7548
ifer	-12.7559
icked	-12.7565
azy	-12.7577
▁urin	-12.7578
▁ignit	-12.758
sha	-12.7582
mis	-12.7585
▁blogg	-12.7591
saw	-12.7593
▁swan	-12.76
can	-12.7605
▁pisse	-12.7617
outs	-12.762
security	-12.7627
ift	-12.7639
▁sail	-12.765
tney	-12.7656
▁diagnos	-12.766
takes	-12.7669
▁taunt	-12.7681
▁rum	-12.7695
▁incest	-12.7697
kang	-12.7706
▁highe	-12.7707
▁swa	-12.7714
skell	-12.7729
oi	-12.7742
▁pan	-12.7751
▁bass	-12.7755
▁snar	-12.7762
▁fudg	-12.7763
▁sharpe	-12.7768
▁damp	-12.7775
▁agon	-12.7776
▁dale	-12.7789
▁tro	-12.7789
▁dent	-12.7797
▁journalis	-12.7814
▁cau	-12.7816
eapple	-12.7817
ega	-12.7825
lts	-12.783
ulent	-12.7834
▁studi	-12.7834
▁arch	-12.7835
utter	-12.7849
▁increas	-12.7851
▁unsurprising	-12.786
leb	-12.7872
uv	-12.7892
▁gat	-12.7905
wo	-12.7906
nn	-12.7911
pain	-12.7936
oshi	-12.7945
corn	-12.796
tone	-12.796
▁imper	-12.7973
▁unco	-12.7982
nge	-12.7988
spected	-12.8001
rman	-12.8006
▁wel	-12.8007
▁veg	-12.8008
arm	-12.8042
ars	-12.8054
▁mistreat	-12.8061
ats	-12.8067
had	-12.808
▁eg	-12.8083
▁advertise	-12.8085
really	-12.8091
bian	-12.8098
▁patri	-12.8103
▁execute	-12.8111
▁alum	-12.812
▁thai	-12.8121
akota	-12.813
▁perus	-12.8135
sur	-12.8143
aut	-12.8152
▁fir	-12.8158
▁ampl	-12.8166
itz	-12.8167
▁impli	-12.8168
hm	-12.8182
▁repe	-12.8186
titudes	-12.8187
ience	-12.8207
eve	-12.8209
▁dissa	-12.821
scraps	-12.8212
▁sanit	-12.8213
doing	-12.8224
dnt	-12.8227
▁rut	-12.8231
sel	-12.8237
▁partial	-12.8251
▁rear	-12.8252
lighted	-12.8253
▁disa	-12.8253
unit	-12.8256
bble	-12.8257
owned	-12.8289
▁adhere	-12.8304
xed	-12.8306
ranted	-12.8306
▁dro	-12.831
imming	-12.8311
▁dais	-12.8312
disput	-12.8315
▁gill	-12.8318
▁lib	-12.8326
emes	-12.8328
sley	-12.8329
▁ster	-12.8331
▁airb	-12.8333
▁conservat	-12.8336
ref	-12.8351
ws	-12.8352
▁vale	-12.8359
oz	-12.8369
▁opera	-12.8371
ightness	-12.8374
▁plum	-12.8375
custome	-12.8385
▁fil	-12.8393
▁scor	-12.8393
othing	-12.8394
▁predica	-12.8395
▁conn	-12.8402
omp	-12.8413
pent	-12.8415
nno	-12.8446
ses	-12.8455
ista	-12.8461
etly	-12.8462
▁graduati	-12.8468
met	-12.8482
▁serv	-12.8485
▁feat	-12.8488
yomi	-12.8494
strop	-12.85
rey	-12.8528
▁accumulat	-12.856
▁batt	-12.8561
▁materialist	-12.8565
▁claus	-12.8573
▁reconcil	-12.8575
app	-12.8577
aked	-12.8607
▁expects	-12.8607
▁bac	-12.8623
▁pierc	-12.8627
▁dazzl	-12.8628
▁maximi	-12.8631
doll	-12.8637
▁rosa	-12.8641
▁exp	-12.8643
ste	-12.8645
og	-12.8655
▁exc	-12.8663
gal	-12.8668
sis	-12.867
▁biolog	-12.8671
▁ached	-12.8681
▁exert	-12.8684
▁chart	-12.8685
▁tast	-12.8687
▁observ	-12.8687
▁spo	-12.8701
▁reds	-12.8704
▁reache	-12.8713
arry	-12.8717
ala	-12.8717
voted	-12.872
▁shi	-12.872
▁envelop	-12.8723
▁aim	-12.8732
rut	-12.8738
ikki	-12.874
▁articulat	-12.8744
▁hurl	-12.8749
aaaaaa	-12.8751
ering	-12.8754
▁easi	-12.8756
▁cons	-12.876
▁dat	-12.8772
▁des	-12.8781
▁hon	-12.8785
▁prog	-12.8793
logs	-12.8807
njo	-12.8812
▁nutritional	-12.8815
ilt	-12.8827
▁soc	-12.8837
lette	-12.8839
▁stretche	-12.8862
▁chast	-12.8886
▁slee	-12.8886
reaking	-12.8886
▁sparr	-12.8892
▁hock	-12.8915
lasses	-12.8927
▁manu	-12.8943
dition	-12.8952
rah	-12.8975
then	-12.8997
▁exi	-12.9022
▁af	-12.9025
▁enabl	-12.9032
▁mous	-12.9042
dent	-12.9058
▁posto	-12.9059
ama	-12.9065
▁dian	-12.9078
▁forwards	-12.9081
io	-12.9087
▁backs	-12.9104
▁thankfully	-12.9116
▁norma	-12.9116
nity	-12.9119
▁animate	-12.9128
▁hairsty	-12.9133
▁electr	-12.9137
lan	-12.9143
ban	-12.9145
ash	-12.9154
ands	-12.9155
lim	-12.9174
▁comple	-12.9174
▁pres	-12.9174
▁papa	-12.9174
stin	-12.9175
nu	-12.918
▁acknowledg	-12.9187
oster	-12.9193
oooo	-12.9211
unch	-12.9219
▁jogg	-12.9226
aaaand	-12.9233
fin	-12.9244
quotes	-12.925
wave	-12.9251
gestion	-12.9255
lessly	-12.9277
ariah	-12.9304
bows	-12.9307
▁sai	-12.9308
▁guessed	-12.9318
▁dazzle	-12.9326
▁pierce	-12.9327
▁horr	-12.9327
ooooo	-12.9331
otta	-12.9335
yang	-12.9339
▁pun	-12.9344
sage	-12.937
jected	-12.9371
▁err	-12.9382
▁reconcile	-12.9382
pposed	-12.939
▁qual	-12.9396
▁accumulate	-12.9399
ison	-12.942
▁petr	-12.9433
rtu	-12.9439
ens	-12.9441
▁jun	-12.9454
pr	-12.946
atu	-12.9461
▁bef	-12.9465
ade	-12.948
bus	-12.9482
pp	-12.9483
▁gent	-12.9489
arrassment	-12.949
izzy	-12.9491
▁tease	-12.9495
▁behavi	-12.951
think	-12.9512
▁reassur	-12.9529
▁kha	-12.9533
▁idio	-12.9538
▁observe	-12.9541
▁dewi	-12.9545
▁dra	-12.9547
mpress	-12.9559
▁lace	-12.9567
▁propos	-12.957
▁sach	-12.9573
▁identi	-12.9585
will	-12.9602
▁mur	-12.9623
▁easie	-12.965
ired	-12.9652
nding	-12.9665
rue	-12.9667
loy	-12.9668
lop	-12.9686
▁liver	-12.9694
bie	-12.9694
ality	-12.9701
▁beam	-12.9701
lum	-12.9707
from	-12.9722
▁vo	-12.9734
▁concentrat	-12.9739
▁ob	-12.9745
▁liv	-12.9751
vation	-12.9773
asted	-12.9785
nob	-12.9791
▁ger	-12.98
tolerabl	-12.9808
▁firefl	-12.981
▁las	-12.9822
pri	-12.983
▁av	-12.9839
iny	-12.9843
▁moo	-12.9846
▁squi	-12.9865
▁ref	-12.9871
▁som	-12.9874
▁ko	-12.988
hin	-12.9892
apple	-12.9892
never	-12.9897
herence	-12.99
rdan	-12.9904
▁smi	-12.9904
ached	-12.9907
▁countr	-12.9908
▁baile	-12.9911
▁cran	-12.9916
▁rand	-12.9936
stable	-12.9937
kota	-12.9939
▁modifi	-12.994
bris	-12.9944
▁sought	-12.995
ational	-12.9954
arin	-12.9956
▁decepti	-12.9958
▁flogge	-12.9962
ran	-12.9962
▁collecti	-12.9974
want	-12.9978
got	-13.0015
lah	-13.0028
▁kitt	-13.0029
ucking	-13.0052
vely	-13.0072
tale	-13.0075
did	-13.0082
rned	-13.0091
▁veer	-13.0105
▁presu	-13.0119
▁newb	-13.0125
print	-13.0127
umb	-13.0127
▁pra	-13.0146
▁trul	-13.0177
▁pou	-13.0179
hens	-13.0179
▁seiz	-13.0184
▁examin	-13.0186
eeze	-13.0231
them	-13.025
▁bruis	-13.0263
▁shou	-13.0287
▁hearted	-13.0292
feeding	-13.0296
clips	-13.0296
▁notify	-13.0302
▁ins	-13.0343
▁clich	-13.035
ify	-13.0352
noticeable	-13.0356
make	-13.0357
▁fore	-13.0381
helm	-13.0391
▁featur	-13.0402
▁sift	-13.0405
▁maxim	-13.0412
▁rebe	-13.0414
hats	-13.0442
▁resid	-13.0454
▁gui	-13.0457
▁diagnose	-13.0468
▁bibli	-13.048
▁lav	-13.0482
maid	-13.0485
gn	-13.0487
▁mutter	-13.0488
▁chap	-13.0494
mai	-13.0495
don	-13.05
▁humiliat	-13.0524
ears	-13.0524
▁quak	-13.0526
pulsion	-13.0527
▁hypocri	-13.0538
something	-13.0542
glass	-13.0543
▁mound	-13.057
ces	-13.0592
tw	-13.0618
ckey	-13.0622
gain	-13.0623
cate	-13.0629
ones	-13.0643
loving	-13.065
mple	-13.0671
▁muj	-13.0674
▁fle	-13.0677
▁pearl	-13.0692
kar	-13.0697
acking	-13.0697
▁evolv	-13.0704
▁ignite	-13.0704
▁squeez	-13.071
melon	-13.0714
nable	-13.0722
mn	-13.0739
▁boi	-13.075
▁escap	-13.0751
umps	-13.0758
tc	-13.0758
▁attracti	-13.0778
▁vice	-13.078
▁eu	-13.0789
▁defian	-13.0791
boo	-13.081
eal	-13.0814
easy	-13.0832
▁disg	-13.0834
wak	-13.0839
▁uglie	-13.0842
low	-13.0854
▁utili	-13.0859
▁buck	-13.0867
▁lai	-13.0897
▁dru	-13.0898
▁heighten	-13.0915
traged	-13.0919
aching	-13.0931
ounded	-13.0934
ryeo	-13.0952
berate	-13.0958
air	-13.0964
ads	-13.0977
ita	-13.099
▁leas	-13.1016
much	-13.102
▁wink	-13.1035
lifting	-13.1049
▁evok	-13.1069
▁unwa	-13.1092
▁bench	-13.1095
ike	-13.1108
sberg	-13.1117
▁pose	-13.1118
ona	-13.1125
▁lotte	-13.113
xi	-13.1137
ignment	-13.1146
hole	-13.1148
shot	-13.1149
most	-13.1152
udge	-13.1164
lined	-13.1167
▁viv	-13.1188
there	-13.1197
▁und	-13.1204
iated	-13.1219
▁harass	-13.1219
due	-13.124
▁pur	-13.1241
lier	-13.1241
ara	-13.1242
tf	-13.125
xu	-13.1253
wins	-13.1264
eon	-13.1267
pture	-13.1269
▁ebook	-13.1278
▁impo	-13.128
ari	-13.1286
nks	-13.1315
olute	-13.1316
▁hob	-13.1318
▁emb	-13.1344
▁corporat	-13.1352
ugs	-13.1354
vor	-13.1382
acle	-13.1391
▁grumbl	-13.1414
▁whiz	-13.1416
▁negate	-13.1428
gage	-13.1429
ust	-13.1451
▁intuiti	-13.1481
witches	-13.149
▁tx	-13.1491
dryer	-13.1493
▁techno	-13.1494
▁tones	-13.1507
pretty	-13.1507
rrow	-13.1512
still	-13.153
▁cohe	-13.154
raining	-13.1542
▁andrea	-13.1546
bre	-13.1554
ggage	-13.156
ph	-13.1566
▁wing	-13.1583
rk	-13.1606
▁executi	-13.1615
▁gla	-13.1621
▁lagg	-13.1626
stil	-13.1627
ec	-13.1628
burg	-13.1643
▁crowe	-13.1643
chy	-13.1648
▁elevate	-13.1652
esley	-13.1654
media	-13.1654
▁phenomen	-13.1657
arist	-13.1661
▁diss	-13.1667
inks	-13.1672
▁donation	-13.1677
▁erra	-13.1686
lew	-13.1686
▁dann	-13.1687
cure	-13.1687
▁wr	-13.1689
she	-13.1701
strings	-13.1707
stage	-13.1714
har	-13.1737
rena	-13.1743
▁cata	-13.1758
tage	-13.1776
bia	-13.1796
▁boxe	-13.1797
▁overs	-13.1801
▁ou	-13.1804
▁ze	-13.1821
▁winters	-13.1845
▁psyche	-13.1851
▁snooz	-13.1892
lp	-13.1909
ional	-13.1918
▁devo	-13.1921
asting	-13.1932
▁harrass	-13.1936
solate	-13.1955
ither	-13.1973
▁effe	-13.1973
hemi	-13.1977
iber	-13.1981
ics	-13.1987
arried	-13.1988
▁jet	-13.1995
▁sm	-13.2003
log	-13.201
▁xel	-13.2014
rvo	-13.2023
▁socialise	-13.2028
ear	-13.203
▁unreal	-13.204
▁muster	-13.2045
▁exhilarat	-13.2048
piro	-13.205
▁reminde	-13.2051
ov	-13.2058
ense	-13.2059
hroom	-13.206
▁glance	-13.2063
▁weari	-13.2067
▁syn	-13.2074
dang	-13.2078
▁refl	-13.2091
▁laun	-13.2103
▁pole	-13.2103
▁amaz	-13.2117
▁emba	-13.212
▁perpet	-13.2125
erated	-13.2127
listic	-13.2132
nda	-13.2143
▁exemp	-13.2148
▁tak	-13.2185
▁serioul	-13.2187
llment	-13.2218
▁attic	-13.2222
▁comed	-13.2243
wh	-13.2244
▁grandm	-13.2247
gent	-13.2254
assi	-13.2263
▁mart	-13.2268
▁canal	-13.2271
▁reduc	-13.2274
mans	-13.2281
▁apolog	-13.2282
▁gul	-13.2298
quit	-13.23
each	-13.231
rant	-13.2318
▁clu	-13.2325
ase	-13.2376
won	-13.2382
▁generaliz	-13.2383
wi	-13.2389
▁rank	-13.2391
▁inf	-13.2393
▁unintellig	-13.2399
ocked	-13.24
act	-13.2401
ighter	-13.2414
▁gri	-13.2416
verage	-13.2417
turb	-13.2419
▁nik	-13.2424
▁slic	-13.2425
rolling	-13.2429
▁persist	-13.243
ress	-13.244
izz	-13.2441
ddies	-13.2444
ealistic	-13.2452
aged	-13.2459
▁brow	-13.246
sopha	-13.2461
ffects	-13.2468
hocke	-13.2469
▁sco	-13.2469
▁bobbin	-13.2471
▁pear	-13.2481
▁ser	-13.2483
pire	-13.2505
mbi	-13.2525
gets	-13.2529
▁viol	-13.2533
pea	-13.2536
ame	-13.2536
▁multit	-13.254
eddie	-13.2567
▁tende	-13.2568
▁modes	-13.2582
ulsion	-13.2587
vant	-13.2602
▁repli	-13.2617
▁sou	-13.2623
▁quant	-13.2629
geo	-13.2631
▁babe	-13.2631
ree	-13.2632
▁lightn	-13.2646
▁stuffs	-13.2648
▁insta	-13.2654
▁lunche	-13.2658
ado	-13.2658
idi	-13.2686
lust	-13.269
action	-13.2703
▁submitt	-13.2704
erg	-13.2708
▁toss	-13.2708
▁chub	-13.2711
▁prima	-13.2723
bin	-13.2723
ionary	-13.2724
▁wai	-13.2731
ature	-13.2734
▁canoe	-13.2734
talk	-13.2737
▁wif	-13.2739
nishes	-13.275
tart	-13.2765
▁mumbl	-13.2766
▁caffein	-13.2769
▁ty	-13.2777
br	-13.2785
▁noon	-13.2794
▁structur	-13.2796
urning	-13.2812
▁puls	-13.2818
▁crow	-13.2826
▁purchas	-13.2828
▁organize	-13.2836
umbling	-13.2838
▁happ	-13.2839
cut	-13.2839
zes	-13.2853
▁sig	-13.2865
▁writ	-13.2875
▁mig	-13.2886
▁rightful	-13.2887
nym	-13.2888
aved	-13.2894
everything	-13.2901
▁ow	-13.2902
pha	-13.2906
missions	-13.291
▁unnotice	-13.292
void	-13.293
before	-13.2955
▁enj	-13.2957
▁agoni	-13.2962
ray	-13.2971
▁pt	-13.2972
▁frail	-13.2973
wen	-13.2978
▁sprin	-13.2987
▁equ	-13.3004
iving	-13.3029
leaning	-13.3032
▁tower	-13.3045
ibly	-13.3045
keep	-13.3056
rribly	-13.3067
▁repuls	-13.307
tin	-13.308
▁muc	-13.308
▁analys	-13.3082
uddle	-13.3085
bar	-13.3089
hari	-13.309
▁trai	-13.3101
▁tom	-13.3102
▁freakin	-13.3116
mu	-13.3121
uss	-13.3127
brake	-13.3132
▁syno	-13.3142
uns	-13.3145
custom	-13.3147
ani	-13.315
tinies	-13.3168
scents	-13.3172
why	-13.3178
tt	-13.3184
cular	-13.3202
wait	-13.3206
▁exchang	-13.3208
▁discourag	-13.3212
▁explo	-13.3243
real	-13.3245
▁reali	-13.3268
inability	-13.3274
▁cooper	-13.3282
loc	-13.3291
▁mens	-13.33
estic	-13.3308
umm	-13.3309
ulate	-13.3313
lating	-13.3324
ox	-13.3327
lip	-13.333
▁fiddl	-13.3331
arte	-13.3341
▁chewi	-13.3343
▁numbing	-13.335
few	-13.3355
year	-13.3356
commons	-13.336
thr	-13.3373
pace	-13.3375
▁cyclin	-13.3381
arming	-13.3384
ders	-13.3384
▁empath	-13.3389
urely	-13.3398
shroom	-13.3415
▁unc	-13.3417
rest	-13.3428
▁ret	-13.3438
givings	-13.3448
▁decorati	-13.3448
▁spr	-13.3451
eter	-13.3464
lling	-13.3468
▁rin	-13.3494
rail	-13.3494
ango	-13.3501
▁tickl	-13.3501
thical	-13.3503
sure	-13.3516
eedy	-13.3522
eing	-13.3527
solutions	-13.3532
cold	-13.3536
ols	-13.3551
acious	-13.3554
bad	-13.357
iversity	-13.3572
▁chatt	-13.3581
az	-13.3587
▁valentin	-13.359
rick	-13.3591
▁stella	-13.3594
pot	-13.3595
▁grayi	-13.3598
watch	-13.3606
hou	-13.3625
▁clari	-13.3632
tagoni	-13.3641
▁earl	-13.3642
taken	-13.3643
▁payp	-13.3665
▁impose	-13.3668
▁theme	-13.3672
rgy	-13.3677
pop	-13.369
active	-13.3704
hurt	-13.3707
▁complicat	-13.3708
▁elas	-13.3711
angry	-13.3713
strange	-13.3724
believe	-13.3727
gul	-13.3732
last	-13.3732
▁chu	-13.374
cket	-13.3748
▁ineffect	-13.3753
▁remark	-13.3761
mina	-13.3763
mel	-13.3763
tttt	-13.3771
rama	-13.3778
girl	-13.3781
kav	-13.3784
▁zo	-13.3784
alo	-13.3786
writing	-13.3797
▁zon	-13.3797
walk	-13.3798
abl	-13.3802
▁cheerfull	-13.3808
thus	-13.3813
▁termina	-13.3814
mble	-13.3825
rounded	-13.3827
▁sunn	-13.3828
▁haule	-13.3834
assag	-13.3835
▁wald	-13.3846
found	-13.3857
afraid	-13.3864
mine	-13.3873
mination	-13.3875
rades	-13.3881
▁overl	-13.3893
▁presc	-13.3899
pal	-13.3899
▁arc	-13.3903
logical	-13.3906
▁diar	-13.3913
views	-13.3919
sch	-13.3922
▁chor	-13.3934
dial	-13.3943
ipped	-13.3948
▁doubl	-13.3948
cept	-13.3972
ease	-13.3977
fr	-13.3984
▁materialis	-13.3984
▁stinkin	-13.3985
covering	-13.3985
▁caresse	-13.399
job	-13.4
class	-13.4004
doubted	-13.4006
▁activ	-13.4009
vey	-13.4014
▁uns	-13.4015
dder	-13.4016
ply	-13.4027
▁remo	-13.4027
▁smel	-13.4032
inside	-13.4033
thinks	-13.4053
ncou	-13.4054
gently	-13.4057
iding	-13.4058
troph	-13.4062
live	-13.4062
pital	-13.4067
oped	-13.4069
▁tal	-13.4071
si	-13.4079
hold	-13.4084
solved	-13.4085
mas	-13.4086
▁voc	-13.4096
▁ey	-13.4102
may	-13.411
experience	-13.4111
ips	-13.4115
▁unrel	-13.4121
unity	-13.4125
abilities	-13.4136
▁fav	-13.4139
sense	-13.4145
ansi	-13.4149
aj	-13.4154
▁itd	-13.4155
anymore	-13.4157
equences	-13.4178
▁clog	-13.4184
nked	-13.4184
tton	-13.4185
llic	-13.4189
rea	-13.4193
▁duct	-13.4195
▁plo	-13.4196
past	-13.4205
talented	-13.4213
▁carte	-13.4217
born	-13.4218
popular	-13.422
ennis	-13.4221
▁kil	-13.4221
card	-13.4225
irritated	-13.4228
vast	-13.4231
▁jare	-13.4231
▁advert	-13.4232
▁regu	-13.424
▁grandchild	-13.424
hahahaha	-13.4241
▁smoo	-13.4244
mary	-13.4256
urge	-13.427
ection	-13.4273
▁strang	-13.428
different	-13.428
arity	-13.4287
order	-13.4298
▁browse	-13.4299
▁animat	-13.43
weight	-13.4301
against	-13.4303
convinced	-13.4309
▁intro	-13.4313
trip	-13.4318
faithful	-13.4326
far	-13.4327
▁vibrat	-13.4328
wers	-13.4329
atic	-13.4329
nspired	-13.4329
game	-13.433
working	-13.4335
explain	-13.4339
▁vani	-13.4339
valued	-13.4339
mpagn	-13.434
erate	-13.4361
iri	-13.4363
rified	-13.4364
asks	-13.437
▁articula	-13.4374
guy	-13.4377
ched	-13.4378
ails	-13.4381
▁treb	-13.4389
▁tran	-13.4393
▁wrestle	-13.4393
summer	-13.4398
power	-13.4399
▁indicat	-13.4402
yth	-13.4411
▁advoca	-13.4415
stated	-13.4419
amorous	-13.4419
vocation	-13.442
mmer	-13.442
come	-13.4422
▁elect	-13.4427
opey	-13.4428
respected	-13.443
lay	-13.4435
nds	-13.4438
big	-13.4441
desire	-13.4443
actions	-13.4446
mini	-13.4451
answer	-13.4458
dylan	-13.446
tender	-13.4471
iss	-13.4472
ndering	-13.4475
▁aj	-13.4479
health	-13.4485
forward	-13.4485
sensitive	-13.4487
church	-13.4503
▁hagg	-13.4503
▁messag	-13.4504
scribe	-13.4505
late	-13.451
mount	-13.4511
▁racin	-13.4513
▁roy	-13.4516
nne	-13.4517
reassured	-13.4517
▁ripp	-13.4518
▁bikin	-13.4518
▁comings	-13.4519
icker	-13.4526
fun	-13.4534
▁fulfil	-13.4536
ape	-13.4542
appreciative	-13.4544
dream	-13.4544
group	-13.4559
mean	-13.4565
sexual	-13.4574
boyfriend	-13.4579
▁ventur	-13.4579
girls	-13.458
changing	-13.4582
rupt	-13.4582
lls	-13.4585
▁billi	-13.4586
cing	-13.4592
bloom	-13.4592
mens	-13.4594
correct	-13.4595
comb	-13.4595
friendly	-13.4599
▁aaaa	-13.4601
lucky	-13.4602
▁pea	-13.4605
worthy	-13.4606
▁rob	-13.4609
▁broo	-13.4613
party	-13.4614
lift	-13.4619
pan	-13.4621
beauty	-13.4624
kum	-13.4625
quiet	-13.4627
culture	-13.4632
▁brag	-13.4636
▁feminin	-13.4637
cycle	-13.4639
▁multipli	-13.4639
bly	-13.4642
blue	-13.465
▁permanen	-13.4654
drive	-13.4657
listening	-13.4657
similar	-13.4658
best	-13.466
ramm	-13.4663
▁landscap	-13.4665
continent	-13.4666
name	-13.4667
▁mulli	-13.4671
shake	-13.4672
▁catal	-13.4672
considerate	-13.4675
▁fract	-13.4676
direction	-13.4676
aesthetic	-13.4678
wolf	-13.4685
video	-13.4686
▁stir	-13.4693
frig	-13.4698
ila	-13.4699
bring	-13.4702
birth	-13.4702
good	-13.4704
▁redd	-13.4705
▁overwhelm	-13.4706
earth	-13.4707
perspective	-13.4708
bottom	-13.4712
cosm	-13.4712
bowl	-13.4713
rte	-13.4713
professional	-13.4714
balance	-13.4714
drop	-13.4715
▁hus	-13.4717
fashion	-13.4718
iiii	-13.4718
tempo	-13.472
floor	-13.472
lle	-13.4729
discover	-13.473
hav	-13.4731
fingers	-13.4731
dress	-13.4732
rayed	-13.4734
imes	-13.4734
marriage	-13.4735
buzz	-13.4737
acing	-13.4741
ctive	-13.4741
craft	-13.4743
▁brid	-13.4746
grade	-13.4749
▁stereotyp	-13.4751
bury	-13.4752
bria	-13.4756
architectural	-13.4758
egated	-13.4759
quilt	-13.476
report	-13.4762
▁mcg	-13.4762
frequent	-13.4762
clean	-13.4763
norma	-13.4764
therapy	-13.4764
student	-13.4765
musings	-13.4766
dramatic	-13.4766
plate	-13.4774
venue	-13.4776
ages	-13.4776
gra	-13.4776
type	-13.4777
stra	-13.4777
blogger	-13.4779
journals	-13.478
focused	-13.478
audre	-13.4781
contrary	-13.4782
century	-13.4783
effects	-13.4785
▁manipul	-13.4785
conscience	-13.4787
▁poope	-13.4787
establish	-13.4787
amaze	-13.4789
validation	-13.479
fathom	-13.479
hyun	-13.479
delivery	-13.4791
military	-13.4791
accurate	-13.4792
annual	-13.4792
treasures	-13.4793
german	-13.4793
hammer	-13.4793
activity	-13.4794
appropriate	-13.4795
statistic	-13.4795
inances	-13.4796
makeup	-13.4797
enthusiastic	-13.4797
engaged	-13.4799
▁sec	-13.4799
▁jami	-13.4799
programm	-13.4799
▁prais	-13.48
respond	-13.48
depress	-13.4801
gracious	-13.4801
compensate	-13.4802
currently	-13.4803
rrrr	-13.4803
american	-13.4804
▁conver	-13.4805
trustworthy	-13.4805
stretched	-13.4806
pump	-13.4806
▁affec	-13.4806
jane	-13.4807
bright	-13.4808
concern	-13.4808
bank	-13.4809
drift	-13.4809
runner	-13.481
pho	-13.4813
descript	-13.4813
consistent	-13.4813
construction	-13.4814
heard	-13.4817
mineral	-13.482
planned	-13.4824
sten	-13.4825
leader	-13.4825
direct	-13.4825
famous	-13.4827
medical	-13.4828
supervis	-13.483
▁perver	-13.4832
eo	-13.4832
center	-13.4832
surgeon	-13.4835
zone	-13.4835
▁mag	-13.4837
bloods	-13.4837
competiti	-13.4838
milk	-13.4839
▁acro	-13.484
changes	-13.4842
paul	-13.4843
virus	-13.4844
wick	-13.4846
▁separat	-13.4853
daddy	-13.4857
master	-13.4862
▁cale	-13.4864
▁chocolat	-13.4866
toward	-13.4866
speak	-13.4867
▁differ	-13.4869
closure	-13.4869
▁commu	-13.4872
washing	-13.4872
merican	-13.4873
allah	-13.4885
dle	-13.4886
suit	-13.4886
aholic	-13.4888
plants	-13.4889
servant	-13.4889
steady	-13.4891
▁academ	-13.4892
visible	-13.4893
▁int	-13.4894
infection	-13.4894
crow	-13.4894
continued	-13.4896
▁nutri	-13.4896
acity	-13.4898
▁persua	-13.4899
ftwa	-13.4899
▁critic	-13.4899
▁stroll	-13.4899
uttered	-13.49
evaluat	-13.49
▁disgust	-13.49
▁kidnap	-13.4903
took	-13.4903
supported	-13.4907
uuuu	-13.4911
journalist	-13.4911
plane	-13.4912
afford	-13.4912
mitted	-13.4913
explained	-13.4913
▁witnes	-13.4914
sounds	-13.4914
▁nudg	-13.4916
dawn	-13.4917
regardless	-13.4921
cover	-13.4922
▁posses	-13.4928
normal	-13.4929
goes	-13.493
commit	-13.4932
chemistry	-13.4932
brow	-13.4934
games	-13.4941
▁unspo	-13.4941
▁collap	-13.4943
ption	-13.4944
imagin	-13.4945
affirm	-13.4948
shif	-13.4948
plug	-13.4951
rooms	-13.4953
ompany	-13.4956
legitimate	-13.4957
▁blogge	-13.4959
▁sli	-13.4959
jection	-13.496
aware	-13.4961
chronic	-13.4966
ille	-13.4967
morph	-13.4967
rella	-13.4967
tried	-13.4968
trude	-13.4968
bla	-13.4969
cake	-13.4969
▁esc	-13.4974
analyze	-13.4974
arri	-13.4975
drug	-13.4976
advert	-13.4976
▁efficien	-13.4978
▁backsta	-13.4979
prompt	-13.4979
spiring	-13.498
committed	-13.4981
▁moist	-13.4982
dramatically	-13.4984
glob	-13.4985
nev	-13.4987
▁disco	-13.4992
cible	-13.4996
stitute	-13.4996
▁integra	-13.4997
coat	-13.4997
tips	-13.4998
▁cent	-13.5001
supplie	-13.5002
▁nerv	-13.5002
▁disorient	-13.5004
adapti	-13.5004
haul	-13.5008
▁krist	-13.501
lors	-13.5012
▁wrinkle	-13.5013
▁outburst	-13.5013
▁comfor	-13.5013
▁eyebrow	-13.5014
▁congratulation	-13.5014
moms	-13.5016
▁convinc	-13.5018
children	-13.5019
▁repercussion	-13.5021
clude	-13.5021
▁fierc	-13.5022
▁cont	-13.5023
▁artific	-13.5023
▁peta	-13.5024
▁device	-13.5024
▁treasur	-13.5024
▁ingredient	-13.5024
▁pelvi	-13.5025
▁stag	-13.5025
rapist	-13.5025
▁snake	-13.5025
▁slope	-13.5026
activat	-13.5026
obbie	-13.5026
polit	-13.5027
▁calorie	-13.5027
securities	-13.5028
▁curtain	-13.5028
▁compromis	-13.5028
▁thos	-13.5029
etti	-13.5029
spoken	-13.5029
▁depriv	-13.5032
▁fanta	-13.5032
humanity	-13.5033
▁grappl	-13.5033
▁spiral	-13.5034
mentally	-13.5034
violi	-13.5035
▁potent	-13.5035
▁paranoi	-13.5035
▁constru	-13.5037
▁resolv	-13.5037
▁pursuit	-13.5037
inches	-13.5038
cat	-13.5038
▁cheek	-13.5038
▁reliev	-13.5039
▁condescend	-13.504
▁potato	-13.504
▁voic	-13.504
▁skate	-13.5041
▁alway	-13.5043
▁reluctan	-13.5043
▁fasci	-13.5044
ean	-13.5044
▁awesom	-13.5045
▁contraction	-13.5046
vive	-13.5047
responsi	-13.505
organise	-13.5051
goose	-13.5052
▁jumble	-13.5052
▁motivat	-13.5052
▁inhuman	-13.5053
▁hormon	-13.5053
▁unheal	-13.5053
▁appearanc	-13.5054
▁taco	-13.506
escent	-13.506
▁unbelievabl	-13.506
▁garde	-13.5061
ggers	-13.5062
▁nod	-13.5062
endo	-13.5063
▁snoo	-13.5063
▁assignment	-13.5064
▁atmospher	-13.5066
▁absolut	-13.5066
▁diver	-13.5066
▁biochem	-13.5067
▁moisturis	-13.5067
▁ov	-13.5067
▁breez	-13.5067
artisan	-13.5069
predictab	-13.5072
▁criticiz	-13.5074
▁obsessi	-13.5077
sse	-13.5077
▁frighten	-13.5079
▁aggravat	-13.508
▁elegan	-13.508
sparkl	-13.5081
ynthe	-13.5081
▁involve	-13.5082
comm	-13.5083
foc	-13.5083
▁ridicul	-13.5085
▁cert	-13.5086
lves	-13.5086
▁sympathiz	-13.5087
▁snip	-13.5087
▁congregat	-13.5087
▁pregnanc	-13.5087
▁uninspir	-13.5088
▁librar	-13.5088
technic	-13.5088
cage	-13.5088
▁mura	-13.5088
▁grump	-13.5088
▁instruct	-13.5089
▁anxiet	-13.5089
▁chec	-13.5089
▁potatoe	-13.5089
gasm	-13.509
▁scree	-13.509
▁excellen	-13.509
▁oblig	-13.5091
▁industr	-13.5091
fool	-13.5091
▁instant	-13.5092
▁immigra	-13.5092
▁deliberat	-13.5092
▁resign	-13.5092
prog	-13.5092
▁obligat	-13.5093
▁pitch	-13.5095
▁contemp	-13.5095
pleas	-13.5096
▁demon	-13.5097
▁libert	-13.5098
lov	-13.5098
▁aggressi	-13.5098
luded	-13.5098
▁physi	-13.5099
▁dispos	-13.5099
▁empathiz	-13.5099
agnostic	-13.5099
bber	-13.51
▁subje	-13.51
shit	-13.5101
▁expansi	-13.5101
▁defect	-13.5101
▁clums	-13.5101
▁bloc	-13.5103
unji	-13.5103
▁presiden	-13.5103
ollywood	-13.5104
kris	-13.5104
▁olympi	-13.5105
hospita	-13.5105
normous	-13.5105
rbani	-13.5105
▁therapi	-13.5105
flect	-13.5106
▁congratulat	-13.5106
nflicted	-13.5106
lists	-13.5106
sufficien	-13.5106
▁chemist	-13.5107
trioti	-13.5107
liberation	-13.5107
▁conscien	-13.5107
▁approx	-13.5107
excus	-13.5107
▁satisfact	-13.5107
rrect	-13.5107
▁sunda	-13.5107
rocious	-13.5107
▁imagi	-13.5107
ttttttttt	-13.5108
capacit	-13.5108
jubil	-13.5108
▁unsatisf	-13.5108
▁euph	-13.5108
journ	-13.5108
▁athlet	-13.5108
▁confide	-13.5108
▁dissatisf	-13.5108
▁rebellio	-13.5108
▁architect	-13.5108
verrrrrrrr	-13.5108
rrrrrrrrrrr	-13.5108
hehehehe	-13.5108
eeeeeeeeee	-13.5108
diculous	-13.5108
▁volunt	-13.5108
jaja	-13.5108
ominen	-13.5109
hhhhhh	-13.5109
▁ecsta	-13.5109
▁glamour	-13.5109
▁sustainab	-13.5109
unction	-13.5109
huhu	-13.5109
proxim	-13.5109
merism	-13.5109
▁splend	-13.5109
▁substan	-13.5109
turous	-13.511
oogle	-13.511
utiful	-13.5111
▁glyce	-13.5112
fident	-13.5112
▁exhil	-13.5112
▁audie	-13.5113
lolol	-13.5113
priate	-13.5113
▁portra	-13.5113
▁riva	-13.5114
rizon	-13.5114
bulous	-13.5114
ialism	-13.5115
▁harmoni	-13.5115
▁effic	-13.5115
ject	-13.5116
▁wha	-13.5116
▁contaminate	-13.5117
▁moz	-13.5117
▁succe	-13.5117
belly	-13.5118
awning	-13.5119
ernment	-13.512
azzi	-13.512
▁disgu	-13.512
garet	-13.5121
tician	-13.5121
▁abdom	-13.5121
▁advent	-13.5121
webs	-13.5121
▁aggr	-13.5121
scription	-13.5122
untered	-13.5122
ducted	-13.5122
sionate	-13.5123
▁commod	-13.5123
jav	-13.5123
umble	-13.5124
tuation	-13.5124
liate	-13.5124
cumen	-13.5124
▁resonat	-13.5124
▁trump	-13.5125
▁stunn	-13.5125
lai	-13.5125
aminate	-13.5125
chain	-13.5126
▁pani	-13.5126
seph	-13.5126
reas	-13.5126
▁machi	-13.5126
▁degr	-13.5127
nosis	-13.5127
pulation	-13.5127
▁flour	-13.5128
egation	-13.5128
jer	-13.5128
▁zoo	-13.5129
descend	-13.5129
sphere	-13.5129
▁villa	-13.513
cognize	-13.513
▁signifi	-13.5131
quate	-13.5132
▁deter	-13.5133
laborat	-13.5133
▁dancin	-13.5133
ippe	-13.5135
▁latte	-13.5135
▁gorge	-13.5138
▁recess	-13.5138
ologically	-13.5139
▁runnin	-13.5139
▁deprive	-13.5139
ermal	-13.5139
avelli	-13.514
▁bleu	-13.5141
ousnes	-13.5142
positions	-13.5142
kward	-13.5144
▁condi	-13.5144
▁hmm	-13.5144
▁delic	-13.5145
cebo	-13.5145
simi	-13.5145
▁construct	-13.5146
▁employer	-13.5146
▁disorientat	-13.5146
llusioned	-13.5147
nagal	-13.5147
ssip	-13.5147
▁unchar	-13.5148
▁daz	-13.5148
▁bapti	-13.5148
▁zac	-13.5148
rumpy	-13.5148
ptical	-13.5149
ernet	-13.5149
▁wimp	-13.5149
▁depre	-13.5149
▁disast	-13.5151
▁albu	-13.5153
rthy	-13.5154
▁coul	-13.5155
ountain	-13.5156
▁genu	-13.5156
▁eq	-13.5157
▁phy	-13.5158
ffers	-13.5158
suma	-13.5158
▁punish	-13.5158
▁gir	-13.5159
phori	-13.5161
razzle	-13.5161
yboy	-13.5162
▁understa	-13.5162
bow	-13.5163
▁motivate	-13.5163
▁immedi	-13.5164
▁lumi	-13.5164
▁inexp	-13.5165
uction	-13.5165
fected	-13.5166
▁memor	-13.5166
▁priorit	-13.5167
▁graci	-13.5168
▁beyon	-13.5169
oft	-13.5169
▁mira	-13.517
euv	-13.5171
vds	-13.5171
teria	-13.5172
tooth	-13.5172
▁clim	-13.5173
▁exha	-13.5173
▁cric	-13.5173
hort	-13.5174
stitche	-13.5175
scuit	-13.5177
▁constitut	-13.5177
▁resu	-13.5179
llege	-13.518
mused	-13.518
▁tabl	-13.5181
nfold	-13.5182
dance	-13.5183
isement	-13.5183
▁vac	-13.5184
remors	-13.5186
crie	-13.5188
▁demos	-13.5189
formin	-13.5189
▁outrag	-13.519
rupte	-13.5191
achers	-13.5191
urkey	-13.5192
▁snipp	-13.5192
phew	-13.5194
tarted	-13.5196
mari	-13.5196
phant	-13.5196
god	-13.5196
raka	-13.5198
ebod	-13.5199
logos	-13.52
artic	-13.5201
▁absol	-13.5202
▁enco	-13.5202
ctic	-13.5205
lamb	-13.5206
▁dismay	-13.5206
emie	-13.5206
rida	-13.5209
bot	-13.5209
ilant	-13.5209
opath	-13.521
▁remin	-13.5211
osity	-13.5212
icles	-13.5212
▁assu	-13.5214
whelming	-13.5214
rkl	-13.5217
▁biz	-13.5217
▁stab	-13.5217
cine	-13.5218
▁dinn	-13.5218
▁prejud	-13.5219
▁frust	-13.5219
▁stil	-13.5223
signs	-13.5223
▁acco	-13.5226
taking	-13.5228
▁osc	-13.5228
▁writin	-13.5228
vapor	-13.5229
nancy	-13.5229
▁loga	-13.5229
stified	-13.5231
▁brig	-13.5232
▁resona	-13.5232
dered	-13.5232
ravel	-13.5233
▁diag	-13.5233
mbass	-13.5234
▁hono	-13.5234
▁winner	-13.5235
▁firs	-13.5241
▁scra	-13.5241
▁chic	-13.5244
▁drow	-13.5245
▁moistur	-13.5246
▁cruis	-13.5246
ulted	-13.5247
▁negl	-13.5248
rdina	-13.525
▁ortho	-13.5252
nclusion	-13.5252
drast	-13.5254
▁truc	-13.5254
▁benefic	-13.5256
▁nutritio	-13.526
lution	-13.5261
▁perc	-13.5261
▁discon	-13.5262
midt	-13.5262
olated	-13.5267
ising	-13.5267
nadia	-13.5267
else	-13.5268
uating	-13.5268
oyed	-13.5269
undry	-13.527
▁hahah	-13.5271
erior	-13.5271
ooooooooo	-13.5275
eporter	-13.5275
eakness	-13.5275
▁strop	-13.5275
▁maj	-13.5276
▁magi	-13.5277
▁wid	-13.5278
▁cig	-13.5278
nkets	-13.5279
▁meditate	-13.528
▁intimidate	-13.5281
phanie	-13.5283
▁obes	-13.5284
liza	-13.5285
hanna	-13.5286
morr	-13.5287
▁compli	-13.5288
▁undeserv	-13.5289
▁overwh	-13.5293
uffle	-13.5293
▁rebel	-13.5294
▁conspir	-13.5295
tiq	-13.5296
▁outrage	-13.5297
oulder	-13.53
▁wiz	-13.5303
▁glam	-13.5303
▁shhh	-13.5306
ffend	-13.5306
▁dram	-13.5309
politi	-13.531
▁matte	-13.5311
▁optimist	-13.5312
▁impoten	-13.5318
ndo	-13.5319
rains	-13.5319
uuuuu	-13.532
stian	-13.532
imental	-13.5321
uters	-13.5322
true	-13.5322
kman	-13.5323
apply	-13.5329
▁headach	-13.533
tivity	-13.533
mbling	-13.533
pai	-13.5331
▁alo	-13.5333
nado	-13.5336
tu	-13.5336
▁weep	-13.5338
▁waaa	-13.5339
atically	-13.534
bir	-13.534
▁wester	-13.534
▁clutter	-13.5341
▁psychi	-13.5344
tential	-13.5347
▁cult	-13.5352
xie	-13.5352
tached	-13.5354
quer	-13.5354
bbly	-13.5358
▁admin	-13.5358
vantage	-13.5358
▁lovin	-13.5359
itches	-13.5359
▁satur	-13.5365
▁milli	-13.5369
▁dang	-13.537
imately	-13.537
iya	-13.5371
▁incre	-13.5372
mbled	-13.5374
▁connecti	-13.5374
▁laug	-13.5376
▁grim	-13.5378
▁opin	-13.5379
wall	-13.5382
wil	-13.5383
▁quot	-13.5386
porate	-13.5392
win	-13.5393
▁vaca	-13.5395
ogy	-13.5396
▁rejecte	-13.5397
ritz	-13.5399
ulta	-13.5399
twoo	-13.5403
rinking	-13.5405
ond	-13.5407
▁ish	-13.5408
▁homemak	-13.5408
▁burge	-13.541
▁elli	-13.5411
▁teac	-13.5412
grams	-13.5414
model	-13.5415
▁foll	-13.5418
zines	-13.542
▁deta	-13.5428
ntist	-13.5429
errrr	-13.5431
▁befo	-13.5431
▁descripti	-13.5431
pment	-13.5431
▁sendi	-13.5432
inade	-13.5432
asking	-13.5433
pene	-13.5433
ossed	-13.5433
apacity	-13.5436
chayi	-13.5437
▁regula	-13.5441
ouchy	-13.5442
hank	-13.5444
▁bounci	-13.5454
▁ext	-13.5458
moon	-13.5463
embers	-13.5463
▁aesthetic	-13.5463
eeeee	-13.5465
haps	-13.5466
robbing	-13.5468
lege	-13.5471
ctually	-13.5477
estro	-13.5484
wright	-13.5485
strator	-13.5487
blogg	-13.549
▁mexi	-13.549
▁provok	-13.5491
▁humm	-13.5496
▁discom	-13.5498
mass	-13.5499
▁cours	-13.5499
▁fron	-13.55
▁stalk	-13.55
unes	-13.5506
▁oversha	-13.5507
▁advocat	-13.551
iiiii	-13.5513
rylin	-13.5515
▁thou	-13.5517
▁memori	-13.5517
▁jad	-13.5521
ethi	-13.5524
▁prose	-13.5525
▁abo	-13.5527
chew	-13.553
chem	-13.5533
bites	-13.5541
reader	-13.5542
atche	-13.5544
▁convi	-13.5544
xe	-13.5546
fell	-13.555
▁mica	-13.5553
assim	-13.5554
tween	-13.5559
▁terroris	-13.5559
cid	-13.5561
▁pho	-13.5564
tted	-13.5573
andering	-13.5573
hter	-13.5575
nati	-13.5584
fy	-13.5584
lism	-13.5585
▁matin	-13.5586
orted	-13.5587
▁rik	-13.5587
mellow	-13.559
aaaaand	-13.5594
onomy	-13.5595
▁este	-13.5602
rumble	-13.561
sty	-13.5611
▁weighin	-13.5615
lant	-13.5615
▁initia	-13.5616
▁harve	-13.5618
lliance	-13.5624
tops	-13.5629
maker	-13.563
▁oncolog	-13.5631
▁characteris	-13.5635
dian	-13.5636
lems	-13.5638
hda	-13.5639
▁cler	-13.5645
erations	-13.5646
thoughts	-13.5647
zeal	-13.5652
alkin	-13.5661
logy	-13.5673
chi	-13.5676
▁pond	-13.5679
rings	-13.5683
xm	-13.5696
clutter	-13.5697
atters	-13.57
minar	-13.5711
estheti	-13.5712
▁vot	-13.5716
▁rem	-13.572
▁vig	-13.5721
▁farthe	-13.5723
raf	-13.5723
anned	-13.5734
derf	-13.5745
▁stripp	-13.5763
pid	-13.5764
▁deli	-13.5766
▁beau	-13.5768
▁tempo	-13.5768
cou	-13.5771
▁mudd	-13.5772
▁ax	-13.5791
tica	-13.5795
isnt	-13.5799
ongs	-13.58
▁chees	-13.5802
estive	-13.5803
▁tack	-13.5816
▁coo	-13.5818
nci	-13.5828
ofil	-13.5829
efo	-13.583
olo	-13.5831
▁paraly	-13.5832
▁divin	-13.5836
▁unti	-13.5837
affe	-13.5838
heav	-13.5846
▁desc	-13.5847
rrupt	-13.585
▁interv	-13.5852
arty	-13.5855
▁reper	-13.5858
qualif	-13.5861
▁pas	-13.5861
▁flun	-13.5875
▁samp	-13.5884
▁mara	-13.5886
arine	-13.5892
yers	-13.5899
owe	-13.59
▁gho	-13.5901
igne	-13.5901
gnes	-13.5902
▁salo	-13.5902
urity	-13.5905
honor	-13.5922
ix	-13.5924
tated	-13.5926
eria	-13.5935
raine	-13.5937
▁kne	-13.594
ador	-13.5943
beam	-13.5946
▁tantr	-13.5947
▁preache	-13.5951
sappear	-13.5952
suspect	-13.5954
▁memb	-13.5956
raction	-13.5959
pse	-13.5968
ligent	-13.5973
inste	-13.5984
▁casti	-13.5988
▁desolat	-13.5988
emon	-13.5996
▁affirmati	-13.6
erceptions	-13.6003
▁dire	-13.6003
▁snee	-13.6004
▁goat	-13.6007
▁dual	-13.6013
▁solb	-13.6018
erald	-13.6025
justified	-13.6031
▁chro	-13.6036
▁yk	-13.6037
▁mob	-13.6038
nfide	-13.6042
alente	-13.6045
rish	-13.6045
rm	-13.6049
abri	-13.6052
scious	-13.6056
ahahahah	-13.606
coop	-13.6066
▁bush	-13.6067
size	-13.6068
alking	-13.6072
span	-13.6072
▁perm	-13.6073
tized	-13.6076
▁frustrate	-13.6085
amb	-13.6088
kwa	-13.6116
▁pett	-13.612
▁occu	-13.6125
stered	-13.6126
thless	-13.6127
hydrate	-13.613
curr	-13.6132
▁proto	-13.6135
dressing	-13.6137
sequences	-13.6139
▁witch	-13.6139
net	-13.6143
ticul	-13.6165
amples	-13.6179
tru	-13.6183
▁ashl	-13.6189
upti	-13.6189
remi	-13.6191
lific	-13.6202
spot	-13.6205
▁adver	-13.6206
fic	-13.6212
▁gia	-13.6219
stepp	-13.6221
▁vocali	-13.6224
▁braz	-13.6228
▁strid	-13.623
▁contaminat	-13.6234
▁undo	-13.6239
smic	-13.6243
torial	-13.6245
▁prol	-13.6247
▁extensi	-13.6248
laj	-13.6257
lowe	-13.6267
▁dai	-13.6274
stances	-13.629
inted	-13.6292
▁dir	-13.6294
▁tuc	-13.6297
▁merci	-13.6298
pict	-13.6303
roma	-13.6303
axation	-13.631
nage	-13.6311
nali	-13.6316
poo	-13.6323
cci	-13.6324
ications	-13.6327
por	-13.6329
ique	-13.6331
sex	-13.6333
ridge	-13.6336
chers	-13.6338
▁mai	-13.6342
grate	-13.6345
▁ea	-13.6348
cent	-13.6357
▁repeated	-13.6364
▁legitim	-13.6366
perfection	-13.6374
bleedi	-13.6375
starts	-13.6378
tear	-13.638
sturb	-13.6386
▁nigg	-13.639
effective	-13.639
atures	-13.6402
zom	-13.6407
▁transl	-13.6409
onged	-13.641
▁devot	-13.6411
▁ful	-13.6415
see	-13.6419
▁disma	-13.6423
▁galle	-13.6425
▁fieldi	-13.6428
▁seam	-13.6441
▁ann	-13.6442
llie	-13.6445
ember	-13.6446
acum	-13.6452
hearted	-13.6456
▁princes	-13.6466
▁sham	-13.6471
▁holi	-13.6474
▁lux	-13.6476
orward	-13.6479
pses	-13.6479
related	-13.6482
irl	-13.6484
▁impe	-13.6501
fus	-13.6511
▁unp	-13.6538
▁grap	-13.654
▁pia	-13.6542
▁dul	-13.6551
mps	-13.6555
▁unw	-13.6575
▁clea	-13.6593
anning	-13.6595
alia	-13.6597
ulled	-13.6601
lter	-13.6606
▁tec	-13.6606
▁uncomf	-13.6618
spress	-13.6621
nie	-13.6627
▁boyf	-13.6629
▁germ	-13.6636
▁format	-13.6641
ermin	-13.6645
▁wond	-13.6647
▁unle	-13.6647
chos	-13.6652
boots	-13.6655
dvantage	-13.6655
inging	-13.6657
▁spreads	-13.6659
having	-13.6664
ews	-13.6668
▁cryin	-13.6668
▁lighte	-13.6678
flu	-13.6682
▁kno	-13.6694
uth	-13.6697
▁graph	-13.6697
adore	-13.67
anging	-13.6701
▁exper	-13.6719
▁speci	-13.6722
sible	-13.6728
onal	-13.673
▁repr	-13.6735
iece	-13.6742
hig	-13.6742
dj	-13.6743
▁instru	-13.6745
bage	-13.6755
▁reproduc	-13.6774
gus	-13.6778
▁ala	-13.678
imm	-13.6783
state	-13.6796
ski	-13.6803
trag	-13.681
say	-13.6821
▁mus	-13.6827
hara	-13.6827
▁gov	-13.6839
rag	-13.6841
▁isolate	-13.6841
mulat	-13.6841
ciation	-13.6861
▁caf	-13.6863
▁cove	-13.6864
ird	-13.6872
sick	-13.6879
osis	-13.6898
afe	-13.6905
llus	-13.6927
tered	-13.6928
▁carin	-13.6932
▁plat	-13.6935
▁qualit	-13.6946
ttent	-13.695
handle	-13.6955
dn	-13.6957
gering	-13.6957
▁beac	-13.6964
imenta	-13.6965
pet	-13.6966
ulls	-13.6967
pensive	-13.6972
ensions	-13.6989
▁dic	-13.6991
orting	-13.6992
accid	-13.7005
pon	-13.7011
▁committe	-13.7012
ago	-13.7016
ami	-13.7018
▁bul	-13.7018
admit	-13.7021
itter	-13.7026
▁runne	-13.7027
▁stronge	-13.7027
ayed	-13.7029
▁aud	-13.7034
ommie	-13.7037
▁calli	-13.7037
lash	-13.7043
▁footb	-13.7051
▁shapes	-13.706
▁letha	-13.7062
joi	-13.7062
▁bobb	-13.7063
tones	-13.7083
nger	-13.7096
shower	-13.7102
eye	-13.7112
▁sepa	-13.7116
hmen	-13.7121
▁reputa	-13.7122
lef	-13.7127
mmy	-13.7133
stems	-13.7133
etter	-13.7143
hs	-13.7148
mill	-13.7152
self	-13.7167
ffe	-13.717
▁apa	-13.7174
gt	-13.7181
▁conten	-13.7186
▁lon	-13.719
▁insi	-13.7193
hot	-13.7202
tub	-13.7209
iles	-13.723
mann	-13.7232
lous	-13.7233
▁dea	-13.7237
hears	-13.7237
▁swor	-13.7251
▁agi	-13.728
▁repairm	-13.7304
▁ham	-13.731
▁discourage	-13.7317
attract	-13.7326
manhood	-13.7327
▁chal	-13.7328
sight	-13.7329
pes	-13.7339
▁det	-13.7341
▁sensibl	-13.7348
▁mysteri	-13.7349
▁antid	-13.7361
ighted	-13.738
▁ug	-13.7387
wer	-13.7387
arding	-13.7395
▁tre	-13.7397
tra	-13.7399
▁antic	-13.7405
▁pesti	-13.7409
lumps	-13.7443
itable	-13.7445
▁spic	-13.745
mately	-13.7461
ctivism	-13.7468
rrific	-13.748
follows	-13.7486
ssibility	-13.7518
tell	-13.7525
▁mic	-13.7527
archi	-13.754
▁lous	-13.7544
pairing	-13.755
▁rol	-13.7558
nded	-13.757
▁quee	-13.7577
llusion	-13.7583
▁lands	-13.7584
▁mala	-13.7589
esty	-13.7593
▁eng	-13.7601
▁ple	-13.7607
itche	-13.7609
▁voi	-13.7614
ining	-13.762
lled	-13.7628
▁ul	-13.7633
ents	-13.7635
▁icon	-13.7675
hos	-13.7693
alise	-13.7707
▁deb	-13.7716
lank	-13.7716
lights	-13.772
▁somethi	-13.7721
▁shap	-13.7727
ploy	-13.773
ute	-13.7736
▁jade	-13.7748
▁sesa	-13.7757
tively	-13.7759
tter	-13.7761
raisin	-13.7765
impy	-13.7774
logist	-13.7787
siest	-13.7798
▁inco	-13.7798
fall	-13.7799
▁ugl	-13.7806
▁sati	-13.7831
tice	-13.7836
ocu	-13.7844
heated	-13.7846
wash	-13.7851
▁toni	-13.787
▁rach	-13.7876
aps	-13.7883
▁rej	-13.7884
▁impr	-13.7884
ounges	-13.7889
sgivings	-13.7893
cious	-13.7896
▁haz	-13.7903
▁ign	-13.7909
▁touris	-13.7917
▁mik	-13.7923
hubby	-13.7926
▁highl	-13.7951
▁insec	-13.7956
▁sync	-13.7981
nonym	-13.7997
▁anim	-13.7998
oomers	-13.8001
▁burg	-13.8012
bited	-13.8019
▁trave	-13.802
ington	-13.8022
downs	-13.8022
cting	-13.8028
cope	-13.8041
▁earr	-13.8049
▁counsell	-13.8069
▁tho	-13.8075
▁lapp	-13.8088
ication	-13.8088
otte	-13.8099
▁infa	-13.8104
lthy	-13.811
▁fal	-13.8142
mbed	-13.8147
▁trig	-13.8154
aki	-13.816
lawless	-13.8162
osely	-13.8162
▁sne	-13.8198
serve	-13.8199
talia	-13.8203
agen	-13.8207
erica	-13.8207
agram	-13.8208
▁cele	-13.8213
▁perso	-13.8214
tats	-13.8226
▁lette	-13.8238
vo	-13.8242
oice	-13.8242
dai	-13.8247
pport	-13.8263
intended	-13.8265
gy	-13.8266
▁quali	-13.8275
▁advi	-13.8276
ffected	-13.829
pm	-13.8298
tie	-13.8301
cha	-13.832
iable	-13.8323
taste	-13.8325
rial	-13.8331
▁tryin	-13.8357
yle	-13.8363
bits	-13.8365
▁contemplati	-13.8378
pper	-13.8382
zen	-13.8384
ntle	-13.8388
review	-13.8395
scul	-13.8397
role	-13.8407
iola	-13.8411
▁drea	-13.8417
▁asses	-13.8449
dub	-13.8474
▁clini	-13.8476
▁sympath	-13.8527
uxe	-13.8544
orms	-13.8567
▁sym	-13.8576
bas	-13.8579
▁consul	-13.8591
rrifying	-13.8596
uga	-13.8604
sba	-13.861
▁fra	-13.8617
ann	-13.8654
▁sic	-13.8655
▁stic	-13.8663
licate	-13.8669
▁cy	-13.869
dul	-13.8708
volv	-13.8711
▁jumpe	-13.8746
▁touche	-13.8746
edge	-13.8747
immer	-13.8748
ported	-13.8773
▁smil	-13.8774
ada	-13.8781
▁dumpe	-13.8792
queez	-13.8806
▁remov	-13.8808
lming	-13.8816
▁appreciat	-13.8823
piness	-13.8825
una	-13.8854
▁preach	-13.8856
▁whin	-13.887
nite	-13.8875
rum	-13.8878
dm	-13.8879
vol	-13.8893
▁uncom	-13.8894
▁seriou	-13.8904
obbed	-13.891
lutter	-13.8912
pl	-13.8914
graphic	-13.8943
▁origina	-13.8969
formation	-13.897
rais	-13.8985
ension	-13.8986
press	-13.8997
eken	-13.9003
▁rotat	-13.9005
oth	-13.901
▁scienti	-13.9019
▁hurr	-13.9029
inal	-13.9031
oots	-13.906
grace	-13.907
ergy	-13.9087
▁curren	-13.9102
ament	-13.9111
poly	-13.9116
lower	-13.9124
▁echoe	-13.9125
reality	-13.9131
▁deve	-13.9133
rusti	-13.9135
▁sadde	-13.9162
hizz	-13.9183
▁cred	-13.9187
eeling	-13.9197
ras	-13.9198
race	-13.921
▁exaggerati	-13.9248
▁curle	-13.9251
emp	-13.9256
▁exhilarati	-13.926
ryth	-13.9268
▁valent	-13.9294
pore	-13.9299
▁adopti	-13.9324
