<unk>	0
<pad>	0
[CLS]	0
[SEP]	0
[MASK]	0
▁i	-2.51818
▁feel	-3.37803
▁and	-3.55142
▁to	-3.60991
▁the	-3.683
▁a	-3.92801
▁that	-4.1752
▁feeling	-4.18419
▁of	-4.21492
s	-4.25932
▁my	-4.36163
▁in	-4.56094
ing	-4.59142
▁it	-4.66004
▁like	-4.73584
▁so	-4.8738
▁im	-4.9026
▁for	-4.91413
▁me	-4.95063
▁have	-4.97297
▁was	-4.99249
▁but	-5.00865
ly	-5.06662
▁am	-5.07595
▁this	-5.07848
▁with	-5.10721
▁be	-5.14908
▁on	-5.17251
▁not	-5.18895
▁is	-5.21534
▁about	-5.22661
ed	-5.34502
▁you	-5.3657
▁as	-5.40834
▁just	-5.43527
▁when	-5.47929
▁at	-5.48038
▁or	-5.58055
▁all	-5.65111
▁because	-5.67745
▁more	-5.70149
▁do	-5.72695
▁t	-5.73982
▁up	-5.83325
▁can	-5.84593
▁really	-5.87086
▁are	-5.91486
▁know	-5.92656
▁by	-5.92957
▁very	-5.95393
▁out	-5.98195
▁been	-5.9834
▁if	-5.99777
▁time	-6.02449
▁get	-6.02652
▁myself	-6.03337
▁what	-6.03882
d	-6.05849
▁how	-6.07701
ve	-6.10103
▁little	-6.10783
▁had	-6.1247
▁he	-6.1333
▁will	-6.13698
▁they	-6.15462
▁now	-6.15909
▁from	-6.16755
y	-6.18316
▁people	-6.19177
▁would	-6.1949
▁being	-6.22084
▁want	-6.22668
▁s	-6.25235
▁	-6.25319
▁who	-6.25431
▁them	-6.25547
▁her	-6.26593
▁some	-6.31605
▁think	-6.32174
▁one	-6.33013
▁still	-6.33326
▁there	-6.34677
▁even	-6.35885
▁an	-6.36126
▁him	-6.36886
▁m	-6.38827
▁life	-6.41155
▁we	-6.42147
e	-6.4223
▁bit	-6.45935
▁make	-6.46539
▁could	-6.47713
▁no	-6.48309
▁love	-6.49103
▁something	-6.49814
▁much	-6.51898
▁things	-6.54237
▁going	-6.5442
▁its	-6.54696
ch	-6.54963
▁she	-6.55082
▁dont	-6.55496
▁way	-6.58082
▁than	-6.61906
▁day	-6.63273
▁go	-6.65951
▁too	-6.66705
▁see	-6.67859
▁back	-6.69175
▁has	-6.69786
▁don	-6.6986
▁need	-6.7193
▁good	-6.74076
▁pretty	-6.74716
▁over	-6.74918
▁your	-6.75532
▁whi	-6.75614
▁into	-6.77798
▁his	-6.81719
▁right	-6.81891
▁their	-6.82654
▁always	-6.82984
▁these	-6.84879
t	-6.8602
▁work	-6.88032
▁other	-6.88216
▁say	-6.891
▁also	-6.89844
er	-6.91275
▁today	-6.91998
▁should	-6.9316
▁then	-6.93648
▁did	-6.94548
▁after	-6.94939
▁most	-6.94945
nt	-6.95478
▁again	-6.9846
▁help	-6.98465
▁around	-7.00051
▁were	-7.00662
▁cant	-7.00798
▁made	-7.03835
▁though	-7.04527
▁through	-7.08813
▁well	-7.09132
▁here	-7.09179
▁got	-7.09915
▁our	-7.09965
▁down	-7.11137
▁someone	-7.13204
▁never	-7.13501
▁didnt	-7.13666
▁those	-7.13799
▁where	-7.14114
▁feelings	-7.14585
▁lot	-7.1503
▁any	-7.15882
▁felt	-7.15926
▁find	-7.16237
n	-7.19391
▁every	-7.20162
▁happy	-7.20322
▁less	-7.20668
▁sure	-7.20979
▁having	-7.21941
▁quite	-7.22603
▁days	-7.23133
▁doing	-7.24511
▁home	-7.25234
▁enough	-7.25601
▁makes	-7.26331
▁many	-7.27052
▁take	-7.27233
es	-7.28139
▁off	-7.28738
▁kind	-7.28953
▁look	-7.30407
▁come	-7.31754
▁anything	-7.31883
▁away	-7.32396
▁person	-7.33989
▁last	-7.34439
▁why	-7.34441
▁left	-7.34806
▁better	-7.35551
▁everything	-7.35553
▁keep	-7.37057
▁own	-7.371
▁without	-7.3717
▁new	-7.37235
▁ever	-7.37285
▁before	-7.37865
▁world	-7.40929
▁us	-7.41158
▁friends	-7.42152
▁re	-7.42281
▁sometimes	-7.42548
▁while	-7.42558
a	-7.43689
al	-7.4449
▁such	-7.4455
▁few	-7.44951
▁remember	-7.45113
▁thought	-7.45792
▁http	-7.4619
ther	-7.46794
▁actually	-7.47077
▁thing	-7.47622
▁started	-7.47849
▁year	-7.49763
▁let	-7.49877
▁week	-7.49914
▁trying	-7.50504
▁feels	-7.50859
▁first	-7.51309
▁gett	-7.53045
▁un	-7.53506
▁able	-7.54232
▁family	-7.54874
▁said	-7.55327
▁w	-7.55378
▁long	-7.55586
▁tell	-7.55678
▁bad	-7.56068
▁give	-7.56643
r	-7.56822
m	-7.57092
▁part	-7.57411
▁try	-7.58584
▁href	-7.61432
▁mak	-7.61614
▁times	-7.6338
▁end	-7.64358
▁start	-7.64488
▁read	-7.65292
▁heart	-7.65735
o	-7.66565
▁already	-7.66906
▁talk	-7.66913
▁since	-7.67391
▁alone	-7.67936
▁ill	-7.68653
▁same	-7.68981
▁strange	-7.69439
▁two	-7.71086
▁hard	-7.71538
▁put	-7.71647
▁morning	-7.72157
▁nothing	-7.72708
▁place	-7.7297
▁often	-7.73302
▁write	-7.73732
▁others	-7.74309
▁strong	-7.74337
▁yet	-7.74338
▁blog	-7.74447
▁night	-7.74584
▁post	-7.75256
▁god	-7.75959
▁sweet	-7.76008
▁years	-7.76128
▁hate	-7.76604
▁stressed	-7.76707
▁might	-7.77139
▁ra	-7.77423
▁hope	-7.78207
▁may	-7.78319
▁moment	-7.78607
▁watch	-7.79099
▁weird	-7.79423
▁hurt	-7.80355
▁sad	-7.8057
▁amazing	-7.80589
▁school	-7.80589
▁overwhelmed	-7.80591
▁ve	-7.81414
▁guess	-7.81769
▁point	-7.82123
▁didn	-7.82436
▁another	-7.83565
▁pain	-7.83699
▁enjoy	-7.84151
▁whole	-7.84265
▁stop	-7.85404
▁everyone	-7.87262
▁anyone	-7.87262
▁looking	-7.87792
▁excited	-7.87922
▁angry	-7.8852
▁each	-7.89158
▁old	-7.90362
▁done	-7.90451
▁lost	-7.90475
i	-7.90644
▁once	-7.90792
▁loved	-7.92064
▁thinking	-7.92151
▁almost	-7.92404
re	-7.92846
▁friend	-7.93041
▁completely	-7.93901
cially	-7.94289
▁face	-7.94331
▁wanted	-7.94366
▁else	-7.94405
▁blessed	-7.94418
g	-7.94732
▁went	-7.94849
▁great	-7.94944
▁next	-7.95079
▁maybe	-7.95084
▁believe	-7.95666
▁self	-7.95748
▁passionate	-7.95761
▁body	-7.95793
▁free	-7.96434
▁important	-7.96453
▁accepted	-7.96523
▁walk	-7.98051
in	-7.98299
▁fact	-7.98372
▁helpless	-7.98582
p	-7.99217
▁writing	-7.99233
▁cold	-7.99246
▁hated	-7.99633
▁does	-7.99751
▁must	-8.0066
▁sleep	-8.00841
▁understand	-8.01066
espe	-8.01126
ably	-8.0114
▁past	-8.01184
▁real	-8.01637
▁show	-8.02067
▁care	-8.04079
▁tired	-8.04275
▁use	-8.04617
▁call	-8.04658
▁stupid	-8.05028
▁afraid	-8.05053
▁least	-8.05809
▁man	-8.06106
▁d	-8.0637
▁book	-8.06708
▁sense	-8.0676
▁wonder	-8.0725
▁wish	-8.07272
▁agitated	-8.07325
▁mean	-8.07489
▁head	-8.08085
▁particular	-8.08094
▁turn	-8.08094
▁job	-8.08096
▁final	-8.08154
▁reason	-8.08241
▁leave	-8.08244
▁inside	-8.08254
▁towards	-8.087
▁sort	-8.09017
▁won	-8.09964
▁full	-8.1023
▁share	-8.10281
▁mind	-8.10595
st	-8.10959
▁best	-8.11048
▁until	-8.11232
▁starting	-8.11259
▁girl	-8.11434
l	-8.11736
▁found	-8.12018
▁told	-8.12038
▁usual	-8.12039
▁wonderful	-8.12114
▁hear	-8.12261
▁lately	-8.12283
▁anxious	-8.12838
ness	-8.12949
▁thankful	-8.13658
▁far	-8.13774
▁seem	-8.14778
▁live	-8.15594
▁used	-8.15741
▁special	-8.16971
▁stay	-8.17003
▁coming	-8.17119
ting	-8.17306
▁supporting	-8.17592
▁generous	-8.17818
▁class	-8.17897
▁sorry	-8.17916
▁become	-8.18137
▁glad	-8.18673
▁nervous	-8.18673
▁wasnt	-8.19333
▁depressed	-8.19558
▁slightly	-8.19582
▁house	-8.20414
▁taking	-8.20431
ies	-8.20437
c	-8.20606
▁words	-8.21103
▁extreme	-8.21286
▁ok	-8.21293
▁prob	-8.22118
▁deep	-8.2214
▁loving	-8.22167
▁cool	-8.2217
▁guilty	-8.22232
▁close	-8.2275
▁move	-8.23136
▁amp	-8.23242
▁safe	-8.23957
▁perfect	-8.24194
▁low	-8.24748
▁reading	-8.24883
▁came	-8.24908
ion	-8.25465
▁certain	-8.25787
▁stuff	-8.25787
▁lonely	-8.25802
▁scared	-8.26764
▁totally	-8.26836
▁dur	-8.26941
▁emotional	-8.27027
▁working	-8.27044
▁months	-8.27457
▁r	-8.27588
▁frustrated	-8.27649
able	-8.27718
▁positive	-8.28591
▁proud	-8.28591
▁fine	-8.28628
▁child	-8.29526
▁comfortable	-8.29552
▁spend	-8.29555
on	-8.29738
▁c	-8.29963
▁realize	-8.30027
▁woke	-8.30507
▁hot	-8.31439
▁saying	-8.31782
▁confident	-8.32459
▁rest	-8.32522
▁run	-8.32639
▁change	-8.32789
▁kids	-8.32998
truly	-8.33637
▁admit	-8.34486
en	-8.3516
▁big	-8.35302
▁exhausted	-8.35473
▁id	-8.35821
▁high	-8.36473
▁under	-8.3648
▁cannot	-8.36489
▁eat	-8.36498
▁super	-8.3657
▁wrong	-8.37026
▁room	-8.37526
▁cause	-8.37595
▁hopeful	-8.37744
▁thoughts	-8.37903
▁eyes	-8.37941
▁mad	-8.38459
▁awkward	-8.38549
▁ashamed	-8.38553
ce	-8.39264
▁spent	-8.39602
▁children	-8.39604
▁open	-8.39606
▁tortured	-8.39623
▁experience	-8.40082
▁baby	-8.40651
▁beloved	-8.40666
▁terrified	-8.40666
▁together	-8.40666
▁missed	-8.41138
▁content	-8.41264
▁matter	-8.41384
▁future	-8.41742
▁calm	-8.41746
▁funny	-8.41747
▁bothered	-8.41838
▁decided	-8.4186
▁doesnt	-8.4194
▁miss	-8.42692
▁creative	-8.42828
▁embarrassed	-8.42828
▁awful	-8.42829
▁bed	-8.42947
gan	-8.43103
▁hand	-8.43285
▁knew	-8.43927
▁miserable	-8.43927
▁story	-8.43931
▁anymore	-8.43931
▁ask	-8.44053
▁mother	-8.44063
▁idea	-8.44664
▁caring	-8.44863
▁hours	-8.44875
ity	-8.44915
▁amazed	-8.45038
▁wear	-8.45613
▁b	-8.45673
ers	-8.45786
▁unhappy	-8.46162
▁irritable	-8.46162
▁pleasant	-8.46162
▁lucky	-8.46212
▁control	-8.46229
▁sit	-8.46661
▁energy	-8.47298
▁instead	-8.47298
▁inspired	-8.47308
▁horrible	-8.47323
or	-8.47538
▁ago	-8.47766
▁liked	-8.47966
ment	-8.47974
te	-8.48026
▁both	-8.48201
▁women	-8.48448
▁living	-8.48451
▁brave	-8.48471
▁disappointed	-8.48472
▁deal	-8.48498
▁cute	-8.48573
▁weeks	-8.48701
h	-8.49239
▁somewhat	-8.4961
▁shitty	-8.49616
▁successful	-8.49617
▁surprised	-8.49656
▁confused	-8.49664
▁talented	-8.49664
▁between	-8.50787
▁uncertain	-8.50787
▁rich	-8.50787
▁seems	-8.51626
▁fun	-8.51729
▁satisfied	-8.51977
▁uncomfortable	-8.51977
▁running	-8.51978
▁popular	-8.51979
▁terrible	-8.52039
▁car	-8.5234
f	-8.52445
▁food	-8.52924
▁punished	-8.53182
▁somehow	-8.53182
▁lovely	-8.53196
▁selfish	-8.53204
▁buy	-8.53212
▁useless	-8.53214
▁annoyed	-8.5322
▁longer	-8.53446
less	-8.53509
est	-8.53544
▁mom	-8.54181
▁situation	-8.54221
▁side	-8.54301
▁unsure	-8.54403
▁dull	-8.55639
▁woman	-8.55639
▁discouraged	-8.55645
▁normal	-8.55712
▁listen	-8.55876
▁happen	-8.56002
▁guy	-8.56786
▁hopeless	-8.56897
▁giving	-8.56903
▁al	-8.57076
▁fuck	-8.57796
▁small	-8.58047
▁talking	-8.58135
▁incredibl	-8.58152
▁lethargic	-8.58152
▁vulnerable	-8.58152
▁curious	-8.58152
▁money	-8.58154
▁irritated	-8.58158
▁greedy	-8.58161
▁sitt	-8.58761
▁useful	-8.59459
▁absolutely	-8.59479
▁convinced	-8.5948
▁kinda	-8.59654
▁knowing	-8.59823
▁light	-8.59882
▁music	-8.60328
▁smart	-8.60733
▁empty	-8.60733
▁violent	-8.60733
▁weekend	-8.60733
▁dumb	-8.60733
▁pissed	-8.60761
▁offended	-8.60791
▁ll	-8.61549
▁hair	-8.61713
▁whe	-8.61858
▁hold	-8.61884
▁numb	-8.61892
ought	-8.61979
▁insecure	-8.62048
▁couple	-8.62049
▁rude	-8.62059
▁devastated	-8.62077
▁determined	-8.62091
▁insulted	-8.62096
▁relaxed	-8.62211
▁needed	-8.62604
ive	-8.62642
▁asked	-8.62661
▁soon	-8.63038
▁apprehensive	-8.63382
▁gorgeous	-8.63382
▁resentful	-8.63383
▁impressed	-8.63384
▁isolated	-8.63392
▁either	-8.63431
▁rushed	-8.63469
▁bitter	-8.6347
▁sincere	-8.63476
▁nice	-8.64056
▁different	-8.64069
▁relationship	-8.64687
▁sick	-8.64702
▁precious	-8.64733
▁ugly	-8.64733
▁wake	-8.64737
▁vain	-8.64738
▁rejected	-8.64764
▁valued	-8.64775
▁shy	-8.64785
▁aching	-8.64897
▁against	-8.64898
▁took	-8.65099
ww	-8.65449
▁jealous	-8.65889
▁comes	-8.65923
▁energetic	-8.66103
▁homesick	-8.66103
▁husband	-8.66103
▁sympathetic	-8.66103
▁melancholy	-8.66107
▁support	-8.66302
▁set	-8.66522
▁trust	-8.67274
▁beautiful	-8.67492
▁disgusted	-8.67492
▁half	-8.67492
▁pathetic	-8.67492
▁unwelcome	-8.67492
▁speak	-8.67501
▁definite	-8.67516
▁shaken	-8.67525
▁young	-8.67567
▁burdened	-8.67644
b	-8.67848
▁fucked	-8.68022
▁happened	-8.6803
▁f	-8.68387
▁ga	-8.68845
▁blank	-8.68859
▁cranky	-8.689
▁innocent	-8.689
▁faithful	-8.68908
▁gloomy	-8.68908
▁assured	-8.68909
▁dream	-8.68917
▁joyful	-8.6892
▁tonight	-8.69187
an	-8.69555
▁simp	-8.69727
▁grow	-8.70313
▁second	-8.70316
▁groggy	-8.70329
▁divine	-8.7033
u	-8.70368
▁tender	-8.70414
▁however	-8.70551
▁parents	-8.7069
le	-8.71086
ll	-8.71749
▁crappy	-8.71778
▁dissatisfied	-8.71778
▁valuable	-8.71778
▁reluctant	-8.71779
▁dangerous	-8.71779
▁paranoid	-8.7178
▁worthless	-8.71792
▁bitchy	-8.71858
▁pressured	-8.7193
us	-8.72031
▁respected	-8.72072
▁th	-8.73177
▁exact	-8.73249
▁hesitant	-8.73249
▁yesterday	-8.73249
▁course	-8.73256
▁peaceful	-8.73259
▁productive	-8.73261
▁front	-8.73266
▁joy	-8.7328
▁distracted	-8.73281
▁weight	-8.73294
▁ignored	-8.7336
▁g	-8.73382
▁honestly	-8.73651
▁song	-8.7369
▁ready	-8.73859
ally	-8.74047
▁de	-8.74127
ever	-8.74576
▁christmas	-8.74741
▁humiliated	-8.74742
▁romantic	-8.74742
▁beaten	-8.74749
▁lack	-8.74751
▁drained	-8.74767
▁defeated	-8.74774
▁honored	-8.74774
▁skin	-8.74938
▁pleased	-8.74947
▁whatever	-8.74982
▁mine	-8.7501
▁longing	-8.75083
▁men	-8.75709
▁touch	-8.75939
▁play	-8.76128
▁eager	-8.76256
▁heartbroken	-8.76256
▁superior	-8.76256
▁unimportant	-8.76256
▁optimistic	-8.76257
▁dirty	-8.76261
▁intimidated	-8.76282
▁upset	-8.76309
▁p	-8.76693
▁wait	-8.76773
▁e	-8.77523
▁books	-8.77531
▁friendly	-8.77723
▁clever	-8.77795
▁festive	-8.77795
▁gentle	-8.77795
▁inadequate	-8.77795
▁worthwhile	-8.77795
▁mellow	-8.77797
▁allow	-8.77809
▁thrilled	-8.77858
▁plan	-8.78846
▁girls	-8.78957
▁hes	-8.79279
▁broke	-8.79282
▁disheartened	-8.79357
▁mood	-8.79358
▁three	-8.79358
▁smile	-8.79358
▁boring	-8.79359
▁tried	-8.79359
▁petty	-8.79359
▁near	-8.7936
▁list	-8.79452
▁gone	-8.79461
▁emotions	-8.79951
▁cry	-8.79957
▁follow	-8.79977
th	-8.80021
▁naughty	-8.80945
▁entire	-8.80945
▁fake	-8.80948
▁nostalgic	-8.80948
▁threatened	-8.80979
▁damaged	-8.80989
▁troubled	-8.80999
▁n	-8.81104
▁stand	-8.8153
▁lives	-8.8203
ful	-8.82547
▁unfortunate	-8.82558
▁lousy	-8.82558
▁true	-8.82558
▁ways	-8.82594
▁name	-8.8277
▁hour	-8.82799
v	-8.83378
▁outside	-8.84177
▁horny	-8.84197
▁fair	-8.84199
▁regretful	-8.84202
▁acceptable	-8.84207
▁style	-8.8421
▁reach	-8.8421
▁shaky	-8.84216
▁supportive	-8.8422
▁resolved	-8.84223
▁order	-8.84308
▁game	-8.84319
▁suddenly	-8.8435
ic	-8.8453
ur	-8.84972
▁waiting	-8.853
▁delicious	-8.85864
▁summer	-8.85865
▁restless	-8.85897
▁welcomed	-8.85909
▁fear	-8.86086
▁continue	-8.86187
▁suffering	-8.86357
▁break	-8.86514
k	-8.86739
▁bring	-8.86943
▁rotten	-8.87559
▁oh	-8.87573
▁disturbed	-8.87596
▁add	-8.8764
▁shocked	-8.87653
▁guys	-8.87748
▁supposed	-8.87763
▁wronged	-8.88358
▁called	-8.88664
▁type	-8.88788
ation	-8.88805
▁needs	-8.8927
▁discontent	-8.89283
▁honoured	-8.89283
▁impatient	-8.89283
▁lame	-8.89286
▁intelligent	-8.89288
▁relieved	-8.89297
▁mention	-8.89302
▁team	-8.8931
▁later	-8.89346
▁learn	-8.89413
▁along	-8.89461
▁treat	-8.89526
▁given	-8.89563
▁month	-8.89641
▁word	-8.89749
▁wanting	-8.89964
▁fall	-8.90008
▁finish	-8.90555
w	-8.90661
▁remind	-8.90748
▁loyal	-8.91025
▁behind	-8.91037
▁grateful	-8.91037
▁grumpy	-8.91037
▁ungrateful	-8.91037
▁virtuous	-8.91037
▁country	-8.91046
▁fearful	-8.91053
▁human	-8.9135
▁boy	-8.91492
▁toward	-8.91904
▁consider	-8.92303
ather	-8.92543
is	-8.92636
▁eating	-8.92807
▁fabulous	-8.92823
▁terrific	-8.92823
▁fantastic	-8.92824
▁chance	-8.92825
▁frightened	-8.92828
▁deprived	-8.92836
▁phone	-8.92853
▁doomed	-8.92853
▁needy	-8.92902
▁taken	-8.9323
▁hands	-8.93313
▁trusting	-8.94149
▁focus	-8.94151
▁adventurous	-8.94641
▁fond	-8.94643
▁privileged	-8.94656
though	-8.9466
▁listless	-8.94664
▁wasn	-8.94719
▁generally	-8.95129
▁problems	-8.95514
▁trip	-8.96099
▁sat	-8.9642
▁carefree	-8.96493
▁smug	-8.96493
▁rebellious	-8.96493
▁leaving	-8.96493
▁forward	-8.9663
▁act	-8.97647
▁meet	-8.9775
▁stress	-8.97901
▁hit	-8.97989
▁co	-8.98234
▁struggle	-8.9838
▁etc	-8.9838
▁saw	-8.98382
▁foolish	-8.98382
▁artistic	-8.98387
▁water	-8.98391
▁reassured	-8.98399
▁throw	-8.98407
▁single	-8.9842
▁met	-8.98507
▁race	-8.98529
▁desire	-8.99213
ish	-8.99247
▁isnt	-8.99693
▁pass	-8.99705
▁answer	-8.9979
▁explain	-8.99794
▁within	-9.00039
▁push	-9.00299
▁invigorated	-9.00303
▁pay	-9.00419
▁movie	-9.00839
▁question	-9.00856
▁minutes	-9.01035
▁age	-9.01103
ne	-9.01414
▁learning	-9.01446
at	-9.01675
▁u	-9.01997
▁suppose	-9.02028
▁stubborn	-9.02263
▁amount	-9.02264
▁casual	-9.02264
▁beginning	-9.02264
▁utter	-9.02289
▁space	-9.02329
▁constantly	-9.02511
se	-9.02742
▁begin	-9.02743
▁goes	-9.03026
ry	-9.03046
▁pick	-9.03568
▁fit	-9.03858
▁line	-9.03921
▁ecstatic	-9.04263
▁jaded	-9.04264
▁triumphant	-9.04264
▁vital	-9.04264
▁spirit	-9.04266
▁attention	-9.04277
▁abused	-9.04309
▁late	-9.04523
▁students	-9.04651
ie	-9.04776
▁short	-9.04804
▁learned	-9.04823
il	-9.04938
out	-9.05301
▁walked	-9.05665
▁damn	-9.0579
▁ones	-9.06112
▁shit	-9.06297
▁unloved	-9.06304
▁easy	-9.06311
▁art	-9.06404
▁please	-9.06461
▁telling	-9.06781
▁party	-9.07228
▁comments	-9.07319
▁worth	-9.08162
▁delicate	-9.08388
▁submissive	-9.08388
▁moving	-9.0839
▁warm	-9.08414
▁yes	-9.08419
▁father	-9.08476
▁lose	-9.08569
▁red	-9.08943
▁group	-9.09066
▁br	-9.09149
▁air	-9.09232
▁contented	-9.09334
▁loss	-9.09624
▁expect	-9.10015
▁personal	-9.10218
▁peace	-9.105
▁envious	-9.10515
▁opportunity	-9.10515
▁perhaps	-9.10515
▁skeptical	-9.10515
▁stomach	-9.10515
▁voice	-9.10515
▁frantic	-9.10516
▁four	-9.10522
▁possible	-9.1053
▁worried	-9.10538
▁appreciative	-9.1054
▁tomorrow	-9.10605
▁due	-9.10652
▁healthy	-9.10725
▁sever	-9.10801
▁upon	-9.11189
▁seen	-9.11416
▁moments	-9.11435
▁dis	-9.11543
el	-9.12282
▁tend	-9.12656
▁unpleasant	-9.12689
▁church	-9.12689
▁doesn	-9.12815
▁lie	-9.13174
▁sound	-9.13512
it	-9.14259
▁top	-9.14274
▁pull	-9.14422
▁imagine	-9.1467
▁pray	-9.14828
▁despi	-9.14888
▁putt	-9.14901
▁dazed	-9.14911
▁forget	-9.14921
▁connection	-9.14943
▁easily	-9.14948
▁early	-9.15166
▁seriously	-9.15193
ty	-9.15286
▁v	-9.16035
▁son	-9.16212
▁means	-9.16944
▁k	-9.16976
▁kept	-9.17185
▁negative	-9.17207
▁sun	-9.17236
▁amused	-9.17245
▁messy	-9.17326
▁cut	-9.17514
▁arms	-9.17923
▁piece	-9.18086
▁offer	-9.182
▁st	-9.18437
▁honest	-9.18879
▁anger	-9.1906
▁wearing	-9.19299
▁figure	-9.19463
▁dark	-9.19493
▁crazy	-9.1951
▁tragic	-9.1951
▁src	-9.1951
▁sentimental	-9.19512
▁brain	-9.19519
▁anyway	-9.1955
▁distressed	-9.19572
ri	-9.20104
▁state	-9.20151
▁characters	-9.20574
▁general	-9.21253
▁respect	-9.2141
▁known	-9.21481
▁health	-9.21686
▁except	-9.21733
▁missing	-9.21746
▁count	-9.21811
▁death	-9.21891
▁suspicious	-9.21891
▁mix	-9.21901
▁community	-9.21902
▁doubtful	-9.21904
▁recently	-9.22069
▁clean	-9.2213
▁worse	-9.22142
▁pre	-9.22195
▁describe	-9.2225
▁step	-9.22517
▁tears	-9.22521
sh	-9.22556
▁pressure	-9.22615
x	-9.22719
▁heard	-9.22731
▁level	-9.22865
▁los	-9.23168
▁worry	-9.23253
▁drink	-9.23278
▁questions	-9.23635
▁kiss	-9.24083
▁possib	-9.24312
▁difficult	-9.2433
▁themselves	-9.2433
▁attempt	-9.2433
▁keen	-9.24336
▁hang	-9.24347
▁delighted	-9.24443
▁worked	-9.24494
▁quickly	-9.24544
▁hell	-9.24745
ous	-9.24799
▁o	-9.24814
▁finished	-9.25015
man	-9.25085
▁truth	-9.25275
▁case	-9.25341
▁decision	-9.25403
▁picture	-9.25419
▁complete	-9.26056
▁visit	-9.26232
▁express	-9.26235
ily	-9.26489
▁looks	-9.2662
▁process	-9.26831
▁black	-9.26831
▁playful	-9.26854
▁kid	-9.27015
ma	-9.27052
▁hop	-9.27582
▁mo	-9.27582
▁couldn	-9.27764
▁kick	-9.27936
▁effort	-9.27962
▁issues	-9.2797
▁project	-9.27974
▁pictures	-9.28261
▁return	-9.28897
▁ex	-9.29005
▁appreciate	-9.29155
▁disillusioned	-9.29394
▁glamorous	-9.29394
▁everyday	-9.29394
▁check	-9.29395
▁stories	-9.29395
rote	-9.29395
▁wife	-9.29398
▁idiotic	-9.29402
▁cover	-9.29413
▁title	-9.29432
ter	-9.29603
as	-9.29685
▁readers	-9.30175
▁realiz	-9.30194
▁allowed	-9.30205
▁personally	-9.30287
▁dog	-9.30657
▁meeting	-9.30819
▁rain	-9.30971
▁crying	-9.31087
▁thank	-9.31159
▁door	-9.31311
▁clear	-9.31395
cross	-9.31825
▁decide	-9.31826
▁extra	-9.31856
▁sex	-9.31859
▁college	-9.32025
▁freak	-9.32025
▁presence	-9.32025
▁remorseful	-9.32027
▁doubt	-9.32027
ia	-9.32064
▁avoid	-9.32108
▁simple	-9.32461
ar	-9.32592
▁physically	-9.32601
▁looked	-9.32979
▁sister	-9.3326
▁choice	-9.33309
▁news	-9.33456
▁listening	-9.34242
anna	-9.34464
▁subject	-9.34728
▁gotten	-9.34745
▁fast	-9.34771
▁huge	-9.34827
▁busy	-9.34872
▁di	-9.34912
▁breath	-9.35079
ra	-9.35081
▁weather	-9.35093
▁sleeping	-9.35899
▁color	-9.36071
▁gift	-9.36074
▁dad	-9.36157
▁shar	-9.36252
▁fight	-9.36699
▁ha	-9.37015
▁social	-9.37154
▁guilt	-9.37313
▁yourself	-9.37506
▁hostile	-9.37507
▁blogging	-9.37586
▁sadness	-9.37649
▁area	-9.37967
▁training	-9.38135
▁photos	-9.38332
ta	-9.38391
▁film	-9.38889
▁happens	-9.38928
▁comment	-9.38966
▁number	-9.3906
▁emotionally	-9.39464
▁win	-9.39659
▁per	-9.39804
▁fi	-9.39868
▁ground	-9.39889
▁create	-9.40125
▁asking	-9.40233
na	-9.40244
▁spot	-9.40351
▁beyond	-9.40363
▁computer	-9.40363
▁grouchy	-9.40363
▁daughter	-9.40363
▁sociable	-9.40363
▁progress	-9.40364
▁quiet	-9.40364
▁choose	-9.40397
▁managed	-9.40559
▁nor	-9.40563
age	-9.40684
▁passed	-9.41091
▁boyfriend	-9.41807
▁problem	-9.42091
▁soul	-9.42579
▁physical	-9.42667
▁comfort	-9.42724
▁reasons	-9.42739
▁happening	-9.4277
▁fail	-9.42822
▁says	-9.43003
▁helping	-9.43198
▁ended	-9.43205
▁strength	-9.43278
▁public	-9.43279
▁lead	-9.43296
▁complacent	-9.43304
▁indecisive	-9.43304
▁inhibited	-9.43304
▁purpose	-9.43304
▁remain	-9.43304
▁smell	-9.43306
▁clothes	-9.43307
▁anxiety	-9.43308
▁dinner	-9.43308
▁happiness	-9.43314
▁text	-9.43317
▁power	-9.43322
▁hateful	-9.43383
▁entertained	-9.43384
▁catch	-9.43432
▁main	-9.43468
ary	-9.43578
▁ahead	-9.4364
▁lett	-9.44353
▁evening	-9.44487
▁paper	-9.44839
▁season	-9.44871
▁result	-9.44919
id	-9.45747
▁view	-9.46162
▁company	-9.46334
▁distraught	-9.46334
▁further	-9.46334
▁knowledge	-9.46334
▁lazy	-9.46334
▁pregnant	-9.46334
▁system	-9.46334
▁difference	-9.46335
▁lord	-9.46335
aught	-9.46336
▁daily	-9.46341
▁con	-9.46368
▁blue	-9.46398
▁j	-9.46419
▁media	-9.47129
▁ideas	-9.47137
▁present	-9.47456
▁character	-9.4766
▁results	-9.4777
bility	-9.4797
ted	-9.47979
▁conversation	-9.48028
▁issue	-9.48071
ck	-9.48601
tion	-9.48625
▁pro	-9.48879
▁posting	-9.48958
▁songs	-9.49292
▁drive	-9.49295
▁terribl	-9.49296
▁die	-9.4931
▁large	-9.49405
▁brother	-9.49456
▁desperate	-9.49459
▁himself	-9.49459
▁memories	-9.49459
▁sexual	-9.49464
▁crap	-9.49467
▁okay	-9.49477
▁onto	-9.49626
▁vi	-9.4973
▁lol	-9.49827
▁slowly	-9.50023
z	-9.50071
▁wants	-9.50425
▁shouldnt	-9.50789
et	-9.51578
and	-9.52341
▁author	-9.52661
▁genuine	-9.52685
▁street	-9.52685
▁sunday	-9.52685
▁target	-9.52685
▁search	-9.52685
▁odd	-9.52686
▁compassionate	-9.52687
▁written	-9.52687
▁stuck	-9.52689
▁information	-9.52689
▁gracious	-9.52689
▁nature	-9.52689
▁taste	-9.52694
▁chest	-9.52696
▁stopped	-9.52699
▁feet	-9.527
▁ache	-9.52705
▁devoted	-9.52705
▁assaulted	-9.52725
▁earth	-9.52731
▁hat	-9.52982
▁date	-9.53183
▁older	-9.53197
▁la	-9.53303
▁expected	-9.5343
▁dress	-9.5431
▁laugh	-9.5445
▁eye	-9.54499
▁holiday	-9.54589
▁non	-9.54685
▁complain	-9.55585
▁lay	-9.55652
▁cat	-9.55699
▁dance	-9.55891
▁shake	-9.56009
▁sarcastic	-9.56019
▁similar	-9.56019
▁jolly	-9.5602
▁beauty	-9.56022
▁series	-9.56031
▁freedom	-9.56031
▁fault	-9.56036
▁somewhere	-9.56051
▁jump	-9.5606
▁charming	-9.56073
▁heartless	-9.56153
▁shamed	-9.56161
▁rare	-9.56208
▁shoes	-9.56247
ling	-9.56323
▁interesting	-9.5654
▁career	-9.56926
▁notice	-9.57194
▁exercise	-9.57577
▁ma	-9.57593
▁sing	-9.57696
▁deserve	-9.57743
▁mess	-9.57816
▁page	-9.58072
ba	-9.58127
▁h	-9.58154
▁playing	-9.58328
▁suffer	-9.58444
rew	-9.59099
ke	-9.59099
▁faith	-9.59453
▁afternoon	-9.59467
▁birthday	-9.59467
▁weepy	-9.59467
▁itself	-9.59467
▁stick	-9.59467
▁straight	-9.59467
▁favorite	-9.59468
▁earlier	-9.5947
▁message	-9.59475
▁fix	-9.59477
▁society	-9.59478
▁facebook	-9.59481
▁partner	-9.59507
▁x	-9.59535
▁city	-9.59547
▁path	-9.59574
▁betrayed	-9.59578
iddle	-9.59657
▁hide	-9.60219
▁test	-9.60229
▁posts	-9.61296
▁en	-9.61757
▁bar	-9.61989
▁boys	-9.62286
▁l	-9.62336
▁slow	-9.62406
▁rel	-9.62654
▁office	-9.62955
he	-9.63
▁dead	-9.63004
▁elegant	-9.63038
▁obnoxious	-9.63038
▁struggling	-9.63038
▁mouth	-9.63039
▁business	-9.63042
▁culture	-9.63043
▁review	-9.63062
▁basic	-9.63066
ill	-9.63087
▁silly	-9.63151
▁relationships	-9.63162
▁gut	-9.63171
ated	-9.63398
▁white	-9.63415
▁situations	-9.63577
▁practice	-9.6369
▁members	-9.63691
ine	-9.63751
▁tv	-9.63758
▁provide	-9.64191
▁fans	-9.64249
ol	-9.64466
▁rock	-9.6449
▁leg	-9.64674
▁ran	-9.65185
▁fat	-9.65238
▁emotion	-9.65267
▁minute	-9.65335
ge	-9.65434
▁draw	-9.65682
▁lively	-9.65875
▁handle	-9.66372
▁cross	-9.66528
tight	-9.66578
▁dreams	-9.66712
▁secret	-9.66732
um	-9.66734
▁confidence	-9.66742
▁episode	-9.66742
▁awesome	-9.66742
▁six	-9.66747
▁enter	-9.66751
▁pride	-9.66754
▁road	-9.66836
▁pop	-9.669
▁feed	-9.66967
▁wo	-9.67387
ts	-9.67534
un	-9.67541
red	-9.67562
▁experienced	-9.67589
▁wall	-9.67791
▁meant	-9.67796
▁form	-9.68124
▁badly	-9.68248
▁event	-9.68282
▁understanding	-9.68386
ng	-9.68676
▁thanks	-9.68815
▁challenge	-9.68901
▁falling	-9.68984
▁realise	-9.69253
ized	-9.69294
li	-9.69816
▁relax	-9.70094
▁bitch	-9.70118
▁manage	-9.70317
▁discover	-9.70365
▁blood	-9.70367
▁friday	-9.70588
▁journey	-9.70588
▁doctor	-9.70588
▁regular	-9.7059
▁above	-9.7059
▁send	-9.70592
▁winter	-9.70604
▁bouncy	-9.70613
▁blamed	-9.70697
▁bare	-9.70782
▁soft	-9.70799
▁noticed	-9.71033
▁filled	-9.71039
▁beside	-9.71042
▁mentally	-9.71162
▁currently	-9.71211
▁harder	-9.71329
▁changed	-9.71536
▁changes	-9.72259
▁bus	-9.72323
▁projects	-9.72772
me	-9.72916
▁ro	-9.7325
▁li	-9.73294
▁kill	-9.73578
▁belong	-9.73633
▁travel	-9.7375
gonna	-9.73811
▁leaves	-9.73843
▁current	-9.73965
▁size	-9.7409
▁join	-9.742
▁fo	-9.74235
ism	-9.74452
▁weak	-9.74501
▁forgive	-9.74558
▁regard	-9.74569
▁major	-9.74588
▁outraged	-9.74588
▁neglectful	-9.74594
▁girlfriend	-9.74595
▁stunned	-9.74599
▁awake	-9.746
▁foot	-9.74603
▁fearless	-9.74637
▁received	-9.74749
▁star	-9.74752
▁isn	-9.74755
▁develop	-9.74876
▁aware	-9.75025
▁folks	-9.75087
ard	-9.75333
▁wi	-9.75344
▁haven	-9.755
▁lived	-9.75762
▁legs	-9.76157
ance	-9.76197
▁inter	-9.76325
▁wor	-9.76438
▁heat	-9.76452
nce	-9.76467
▁pa	-9.76703
▁choices	-9.76744
▁grand	-9.76799
▁breathe	-9.76995
▁accept	-9.77163
▁sweat	-9.77995
▁suck	-9.78115
▁fill	-9.78311
▁gain	-9.7837
▁depend	-9.78379
ze	-9.78429
▁mum	-9.78446
▁cheer	-9.78502
▁save	-9.78606
am	-9.78694
▁victim	-9.78749
▁contact	-9.78755
▁fresh	-9.78755
▁internet	-9.78755
▁involved	-9.78755
▁monday	-9.78755
▁overall	-9.78755
▁local	-9.78756
▁shut	-9.78759
▁distance	-9.78759
▁price	-9.78761
▁considerate	-9.78768
▁graceful	-9.78769
▁poor	-9.7878
▁field	-9.78793
▁bored	-9.78811
▁wedding	-9.78827
▁immediately	-9.78852
▁tough	-9.78866
▁reality	-9.78884
▁annoying	-9.79045
▁online	-9.79108
▁fan	-9.79348
▁sore	-9.79522
▁studying	-9.79624
▁fingers	-9.79706
ff	-9.79841
▁events	-9.80581
▁forever	-9.80904
▁bi	-9.80992
ns	-9.81245
ah	-9.81249
▁sea	-9.81411
▁window	-9.81554
▁video	-9.81558
▁service	-9.81575
▁arm	-9.81599
by	-9.81663
da	-9.82181
▁mental	-9.82443
▁burden	-9.82624
▁release	-9.8283
▁bag	-9.82955
▁flow	-9.8301
ture	-9.83021
▁roll	-9.83044
▁goal	-9.83064
▁success	-9.83078
▁regret	-9.83088
▁idiot	-9.83088
▁coffee	-9.83103
▁email	-9.83103
▁married	-9.83103
▁universe	-9.83103
▁blow	-9.83103
▁potential	-9.83103
▁blah	-9.83109
▁spiritual	-9.8311
▁depression	-9.83112
▁chocolate	-9.83118
▁stage	-9.83124
▁pair	-9.8313
▁lady	-9.83141
▁repressed	-9.83157
▁tad	-9.83313
la	-9.83445
▁tight	-9.83472
▁appreciated	-9.83527
▁miles	-9.83708
▁wind	-9.83918
ist	-9.84175
▁products	-9.84293
▁experiences	-9.8456
▁table	-9.84668
ory	-9.84668
▁hurts	-9.84894
▁da	-9.84973
▁fly	-9.85452
▁drop	-9.85573
▁link	-9.85613
▁yog	-9.85634
way	-9.85892
▁becomes	-9.8608
▁audience	-9.86099
▁scene	-9.86128
▁direction	-9.86165
▁artist	-9.86179
▁environment	-9.86224
▁sign	-9.86249
▁perfectly	-9.86305
▁train	-9.865
▁program	-9.86513
▁hid	-9.86867
▁lo	-9.86936
▁card	-9.87148
▁tool	-9.87201
▁na	-9.87349
▁agree	-9.87358
▁works	-9.874
▁luck	-9.87451
▁hug	-9.87508
▁design	-9.8753
▁apart	-9.87628
▁surround	-9.87633
▁frustration	-9.87648
▁furious	-9.87648
▁language	-9.87648
▁edge	-9.87649
▁pregnancy	-9.87654
▁round	-9.87658
▁otherwise	-9.8766
▁bike	-9.8767
▁report	-9.87675
▁eventually	-9.87694
▁brown	-9.87705
▁truthful	-9.87712
▁anybody	-9.87721
▁alive	-9.87729
▁based	-9.8779
▁broken	-9.87871
▁cast	-9.87927
▁lips	-9.87956
▁among	-9.87973
▁band	-9.87981
▁beat	-9.88009
▁created	-9.88035
▁po	-9.88053
▁mis	-9.88236
▁mid	-9.88624
▁bear	-9.88681
▁effects	-9.88825
▁died	-9.88859
coming	-9.89255
▁embrace	-9.89773
ps	-9.89804
▁le	-9.89938
de	-9.90334
land	-9.90389
▁standing	-9.90673
▁shop	-9.90896
▁exam	-9.90934
▁tree	-9.90972
▁cos	-9.90993
▁photo	-9.90995
▁teacher	-9.9105
▁movies	-9.91076
ny	-9.91229
▁rep	-9.91421
fore	-9.91531
▁total	-9.91602
came	-9.92217
▁press	-9.9234
▁prefer	-9.92409
▁accident	-9.9241
▁birth	-9.9241
▁club	-9.9241
▁familiar	-9.9241
▁resigned	-9.9241
▁saturday	-9.9241
▁lunch	-9.9241
▁memory	-9.92411
▁shopping	-9.92411
▁novel	-9.92412
▁yeah	-9.92414
▁fashion	-9.92416
▁dread	-9.9242
▁shift	-9.92427
▁fab	-9.92436
▁sky	-9.92436
▁topic	-9.92446
▁history	-9.92449
▁carry	-9.92462
▁height	-9.92508
▁glass	-9.92613
▁obviously	-9.92775
▁equally	-9.92792
▁interested	-9.928
▁haha	-9.92811
▁fire	-9.92858
▁afterwards	-9.92868
▁skills	-9.92907
▁ride	-9.93027
▁town	-9.93191
▁building	-9.93358
ent	-9.93476
ga	-9.93639
▁shouldn	-9.93813
ir	-9.9383
▁shower	-9.94018
▁wine	-9.94172
▁oil	-9.94193
ay	-9.94313
led	-9.9435
▁hero	-9.94474
pe	-9.94877
ley	-9.94918
per	-9.94953
ho	-9.94965
ant	-9.95024
▁decisions	-9.95218
go	-9.95267
▁position	-9.95896
▁period	-9.9591
▁key	-9.9593
▁mark	-9.95951
▁reaction	-9.9596
no	-9.96009
▁pace	-9.96067
▁workout	-9.96151
▁letter	-9.96224
▁study	-9.96389
co	-9.96433
▁ice	-9.96563
▁games	-9.96677
▁constant	-9.96772
▁rid	-9.96838
body	-9.96869
▁serious	-9.96876
▁image	-9.97283
▁approach	-9.9741
▁breakfast	-9.9741
▁degree	-9.9741
▁excitement	-9.9741
▁garden	-9.9741
▁ridiculous	-9.9741
▁jesus	-9.9741
▁common	-9.97411
▁sugar	-9.97412
▁brush	-9.97412
▁born	-9.97412
▁flash	-9.97413
▁failure	-9.97417
▁english	-9.97418
▁intense	-9.97423
▁sensitive	-9.97429
▁anywhere	-9.97431
▁bunch	-9.97433
▁specific	-9.97433
▁overwhelming	-9.9744
▁active	-9.97464
▁box	-9.97476
▁treatment	-9.97489
▁statement	-9.97517
▁alarmed	-9.97523
▁law	-9.97555
▁north	-9.97721
▁muscles	-9.97818
op	-9.97834
▁details	-9.97892
▁diet	-9.98303
nna	-9.98413
side	-9.98454
▁y	-9.98585
▁escape	-9.98603
▁clearly	-9.98667
▁fa	-9.98759
▁focused	-9.98797
▁typ	-9.98801
▁wouldn	-9.99084
▁holidays	-9.99611
▁shared	-9.99897
▁bo	-10.0019
▁paint	-10.0027
ries	-10.0044
▁pieces	-10.0059
tic	-10.0072
ang	-10.0076
▁ta	-10.0087
▁product	-10.0114
▁mistake	-10.0122
▁store	-10.0136
ot	-10.0143
▁plant	-10.0146
▁build	-10.0163
mo	-10.0177
ble	-10.0189
▁dr	-10.0192
▁ab	-10.0193
▁action	-10.0207
▁bother	-10.0235
▁discuss	-10.0243
▁tear	-10.0258
either	-10.0261
▁journal	-10.0262
▁perform	-10.0264
▁react	-10.0264
▁appear	-10.0265
▁asleep	-10.0267
▁conscious	-10.0267
▁herself	-10.0267
▁kitchen	-10.0267
▁recommend	-10.0267
▁solution	-10.0267
▁timid	-10.0267
▁university	-10.0267
▁financial	-10.0267
▁increasing	-10.0267
▁require	-10.0267
▁vacation	-10.0267
▁gym	-10.0267
▁ease	-10.0267
▁shoot	-10.0267
▁silent	-10.0267
▁swim	-10.0268
▁random	-10.0268
▁throat	-10.0268
▁lift	-10.0268
stood	-10.0268
▁perspective	-10.0268
▁shall	-10.0268
▁radio	-10.0268
▁education	-10.0268
▁spring	-10.0269
▁cream	-10.0269
▁brand	-10.0269
▁dear	-10.0271
▁coz	-10.0272
▁professional	-10.0272
▁version	-10.0272
▁nail	-10.0276
▁million	-10.0276
▁accomplished	-10.0282
▁lock	-10.0284
▁somebody	-10.0287
▁pe	-10.0287
▁core	-10.0288
▁properly	-10.029
▁match	-10.0291
▁concerned	-10.0306
▁fac	-10.0321
▁continued	-10.0363
▁lessons	-10.0387
▁joke	-10.0426
▁ne	-10.0441
▁meaning	-10.0458
▁compare	-10.047
▁whats	-10.048
▁socially	-10.0485
▁reader	-10.0494
int	-10.0501
▁cycle	-10.051
▁blogs	-10.057
▁parent	-10.0573
om	-10.0582
cy	-10.0587
rs	-10.0593
ha	-10.0596
▁ear	-10.0607
▁sounds	-10.062
▁compar	-10.0623
ions	-10.0636
▁response	-10.0673
▁effect	-10.0678
den	-10.0693
▁sh	-10.0711
pping	-10.0721
▁writer	-10.0733
▁america	-10.0742
over	-10.0746
▁celebrate	-10.0755
▁actual	-10.0761
▁connect	-10.0765
▁attack	-10.077
▁site	-10.0771
ut	-10.0776
▁shame	-10.0781
▁balance	-10.0799
▁cares	-10.0802
▁reflect	-10.0816
▁drama	-10.0822
▁adult	-10.0823
▁adventure	-10.0823
▁appalled	-10.0823
▁dismayed	-10.0823
▁heavy	-10.0823
▁lifestyle	-10.0823
▁research	-10.0823
▁routine	-10.0823
▁yell	-10.0823
▁neurotic	-10.0823
▁thanksgiving	-10.0823
▁planning	-10.0823
▁maintain	-10.0823
▁government	-10.0823
▁chair	-10.0823
▁bottom	-10.0824
▁neck	-10.0824
▁babies	-10.0824
▁moral	-10.0824
▁example	-10.0824
▁childhood	-10.0825
▁held	-10.0825
▁emo	-10.0827
▁role	-10.0829
▁chosen	-10.0829
▁park	-10.0832
▁gra	-10.0835
▁burn	-10.0845
ru	-10.0847
▁land	-10.0849
ca	-10.0851
art	-10.0858
▁sta	-10.0862
▁sand	-10.0881
ship	-10.0881
▁gained	-10.0889
▁plus	-10.0896
▁none	-10.0897
▁terms	-10.0927
ure	-10.0933
lt	-10.0947
▁rais	-10.097
▁actions	-10.0978
ian	-10.1006
▁fighting	-10.1038
▁spa	-10.1065
▁conversations	-10.1086
ious	-10.1092
▁tea	-10.1149
▁prove	-10.1158
▁ate	-10.1172
dy	-10.1178
▁schedule	-10.1188
▁cou	-10.1235
▁christian	-10.1261
▁headache	-10.1262
▁attitude	-10.1263
▁market	-10.1303
▁pretend	-10.1304
▁scream	-10.1306
▁teach	-10.1309
▁hi	-10.131
▁protect	-10.1356
▁american	-10.1367
▁receive	-10.1387
▁surprise	-10.1388
ul	-10.14
▁urge	-10.14
▁suggest	-10.1408
▁repeat	-10.1411
▁limit	-10.1411
▁activities	-10.1411
▁article	-10.1411
▁climb	-10.1411
▁instantly	-10.1411
▁twitter	-10.1411
▁wimpy	-10.1411
▁craving	-10.1411
▁plot	-10.1411
▁driving	-10.1411
▁album	-10.1411
▁shape	-10.1411
▁hungry	-10.1412
▁scent	-10.1412
▁vote	-10.1412
▁respond	-10.1412
▁relative	-10.1412
▁victimized	-10.1412
▁green	-10.1412
▁floor	-10.1413
▁easier	-10.1413
▁aggravated	-10.1413
▁swear	-10.1413
▁wound	-10.1413
▁apartment	-10.1414
▁waking	-10.1414
▁bank	-10.1415
▁performance	-10.1415
▁cup	-10.1416
▁crowd	-10.1418
▁passion	-10.1424
▁whiney	-10.1427
▁younger	-10.1455
▁gt	-10.1457
▁movement	-10.1457
▁mere	-10.1484
▁judge	-10.1488
▁christ	-10.1488
▁pulled	-10.1545
mi	-10.1556
▁images	-10.1584
▁bill	-10.1593
ro	-10.1594
▁em	-10.1595
▁recognize	-10.16
der	-10.1605
▁played	-10.1608
do	-10.1613
▁goals	-10.1617
▁added	-10.1617
▁breathing	-10.1643
▁ho	-10.1701
▁mu	-10.1712
▁heal	-10.1721
quality	-10.1724
▁gifts	-10.1727
▁efforts	-10.1753
▁places	-10.1778
os	-10.18
▁sin	-10.1808
▁force	-10.1829
ring	-10.1869
▁outfit	-10.1881
▁master	-10.1888
▁individual	-10.189
▁finger	-10.1894
▁brings	-10.1936
▁se	-10.1938
▁ya	-10.1954
▁natural	-10.197
light	-10.197
im	-10.1985
▁caus	-10.1988
▁creating	-10.2036
▁excuse	-10.2036
▁fabric	-10.2036
▁families	-10.2036
▁fellow	-10.2036
▁hospital	-10.2036
▁loneliness	-10.2036
▁morose	-10.2036
▁relief	-10.2036
▁heaven	-10.2036
▁google	-10.2036
▁cramp	-10.2036
▁gratitude	-10.2036
▁advice	-10.2036
▁literally	-10.2036
▁cheap	-10.2036
▁wild	-10.2036
▁motivation	-10.2036
▁bookmark	-10.2037
▁block	-10.2037
▁marriage	-10.2037
▁invest	-10.2037
▁track	-10.2037
▁alot	-10.2039
▁dating	-10.2041
▁warmth	-10.2041
▁load	-10.2041
▁sake	-10.2042
▁treasured	-10.2042
▁rise	-10.2042
▁camera	-10.2042
▁personality	-10.2043
▁necessary	-10.2044
▁uk	-10.2046
▁attract	-10.2046
▁thin	-10.2048
▁vision	-10.205
▁quote	-10.2052
be	-10.2055
▁discussion	-10.2065
▁admired	-10.2076
▁ending	-10.2084
▁classes	-10.2092
▁beach	-10.2096
▁greater	-10.2134
▁gu	-10.2135
▁reminder	-10.2143
▁angered	-10.2172
▁laughing	-10.224
▁refuse	-10.2267
▁walls	-10.2281
▁cleaning	-10.2318
▁showing	-10.2319
▁su	-10.2385
rry	-10.2403
▁interest	-10.2411
ible	-10.2422
▁areas	-10.2447
▁serve	-10.2455
iness	-10.2486
▁becom	-10.2495
▁concern	-10.2506
lly	-10.2507
▁opinion	-10.2558
▁hearts	-10.2563
▁ball	-10.2564
▁wave	-10.2591
▁record	-10.2592
hi	-10.2602
▁lesson	-10.2615
▁si	-10.263
▁sudden	-10.2639
▁hey	-10.2643
line	-10.2678
▁trouble	-10.2679
▁nap	-10.2681
▁ignore	-10.2689
▁confess	-10.2691
▁publish	-10.2692
▁chose	-10.2696
▁direct	-10.2697
▁promise	-10.2698
▁admire	-10.2698
▁pen	-10.2703
▁condition	-10.2703
▁credit	-10.2703
▁impact	-10.2703
▁marathon	-10.2703
▁material	-10.2703
▁ourselves	-10.2703
▁snow	-10.2703
▁succeed	-10.2703
▁sympathy	-10.2703
▁vicious	-10.2703
▁extent	-10.2703
▁inspiration	-10.2703
▁third	-10.2703
▁ultimate	-10.2703
▁horse	-10.2703
▁motivated	-10.2703
▁unworthy	-10.2703
▁bash	-10.2703
▁sensation	-10.2703
▁spiteful	-10.2703
▁affectionate	-10.2704
▁anticipation	-10.2704
▁storm	-10.2705
▁everywhere	-10.2706
▁steal	-10.2706
▁bond	-10.2707
▁energized	-10.2708
▁rule	-10.2709
▁male	-10.2711
▁safety	-10.2711
▁cheated	-10.2712
▁loud	-10.2713
▁shirt	-10.2714
▁lyrics	-10.2718
▁sell	-10.2718
▁arrived	-10.2733
▁forced	-10.2733
▁dump	-10.2738
▁illness	-10.2745
▁button	-10.2761
ney	-10.2779
▁cha	-10.2787
ons	-10.2788
▁whil	-10.279
▁jo	-10.2809
▁tasks	-10.2819
▁healing	-10.2823
▁screaming	-10.2824
▁teaching	-10.2824
ied	-10.2828
uz	-10.2831
of	-10.2847
▁battle	-10.2857
▁picked	-10.2874
▁writers	-10.2885
▁wasted	-10.289
▁exams	-10.291
▁trees	-10.291
▁teachers	-10.2913
▁cards	-10.2921
▁touched	-10.2931
▁points	-10.2965
ate	-10.297
ey	-10.2988
▁pages	-10.2992
▁sw	-10.3028
▁meat	-10.3029
▁views	-10.303
▁je	-10.3031
▁ring	-10.3054
▁wash	-10.3055
ual	-10.3107
▁explore	-10.3108
pt	-10.3109
▁dut	-10.3118
els	-10.3132
▁curl	-10.3138
▁plane	-10.3159
▁cook	-10.3165
▁provid	-10.3189
▁ju	-10.3223
ka	-10.324
▁benefit	-10.3262
▁corner	-10.3269
▁depth	-10.3269
▁behavior	-10.3269
▁friendship	-10.3273
▁student	-10.3276
▁starts	-10.3287
▁fears	-10.3305
▁wood	-10.3308
ya	-10.3343
▁previous	-10.335
▁plans	-10.3354
▁quick	-10.3359
▁fulfill	-10.3366
▁rush	-10.337
▁por	-10.338
▁achieve	-10.3392
▁convince	-10.3394
▁settle	-10.34
▁horribl	-10.3401
▁sigh	-10.3403
gun	-10.3408
▁bright	-10.3409
▁quit	-10.341
▁relate	-10.3414
▁forgot	-10.3417
▁apparent	-10.3417
▁below	-10.3417
▁cloud	-10.3417
▁enraged	-10.3417
▁london	-10.3417
▁original	-10.3417
▁smiling	-10.3417
▁splendid	-10.3417
▁tongue	-10.3417
▁tuesday	-10.3417
▁unsuccessful	-10.3417
▁unwanted	-10.3417
▁blind	-10.3417
▁pattern	-10.3417
▁feature	-10.3417
▁decent	-10.3417
▁cried	-10.3417
▁initial	-10.3417
▁outcome	-10.3417
▁surgery	-10.3417
▁attach	-10.3417
▁outgoing	-10.3417
▁contain	-10.3417
▁grade	-10.3418
▁chill	-10.3418
▁function	-10.3418
▁unkind	-10.3419
▁suspect	-10.3419
▁pink	-10.3419
▁flight	-10.3419
▁manner	-10.3421
▁drove	-10.3421
▁bigger	-10.3422
▁coat	-10.3422
▁giggly	-10.3424
▁pool	-10.3424
▁print	-10.3424
▁suit	-10.3425
▁hole	-10.3425
ronic	-10.3426
▁makeup	-10.3429
▁clothing	-10.3429
▁prepare	-10.343
▁sink	-10.3435
▁mode	-10.3436
hu	-10.344
▁parts	-10.3441
▁pics	-10.3444
▁pity	-10.3444
▁expression	-10.3445
▁sight	-10.3445
▁grabb	-10.3445
▁hill	-10.3446
▁update	-10.3449
▁teen	-10.345
▁animals	-10.3455
▁pm	-10.3462
▁prepared	-10.3464
▁sexy	-10.3476
▁items	-10.3477
ical	-10.3481
▁sub	-10.3485
▁blessings	-10.3487
▁gay	-10.353
res	-10.3536
▁improve	-10.3538
▁log	-10.3542
▁values	-10.3553
ver	-10.3589
▁closed	-10.362
lor	-10.3659
▁stretch	-10.366
▁produce	-10.3692
▁pot	-10.3695
▁challenges	-10.3698
ign	-10.3725
▁runs	-10.3751
ology	-10.3752
▁pet	-10.3755
▁aside	-10.3755
bu	-10.3756
▁war	-10.3783
ou	-10.3791
▁soo	-10.3801
▁colors	-10.3807
▁com	-10.3822
▁angel	-10.3824
ming	-10.3825
▁gods	-10.3829
▁uncle	-10.3869
les	-10.3875
ial	-10.3881
▁hoped	-10.3883
▁headed	-10.3902
paid	-10.3909
nd	-10.3916
▁gun	-10.3928
▁smoke	-10.3934
▁tin	-10.3944
▁mr	-10.3983
▁value	-10.4018
▁ca	-10.4022
▁exist	-10.4027
▁teenager	-10.4036
▁session	-10.4036
▁recipe	-10.4039
▁term	-10.4039
▁patient	-10.404
ving	-10.4041
▁member	-10.4046
▁prayer	-10.4074
▁smooth	-10.4082
▁cho	-10.4116
▁heavi	-10.4127
▁affect	-10.4132
▁anti	-10.414
▁mi	-10.414
▁dig	-10.4142
▁base	-10.4163
right	-10.4166
▁ur	-10.4175
▁represent	-10.4186
▁combination	-10.4186
▁experiencing	-10.4186
▁hellip	-10.4186
▁hundred	-10.4186
▁identify	-10.4186
▁laundry	-10.4186
▁machine	-10.4186
▁medicine	-10.4186
▁newborn	-10.4186
▁plenty	-10.4186
▁pursue	-10.4186
▁receiving	-10.4186
▁spread	-10.4186
▁suicide	-10.4186
▁tranquil	-10.4186
▁unnecessary	-10.4186
▁basis	-10.4186
▁demand	-10.4186
▁trail	-10.4186
▁unlike	-10.4186
▁disappear	-10.4186
▁abilities	-10.4186
▁granted	-10.4186
▁drunk	-10.4186
▁mild	-10.4186
▁forgotten	-10.4186
▁giant	-10.4187
▁section	-10.4187
▁apply	-10.4187
▁poetry	-10.4187
▁cancer	-10.4187
fa	-10.4187
▁charit	-10.4187
▁mountain	-10.4187
▁industry	-10.4187
▁craft	-10.4187
▁fell	-10.4188
▁scale	-10.4188
▁accomplishment	-10.4189
▁boss	-10.4189
▁powerful	-10.419
▁generation	-10.4191
▁host	-10.4191
▁float	-10.4191
▁homework	-10.4191
▁charmed	-10.4192
▁engl	-10.4193
tiny	-10.4193
▁sorrow	-10.4195
▁setting	-10.4205
▁sew	-10.4206
cc	-10.4209
▁official	-10.421
▁circumstances	-10.4216
mb	-10.4217
▁practical	-10.422
ities	-10.4224
▁achieved	-10.4227
▁mission	-10.4227
▁cost	-10.423
▁lying	-10.423
▁abandoned	-10.4232
▁sent	-10.4234
▁painting	-10.4235
▁expectations	-10.4251
▁ten	-10.4252
▁workers	-10.4267
▁naturally	-10.4268
▁worthy	-10.4269
ner	-10.4276
▁belly	-10.4276
▁concentrate	-10.4298
▁presented	-10.4314
pi	-10.4317
▁flowers	-10.4326
▁tr	-10.4332
▁award	-10.435
▁opinions	-10.4357
▁vent	-10.4361
▁beating	-10.4371
▁led	-10.4379
▁port	-10.4381
bi	-10.4384
▁willing	-10.4397
▁mothers	-10.442
▁mar	-10.4456
▁du	-10.4477
▁esp	-10.4478
▁ge	-10.4511
▁equal	-10.4523
ire	-10.4546
▁wise	-10.4556
▁meal	-10.4649
▁nights	-10.4651
▁z	-10.4655
▁tone	-10.4669
▁breaking	-10.4696
▁cope	-10.4723
▁includ	-10.4781
ig	-10.4782
uce	-10.4816
ac	-10.483
▁politic	-10.4855
here	-10.4857
▁bird	-10.487
▁colour	-10.4873
▁option	-10.4873
▁sorts	-10.4873
▁flat	-10.4895
▁flower	-10.4895
▁task	-10.4895
▁contribute	-10.4902
▁fish	-10.4918
▁dar	-10.4919
▁player	-10.493
arious	-10.4939
▁capture	-10.4946
time	-10.4951
▁obvious	-10.4955
we	-10.4956
▁recent	-10.4956
ordinary	-10.4964
▁excit	-10.4969
▁abandon	-10.497
▁shock	-10.4972
▁clo	-10.4976
place	-10.4992
▁welcome	-10.4996
▁recover	-10.4997
protected	-10.4999
follow	-10.5
▁happi	-10.5006
▁experiment	-10.502
▁available	-10.502
▁awhile	-10.502
▁creativity	-10.502
▁extend	-10.502
▁female	-10.502
▁grief	-10.502
▁guitar	-10.502
▁impossible	-10.502
▁increase	-10.502
▁ludicrous	-10.502
▁ocean	-10.502
▁religion	-10.502
▁religious	-10.502
▁secure	-10.502
▁semester	-10.502
▁significant	-10.502
▁speech	-10.502
▁sunshine	-10.502
▁vague	-10.502
▁website	-10.502
▁wednesday	-10.502
▁entry	-10.502
▁immense	-10.502
▁switch	-10.502
▁thorough	-10.502
▁expensive	-10.502
▁responsibility	-10.502
▁silence	-10.502
▁plain	-10.502
▁praise	-10.502
▁tension	-10.502
▁fool	-10.502
▁radiant	-10.502
▁unique	-10.502
▁pleasure	-10.502
▁dancing	-10.502
▁display	-10.502
▁fruit	-10.502
▁possibility	-10.502
▁impression	-10.502
▁slutty	-10.502
▁grey	-10.502
▁average	-10.502
▁crash	-10.502
▁football	-10.502
▁flawless	-10.502
▁score	-10.502
▁cough	-10.502
▁status	-10.502
▁chicken	-10.5021
▁vibe	-10.5021
▁frank	-10.5021
▁mommy	-10.5022
▁cris	-10.5022
ream	-10.5022
▁phrase	-10.5022
▁puppy	-10.5022
▁lash	-10.5023
▁burst	-10.5024
▁presentation	-10.5024
▁peers	-10.5024
▁crack	-10.5024
▁background	-10.5025
▁importan	-10.5026
▁cash	-10.5026
▁startled	-10.5029
▁intended	-10.5031
▁apologize	-10.5033
▁digni	-10.5035
▁sale	-10.504
▁painful	-10.5042
▁method	-10.5045
▁rubb	-10.5053
ntage	-10.5054
ors	-10.5064
▁bu	-10.5064
▁settled	-10.5073
▁learnt	-10.5075
▁div	-10.5076
hood	-10.508
▁rat	-10.5084
▁seat	-10.5107
▁holy	-10.5112
▁customers	-10.513
▁lil	-10.5133
▁ti	-10.5142
▁cooking	-10.5147
j	-10.5153
▁occasional	-10.5154
▁dia	-10.5155
▁jealousy	-10.5156
▁stepp	-10.5156
▁returned	-10.5188
ci	-10.5206
▁ears	-10.5236
▁lai	-10.5239
son	-10.5254
com	-10.5256
▁mistakes	-10.5258
▁drawing	-10.5268
▁sha	-10.5303
ton	-10.5336
nner	-10.5372
▁wa	-10.5384
▁drinking	-10.5399
med	-10.5419
▁consum	-10.5423
▁cla	-10.5475
▁shed	-10.5485
▁sum	-10.5488
een	-10.5517
gged	-10.5523
▁lu	-10.5525
▁aren	-10.5532
set	-10.5549
▁gr	-10.555
ged	-10.5578
▁follower	-10.5584
que	-10.5589
▁loose	-10.5589
▁loves	-10.5606
▁wors	-10.5617
▁lies	-10.5625
▁groups	-10.5629
▁ka	-10.5709
▁humans	-10.5751
▁pained	-10.5759
ong	-10.5766
▁shot	-10.5788
ms	-10.5793
book	-10.5848
▁resist	-10.5861
va	-10.5874
▁conflict	-10.5877
▁stranger	-10.5877
ative	-10.5885
▁magic	-10.5893
call	-10.5894
▁advance	-10.5903
▁separate	-10.5906
▁pit	-10.5923
▁opening	-10.5927
▁compassion	-10.5928
▁alcohol	-10.5929
▁defend	-10.5929
▁appointment	-10.5929
▁benevolent	-10.5929
▁breeze	-10.5929
▁clue	-10.5929
▁david	-10.5929
▁defective	-10.5929
▁distinct	-10.5929
▁grandmother	-10.5929
▁length	-10.5929
▁opposite	-10.5929
▁surprising	-10.5929
▁temperature	-10.5929
▁therapy	-10.5929
▁unknown	-10.5929
▁modern	-10.5929
▁remove	-10.5929
▁chinese	-10.5929
▁poem	-10.5929
▁thick	-10.5929
▁prevent	-10.5929
▁desk	-10.5929
▁speed	-10.5929
▁overcome	-10.5929
▁rough	-10.5929
▁humorous	-10.5929
▁click	-10.5929
▁zone	-10.593
▁darling	-10.593
▁airport	-10.593
▁gear	-10.593
▁coach	-10.593
▁bodies	-10.593
▁eight	-10.593
▁handsome	-10.593
▁grace	-10.593
▁cake	-10.5931
▁bedroom	-10.5931
▁witness	-10.5931
▁shout	-10.5931
▁breast	-10.5931
▁ruin	-10.5931
▁motion	-10.5932
▁dying	-10.5932
▁collection	-10.5932
▁china	-10.5932
▁understood	-10.5933
▁aunt	-10.5933
▁lb	-10.5934
▁permanent	-10.5934
▁bath	-10.5934
▁wide	-10.5936
▁awareness	-10.5936
▁development	-10.5936
▁hunt	-10.5938
▁growth	-10.5939
▁appearance	-10.5939
▁pour	-10.594
▁fever	-10.594
▁lung	-10.594
▁photography	-10.5941
responsibilities	-10.5945
▁raw	-10.5949
▁nast	-10.595
▁justice	-10.5951
▁consistently	-10.5951
lept	-10.5952
▁pack	-10.5952
my	-10.5958
▁refreshed	-10.596
▁carrie	-10.5968
▁bur	-10.5974
▁admitted	-10.5976
▁related	-10.5978
▁bones	-10.598
▁tune	-10.5991
▁fulfilled	-10.5993
bit	-10.6002
▁sooner	-10.6004
▁nose	-10.6021
▁mac	-10.6027
▁wal	-10.603
▁purchase	-10.6045
jo	-10.6059
▁bloggers	-10.6063
▁bet	-10.6068
ide	-10.6083
ins	-10.609
vision	-10.6094
▁grounded	-10.6095
▁dunn	-10.6111
lia	-10.6116
▁expressed	-10.6119
▁replace	-10.6139
ua	-10.6146
▁individuals	-10.6148
ppl	-10.6154
▁twi	-10.6163
▁note	-10.6167
ect	-10.6169
▁accepting	-10.6172
dom	-10.6178
▁meals	-10.6178
rage	-10.6182
▁shoulder	-10.6185
ab	-10.6189
▁considered	-10.6197
ack	-10.6212
fied	-10.6217
▁van	-10.6231
ier	-10.6245
pants	-10.6249
▁wet	-10.6255
▁stars	-10.6272
▁lean	-10.6274
▁chat	-10.6277
▁definit	-10.6279
▁supported	-10.6279
fully	-10.6313
▁kit	-10.6326
ite	-10.6332
▁din	-10.6332
bo	-10.6355
▁pin	-10.6412
▁ideal	-10.6424
▁hopes	-10.6433
ku	-10.6436
▁lit	-10.6452
▁encourage	-10.6457
▁dri	-10.6459
▁acting	-10.648
▁kicks	-10.6482
▁mass	-10.6491
▁waste	-10.6501
▁fu	-10.6511
▁states	-10.6532
▁prov	-10.6542
▁communicate	-10.6549
▁cu	-10.6591
▁cop	-10.6592
ery	-10.6594
▁mini	-10.6613
▁va	-10.6615
ob	-10.6625
dding	-10.6627
▁intention	-10.6634
▁ac	-10.6643
ger	-10.6647
ward	-10.665
▁acts	-10.6685
▁tip	-10.6732
▁minds	-10.6732
▁classic	-10.6739
▁believ	-10.6762
▁obligation	-10.6774
▁bio	-10.6776
▁circle	-10.6777
▁habit	-10.678
▁continues	-10.6785
▁blogger	-10.679
▁crush	-10.6817
▁spin	-10.6822
▁cap	-10.6846
▁youth	-10.6861
▁mile	-10.6863
▁neglect	-10.6874
▁reveal	-10.6876
▁confus	-10.6881
▁delight	-10.6883
▁talent	-10.6889
port	-10.6889
ped	-10.689
room	-10.6902
▁creep	-10.6904
▁abuse	-10.6906
national	-10.6906
▁engage	-10.6908
▁weigh	-10.6912
ference	-10.6921
▁minor	-10.6928
▁bastard	-10.6929
▁cheeks	-10.6929
▁companies	-10.6929
▁comparison	-10.6929
▁disgusting	-10.6929
▁fortunate	-10.6929
▁incident	-10.6929
▁jubilant	-10.6929
▁mirror	-10.6929
▁nauseous	-10.6929
▁perceive	-10.6929
▁petrified	-10.6929
▁private	-10.6929
▁restaurant	-10.6929
▁stroke	-10.6929
▁studio	-10.6929
▁teeth	-10.6929
▁unfair	-10.6929
▁unmotivated	-10.6929
▁volunteer	-10.6929
▁changing	-10.6929
▁false	-10.6929
▁gross	-10.6929
▁instinct	-10.6929
▁subconscious	-10.6929
▁york	-10.6929
▁document	-10.6929
▁concept	-10.6929
▁genre	-10.6929
▁despair	-10.6929
▁adopt	-10.6929
▁conclusion	-10.6929
▁foreign	-10.6929
▁squeeze	-10.6929
▁wander	-10.6929
▁sentence	-10.6929
▁naked	-10.6929
▁prize	-10.6929
▁whisper	-10.6929
▁british	-10.6929
▁courage	-10.6929
▁behave	-10.6929
▁fiction	-10.6929
▁interview	-10.693
▁ladies	-10.693
▁indeed	-10.693
▁root	-10.693
▁apple	-10.693
▁massive	-10.6931
▁ticket	-10.6931
▁alright	-10.6931
▁classroom	-10.6932
▁temple	-10.6932
▁deny	-10.6933
ence	-10.6933
▁acceptance	-10.6933
▁harm	-10.6933
▁temper	-10.6934
▁nine	-10.6934
▁reference	-10.6935
▁regardless	-10.6935
▁deni	-10.6936
▁medical	-10.6936
ette	-10.6936
▁screen	-10.6936
▁trick	-10.6936
▁saving	-10.6938
▁range	-10.6939
▁capable	-10.6939
▁board	-10.6942
▁hyper	-10.6943
▁knee	-10.6943
▁everybody	-10.6945
▁foundation	-10.6948
▁scary	-10.695
▁planet	-10.695
▁canvas	-10.695
▁steve	-10.6951
avage	-10.6954
▁former	-10.6959
▁centered	-10.6969
▁measure	-10.6975
▁apr	-10.6976
▁dry	-10.699
▁multipl	-10.699
▁helpful	-10.6992
▁guests	-10.6999
▁drugs	-10.7001
▁gas	-10.7002
▁sto	-10.7004
▁fe	-10.7012
▁connected	-10.7022
▁exceptional	-10.7035
▁shell	-10.7035
▁bat	-10.7039
▁aspects	-10.7046
ight	-10.7047
ile	-10.706
mate	-10.7061
▁file	-10.7061
▁sa	-10.7062
▁competiti	-10.7068
▁che	-10.708
▁pains	-10.708
▁structure	-10.708
▁invite	-10.7088
▁hu	-10.7089
tro	-10.7093
▁guide	-10.711
▁layer	-10.711
▁sides	-10.7119
▁patients	-10.7125
▁offend	-10.7131
▁cookie	-10.7143
▁interests	-10.716
▁viewer	-10.718
ans	-10.7188
▁factor	-10.7195
▁cd	-10.7204
▁sc	-10.7207
▁letters	-10.7244
▁influence	-10.7249
ise	-10.7254
▁par	-10.7259
▁india	-10.7261
▁artists	-10.727
▁bags	-10.7277
ose	-10.7283
▁matters	-10.7294
▁leading	-10.731
zz	-10.7317
▁pie	-10.733
ki	-10.7345
wa	-10.735
uck	-10.7358
▁deserves	-10.7383
▁lap	-10.74
▁fed	-10.7409
aking	-10.7416
▁handed	-10.7421
▁seek	-10.7439
▁seasons	-10.7447
▁differently	-10.7459
▁hadn	-10.7462
use	-10.7482
ex	-10.7487
▁pile	-10.7519
▁ku	-10.752
▁ban	-10.7529
▁span	-10.7533
ung	-10.7541
ach	-10.7545
up	-10.7578
▁levels	-10.7578
▁steps	-10.7581
thing	-10.7585
▁hum	-10.7595
the	-10.7617
▁humbl	-10.7641
ified	-10.7659
▁cro	-10.766
▁pal	-10.7673
▁dun	-10.769
▁rely	-10.7697
▁sting	-10.7713
▁ol	-10.7769
ub	-10.777
▁scar	-10.7797
nder	-10.7814
▁chas	-10.7842
▁sam	-10.7849
▁expos	-10.786
▁ben	-10.7864
▁pat	-10.7873
▁risk	-10.789
▁folk	-10.7898
▁rag	-10.7902
▁customer	-10.7902
▁bra	-10.7905
phone	-10.7913
▁occur	-10.7915
to	-10.7922
▁tele	-10.7934
▁admitt	-10.7936
▁ce	-10.7946
▁calls	-10.7956
▁san	-10.796
▁rap	-10.7962
nat	-10.7962
▁refer	-10.7967
▁ignor	-10.7974
▁encounter	-10.7985
▁notic	-10.7986
▁compliment	-10.7987
▁thrill	-10.7992
▁panic	-10.8003
▁del	-10.8011
work	-10.8011
▁slight	-10.8013
▁damage	-10.802
▁responsib	-10.802
▁grab	-10.8022
ball	-10.8024
▁el	-10.8025
▁resent	-10.8035
▁access	-10.8039
advantage	-10.804
▁accord	-10.804
▁companion	-10.804
▁counsel	-10.804
▁elevat	-10.804
▁rhythm	-10.804
▁altogether	-10.804
▁catholic	-10.804
▁citizen	-10.804
▁colleague	-10.804
▁creature	-10.804
▁disadvantaged	-10.804
▁disagree	-10.804
▁disaster	-10.804
▁disorder	-10.804
▁draft	-10.804
▁essential	-10.804
▁glimpse	-10.804
▁magazine	-10.804
▁phase	-10.804
▁resource	-10.804
▁sandwich	-10.804
▁strateg	-10.804
▁substance	-10.804
▁surface	-10.804
▁unexpected	-10.804
▁vigorous	-10.804
▁violence	-10.804
▁yarn	-10.804
▁afford	-10.804
▁clinic	-10.804
▁double	-10.804
▁address	-10.804
▁crawl	-10.804
▁favourite	-10.804
▁motor	-10.804
▁science	-10.804
▁unfold	-10.804
▁wisdom	-10.804
▁cousin	-10.804
▁juice	-10.804
▁rising	-10.804
▁decline	-10.804
▁bathroom	-10.804
▁junk	-10.804
▁conservative	-10.804
▁toilet	-10.804
▁chemo	-10.804
▁nutrition	-10.804
▁court	-10.804
▁solid	-10.804
▁alternative	-10.8041
▁stink	-10.8041
▁dollar	-10.8041
▁participate	-10.8041
▁staff	-10.8041
▁library	-10.8041
▁jack	-10.8041
▁boost	-10.8042
▁disappointment	-10.8042
▁combine	-10.8042
▁clock	-10.8042
▁cell	-10.8042
▁roommate	-10.8043
▁boat	-10.8043
▁protest	-10.8043
▁security	-10.8044
▁frame	-10.8044
▁punch	-10.8045
▁dust	-10.8045
▁dishes	-10.8046
▁director	-10.8048
▁pang	-10.8048
father	-10.8048
▁powerless	-10.8048
▁mail	-10.805
▁seconds	-10.8051
▁despised	-10.8051
▁moon	-10.8052
▁earn	-10.8054
▁wrapp	-10.8056
▁model	-10.8058
▁fitness	-10.8058
▁injury	-10.8059
▁larger	-10.806
▁gold	-10.8063
▁copy	-10.8065
▁symptoms	-10.8067
▁driven	-10.8069
▁tug	-10.8069
▁blanket	-10.8074
▁crime	-10.8075
▁string	-10.8076
▁studie	-10.8076
▁dropp	-10.8081
▁magical	-10.8084
▁bottl	-10.8086
▁endless	-10.8089
cons	-10.8094
▁corn	-10.8095
▁army	-10.8098
▁trans	-10.8106
▁contract	-10.8107
▁affected	-10.8115
▁arrive	-10.812
▁warning	-10.8122
▁attending	-10.8123
▁continuing	-10.8126
▁ja	-10.8129
▁slid	-10.8131
▁strike	-10.8134
▁smaller	-10.8137
▁previously	-10.8147
▁pounds	-10.8156
▁protected	-10.8167
▁packing	-10.817
▁lower	-10.8175
ised	-10.8176
one	-10.8178
▁comp	-10.8179
▁killed	-10.8188
▁closet	-10.8189
▁alex	-10.82
▁camp	-10.8201
▁organis	-10.8205
gu	-10.8214
▁laughed	-10.8219
▁divers	-10.8233
▁failed	-10.8242
▁options	-10.8243
▁moms	-10.8257
ven	-10.8259
▁players	-10.8261
▁recipes	-10.8261
ux	-10.8265
▁include	-10.8281
▁fund	-10.8287
▁concerns	-10.8298
▁col	-10.83
▁jam	-10.8303
▁fate	-10.8308
▁doll	-10.8313
▁programm	-10.8334
▁shoulders	-10.8336
▁ni	-10.8338
▁ru	-10.8341
▁belonging	-10.8356
▁marks	-10.8387
▁reactions	-10.8387
▁sharp	-10.8396
▁seeming	-10.8416
vi	-10.8417
ummy	-10.8445
▁sucks	-10.8456
▁har	-10.8466
▁heading	-10.85
▁mill	-10.8502
wan	-10.8514
▁realis	-10.8534
▁rec	-10.8559
▁encourag	-10.8592
lam	-10.8602
▁offering	-10.8603
▁west	-10.8608
▁bell	-10.8617
▁king	-10.8628
▁nicely	-10.8638
▁films	-10.8661
gi	-10.8675
▁fl	-10.8681
▁brea	-10.8692
cks	-10.8702
bri	-10.8705
▁whim	-10.8724
mon	-10.8725
rate	-10.8735
ets	-10.8753
▁q	-10.878
ham	-10.8781
shi	-10.8794
▁defin	-10.881
▁educat	-10.8848
▁adore	-10.8853
▁norm	-10.887
rel	-10.8902
ok	-10.895
▁cared	-10.8962
▁assume	-10.8967
▁desires	-10.8979
▁bf	-10.9005
▁def	-10.9042
uc	-10.9061
▁chris	-10.9121
▁aspect	-10.9143
▁names	-10.9154
cu	-10.9157
▁rate	-10.9158
put	-10.9161
▁sport	-10.9164
▁quilt	-10.9179
anta	-10.9183
▁internal	-10.9193
▁wee	-10.9208
rup	-10.9209
▁yu	-10.9215
▁tall	-10.9219
illa	-10.9225
▁center	-10.924
▁insult	-10.9243
▁gather	-10.9251
▁interact	-10.926
ura	-10.9261
▁dislike	-10.9264
town	-10.927
▁injur	-10.9271
▁portray	-10.9279
▁nostalgi	-10.9287
neath	-10.9287
▁tempt	-10.9287
▁danger	-10.9289
▁account	-10.929
▁african	-10.929
▁australia	-10.929
▁california	-10.929
▁context	-10.929
▁expense	-10.929
▁expert	-10.929
▁giddy	-10.929
▁inevitabl	-10.929
▁opportunities	-10.929
▁perfume	-10.929
▁perverse	-10.929
▁philosoph	-10.929
▁prospect	-10.929
▁scratch	-10.929
▁simultaneous	-10.929
▁technique	-10.929
▁thrift	-10.929
▁twenty	-10.929
▁unusual	-10.929
▁withdraw	-10.929
▁youtube	-10.929
▁cafe	-10.929
▁murder	-10.929
▁nursing	-10.929
▁firm	-10.929
▁julie	-10.929
▁debt	-10.929
▁favor	-10.929
▁marvel	-10.929
▁saddened	-10.929
▁scheme	-10.929
▁sacrifice	-10.929
▁network	-10.929
▁snack	-10.929
▁anime	-10.929
▁debate	-10.929
▁flavor	-10.929
▁complex	-10.929
▁obtain	-10.929
▁regain	-10.929
▁source	-10.929
▁identity	-10.929
▁transition	-10.929
▁nurse	-10.929
▁neighborhood	-10.929
▁milk	-10.929
▁dizzy	-10.929
▁intensity	-10.929
▁tourist	-10.929
▁liking	-10.929
▁contractions	-10.929
▁spill	-10.929
▁famous	-10.929
▁feedback	-10.929
▁spl	-10.9291
back	-10.9291
▁hobb	-10.9291
▁orange	-10.9291
▁fandom	-10.9291
▁excellent	-10.9291
▁bonus	-10.9291
▁julia	-10.9291
▁creation	-10.9291
▁harsh	-10.9291
▁butterfl	-10.9291
▁potatoes	-10.9291
▁venture	-10.9292
▁limb	-10.9292
▁horror	-10.9292
▁slightest	-10.9292
▁sorrowful	-10.9292
▁critical	-10.9293
▁pub	-10.9293
▁code	-10.9294
▁mama	-10.9294
▁specifically	-10.9294
▁eff	-10.9295
▁skinny	-10.9295
▁drown	-10.9295
▁effective	-10.9296
▁rejection	-10.9296
▁label	-10.9297
▁pure	-10.9297
▁trapp	-10.9298
▁reward	-10.9298
▁vile	-10.9299
▁lend	-10.9299
▁bah	-10.9299
▁affection	-10.9299
▁roman	-10.9299
▁cow	-10.9299
▁supp	-10.9299
▁shadow	-10.93
▁weakness	-10.93
▁everytime	-10.9302
▁celebration	-10.9304
▁politician	-10.9305
▁prince	-10.9305
▁upload	-10.9305
▁reflection	-10.9306
▁happier	-10.9306
▁freez	-10.9306
▁crave	-10.9309
▁cutting	-10.9309
▁begging	-10.9313
▁typical	-10.9314
▁assert	-10.9315
▁production	-10.9317
▁bowl	-10.9318
▁wit	-10.9318
▁figur	-10.932
▁electric	-10.932
geni	-10.932
▁consequences	-10.932
▁endure	-10.9322
▁tale	-10.9322
▁inform	-10.9325
▁officer	-10.9325
▁manager	-10.9329
▁tuck	-10.9331
apor	-10.9333
▁pol	-10.9336
▁yay	-10.9337
wing	-10.9357
▁indulge	-10.9358
▁tube	-10.936
▁dancer	-10.9361
▁complet	-10.9364
▁pause	-10.9366
▁gate	-10.937
▁saved	-10.9375
▁extraordinar	-10.9375
▁chi	-10.9377
▁boots	-10.9379
▁actor	-10.938
▁loser	-10.9383
ji	-10.9395
▁gathering	-10.9399
ten	-10.9399
▁hook	-10.9401
▁jean	-10.9403
ker	-10.9404
als	-10.9405
rus	-10.9407
▁beliefs	-10.942
mes	-10.9421
rl	-10.9423
▁paris	-10.9426
▁seeking	-10.9432
omy	-10.9434
▁celebrat	-10.9435
▁leaders	-10.9439
▁stone	-10.9446
▁web	-10.9449
▁contribut	-10.9456
▁crossed	-10.9472
▁pt	-10.9476
▁melt	-10.9479
▁tips	-10.9483
▁island	-10.9488
▁grin	-10.95
▁shots	-10.9502
▁strangers	-10.9514
▁caffeine	-10.9516
▁colours	-10.9522
▁colla	-10.9532
▁ny	-10.9534
▁bigge	-10.9541
▁parenting	-10.955
▁prayers	-10.9556
▁bothering	-10.9562
▁friendships	-10.9563
▁depths	-10.9563
▁forum	-10.9567
ak	-10.9597
spir	-10.9598
▁masters	-10.9604
▁lover	-10.9605
ging	-10.9613
▁americans	-10.9623
▁matt	-10.9624
▁musical	-10.9641
▁ness	-10.9646
▁beer	-10.9658
▁rant	-10.9666
ella	-10.9666
▁jan	-10.9702
▁mon	-10.9722
▁sites	-10.9735
▁op	-10.9742
▁yo	-10.9743
night	-10.9748
lic	-10.9778
ists	-10.9796
▁skill	-10.98
lin	-10.9821
lace	-10.9833
▁curs	-10.9836
istic	-10.9854
ava	-10.9891
ica	-10.9896
▁worrying	-10.9896
men	-10.9898
▁acknowledge	-10.9905
gr	-10.9912
top	-10.9928
▁kat	-10.9937
▁presents	-10.9941
▁bounce	-10.9947
▁lightly	-11.0005
▁dads	-11.0023
▁sisters	-11.0045
ift	-11.006
ks	-11.0072
▁wh	-11.0075
▁asian	-11.0088
unny	-11.0088
▁leader	-11.0091
mic	-11.0116
▁doors	-11.0118
▁remembering	-11.0128
▁pressures	-11.0134
▁unit	-11.0141
tain	-11.0149
▁cuddle	-11.0196
rall	-11.021
bb	-11.0218
ap	-11.024
ction	-11.0247
▁pl	-11.0249
bel	-11.0249
▁uni	-11.0257
▁continu	-11.0263
▁predictabl	-11.0309
▁occasion	-11.0327
▁tag	-11.033
au	-11.0338
lk	-11.0387
ren	-11.0411
▁pound	-11.0455
ask	-11.0467
▁argue	-11.0484
▁gradua	-11.0497
▁psych	-11.0507
▁bomb	-11.0534
ize	-11.0545
▁ski	-11.0555
▁attend	-11.0558
▁annoy	-11.0567
▁belief	-11.057
▁detail	-11.0577
▁ba	-11.0583
▁lin	-11.0584
▁afterward	-11.0591
▁cru	-11.0601
▁hah	-11.0608
erous	-11.061
▁addition	-11.0615
ax	-11.0626
▁sip	-11.063
ency	-11.0636
▁bite	-11.064
ians	-11.0645
▁blessing	-11.065
▁handl	-11.0652
▁collect	-11.0658
▁cor	-11.0661
▁proper	-11.0664
▁destroy	-11.0664
▁refresh	-11.0668
title	-11.067
ound	-11.0682
▁betray	-11.0685
nu	-11.0693
cue	-11.0696
giving	-11.0698
space	-11.0699
▁slip	-11.0699
▁blame	-11.0702
▁skip	-11.0702
▁snap	-11.0704
▁spoke	-11.0711
▁select	-11.0713
ja	-11.0714
▁addict	-11.0716
▁anticipat	-11.0716
▁meditat	-11.0716
rated	-11.0716
▁prior	-11.0717
▁profound	-11.0718
▁quest	-11.0718
▁remote	-11.0718
▁activity	-11.0718
▁anguish	-11.0718
▁apathetic	-11.0718
▁bridge	-11.0718
▁budget	-11.0718
▁discomfort	-11.0718
▁enthusiasm	-11.0718
▁esteem	-11.0718
▁exchange	-11.0718
▁fierce	-11.0718
▁garbage	-11.0718
▁grocery	-11.0718
▁irrational	-11.0718
▁january	-11.0718
▁knock	-11.0718
▁lenses	-11.0718
▁misunderstood	-11.0718
▁neutral	-11.0718
▁november	-11.0718
▁october	-11.0718
▁request	-11.0718
▁thousand	-11.0718
▁treadmill	-11.0718
▁virtual	-11.0718
▁wrestl	-11.0718
▁disease	-11.0718
▁entries	-11.0718
▁pocket	-11.0718
▁robin	-11.0718
▁spell	-11.0718
▁traffic	-11.0718
▁trait	-11.0718
▁zero	-11.0718
▁application	-11.0718
▁immature	-11.0718
▁skirt	-11.0718
▁suppress	-11.0718
▁width	-11.0718
▁bold	-11.0718
▁japanese	-11.0718
▁insane	-11.0718
▁vomit	-11.0718
▁blond	-11.0718
▁canada	-11.0718
▁dvd	-11.0718
▁execut	-11.0719
▁grasp	-11.0719
▁enormous	-11.0719
▁cringe	-11.0719
▁cheese	-11.0719
▁swallow	-11.0719
▁capacity	-11.0719
▁route	-11.0719
▁satisfaction	-11.0719
▁trend	-11.0719
▁guidance	-11.0719
▁apologise	-11.0719
▁brillian	-11.0719
▁brows	-11.0719
▁remarkabl	-11.0719
▁bleed	-11.0719
▁derby	-11.0719
▁existence	-11.0719
▁jewelry	-11.0719
▁foggy	-11.0719
▁narrat	-11.0719
▁tiger	-11.0719
▁antsy	-11.0719
▁invade	-11.0719
▁elder	-11.0719
▁froze	-11.0719
▁custom	-11.0719
▁verse	-11.0719
▁offensive	-11.0719
▁imagination	-11.0719
▁repeatedly	-11.0719
▁flick	-11.0719
▁trial	-11.0719
▁organization	-11.0719
▁glar	-11.0719
▁explode	-11.0719
▁knot	-11.072
▁eternal	-11.072
▁description	-11.072
▁inspiring	-11.072
▁paul	-11.072
▁mike	-11.072
border	-11.072
▁atmosphere	-11.072
▁income	-11.072
▁establish	-11.072
▁infection	-11.072
▁closure	-11.072
▁dwell	-11.072
ular	-11.072
▁amorous	-11.072
▁aggressive	-11.072
▁prompt	-11.0721
▁planned	-11.0721
▁perception	-11.0721
▁humor	-11.0721
▁shade	-11.0721
▁daddy	-11.0721
▁dramatic	-11.0721
▁legitimate	-11.0721
▁korean	-11.0722
▁sold	-11.0722
▁prime	-11.0722
▁crunch	-11.0723
▁labor	-11.0723
▁realistic	-11.0723
▁resentment	-11.0724
▁traditional	-11.0724
▁investment	-11.0724
▁deem	-11.0724
▁sooo	-11.0725
▁fift	-11.0725
▁mindset	-11.0725
▁century	-11.0725
▁enth	-11.0725
▁protection	-11.0726
▁easter	-11.0726
▁correct	-11.0727
▁veins	-11.0727
▁south	-11.0727
▁butt	-11.0727
▁exhibition	-11.0727
▁hall	-11.0728
▁twist	-11.0728
▁px	-11.0729
▁marginal	-11.0729
▁warn	-11.073
▁achievement	-11.073
▁polite	-11.073
▁claim	-11.073
▁therapist	-11.0731
▁calories	-11.0731
▁brew	-11.0732
▁lore	-11.0732
▁spite	-11.0732
▁flipp	-11.0733
▁darn	-11.0733
▁police	-11.0733
▁station	-11.0736
▁committed	-11.0737
▁contribution	-11.0737
▁twitch	-11.0738
▁childish	-11.074
▁brighter	-11.074
▁wow	-11.0742
▁survive	-11.0745
▁frequently	-11.0745
▁sl	-11.0746
lem	-11.0746
▁hint	-11.0748
▁glob	-11.0748
mond	-11.0749
▁hello	-11.075
▁boundar	-11.0751
▁scott	-11.0754
▁dresses	-11.0754
▁cherished	-11.0754
▁centre	-11.0755
▁cam	-11.0755
▁roller	-11.0755
▁greet	-11.0756
▁nightmare	-11.0759
▁dish	-11.0764
▁burnt	-11.0766
▁induc	-11.0766
▁muse	-11.0768
▁tackle	-11.0769
dium	-11.0769
▁visitor	-11.0769
▁hip	-11.077
▁survived	-11.0772
▁pointless	-11.0773
ately	-11.0776
▁standards	-11.0777
▁suggestions	-11.0778
▁mud	-11.078
▁counter	-11.0786
▁metal	-11.079
▁nerves	-11.08
▁info	-11.0807
▁outsider	-11.0814
▁fla	-11.0818
ebook	-11.0819
▁ward	-11.0822
▁designers	-11.0831
▁soup	-11.0837
con	-11.0843
▁cock	-11.0844
▁included	-11.0844
▁submit	-11.0854
▁kindness	-11.0859
▁glanc	-11.086
▁dropping	-11.0861
▁cheerful	-11.0862
venge	-11.0869
▁wishes	-11.0873
▁shine	-11.0891
ially	-11.0894
▁lee	-11.0895
▁ji	-11.091
▁risks	-11.0918
▁laur	-11.0924
▁gi	-11.0926
▁habits	-11.0942
▁intentions	-11.0946
▁graduate	-11.095
▁intentional	-11.0962
▁goodness	-11.0962
▁cur	-11.0963
ments	-11.0986
▁comforted	-11.0987
▁birds	-11.0989
ler	-11.0996
vas	-11.1008
▁za	-11.1011
ina	-11.1012
▁sessions	-11.1013
▁visited	-11.1036
▁travell	-11.1041
▁contemplat	-11.1052
▁foods	-11.1056
▁introduce	-11.1061
▁solo	-11.1106
▁jer	-11.1108
▁headaches	-11.1109
ump	-11.1114
▁responses	-11.1133
▁answered	-11.1135
▁explained	-11.1135
▁stores	-11.1157
tta	-11.1168
▁periods	-11.1182
▁gap	-11.1199
gar	-11.1199
ates	-11.1213
lines	-11.1214
▁row	-11.1216
▁dan	-11.1226
▁directions	-11.1231
▁dressing	-11.1233
▁educate	-11.125
▁ador	-11.1254
itting	-11.1258
▁humble	-11.1266
▁viewing	-11.1278
read	-11.1294
▁trauma	-11.1333
▁que	-11.1341
ization	-11.1341
▁needle	-11.1364
▁ken	-11.1398
▁rac	-11.14
▁doc	-11.14
qu	-11.1404
▁var	-11.1407
ition	-11.1415
▁cr	-11.1427
wed	-11.1436
ances	-11.1468
pend	-11.1469
▁justify	-11.1491
▁pale	-11.1503
▁boyfriends	-11.1528
iling	-11.1535
▁mc	-11.1541
▁bla	-11.1544
▁stare	-11.1563
▁pu	-11.1578
▁cycl	-11.1611
han	-11.1627
▁racis	-11.1642
▁irate	-11.1667
▁nu	-11.168
q	-11.1689
url	-11.1698
▁soak	-11.1701
ft	-11.1713
queen	-11.1734
▁photograph	-11.174
▁kn	-11.1758
▁refus	-11.1764
▁ste	-11.1783
ically	-11.179
off	-11.1815
▁sel	-11.1836
ank	-11.1837
iv	-11.1841
▁charge	-11.1856
▁stra	-11.1897
▁shorts	-11.1911
▁dip	-11.1915
ific	-11.1918
▁sens	-11.1928
▁starv	-11.1935
stash	-11.1961
▁hits	-11.1996
▁sole	-11.2005
▁para	-11.2044
ria	-11.2049
▁cal	-11.2073
rky	-11.208
pad	-11.2087
gh	-11.2107
▁blur	-11.212
▁treats	-11.2122
▁alb	-11.2123
▁judg	-11.2146
cute	-11.2148
▁ke	-11.2157
fi	-11.216
head	-11.2164
pol	-11.2171
amp	-11.2194
▁econom	-11.2203
▁fuckin	-11.2215
▁accomplish	-11.2219
ince	-11.2219
iest	-11.2231
▁ray	-11.2234
▁muscle	-11.2242
▁prepar	-11.2246
▁expectation	-11.2253
▁item	-11.2254
▁indulg	-11.2279
bc	-11.2279
▁lists	-11.2284
▁admir	-11.2285
▁sometime	-11.2286
rank	-11.23
▁slipp	-11.2302
▁deliver	-11.2308
▁tolerate	-11.2311
ware	-11.2317
▁accus	-11.2318
▁settl	-11.232
▁drag	-11.2321
▁absolute	-11.2322
star	-11.2323
▁rever	-11.2326
▁entertain	-11.233
▁hung	-11.2332
▁disrespect	-11.2332
▁depress	-11.2335
▁distress	-11.2337
ain	-11.2342
▁gig	-11.2348
friend	-11.2361
▁quo	-11.2361
▁necessar	-11.2364
board	-11.2365
wind	-11.2365
healthy	-11.2365
▁solve	-11.2366
house	-11.2366
box	-11.2367
▁torture	-11.2367
tail	-11.2368
▁polic	-11.2371
down	-11.2372
▁bore	-11.2376
▁lac	-11.2376
▁civil	-11.2377
▁tradition	-11.2379
▁adjust	-11.238
▁thro	-11.2381
▁prop	-11.2381
▁ministr	-11.2382
▁nausea	-11.2384
▁embarras	-11.2384
▁sara	-11.2385
▁neighbor	-11.2385
hhh	-11.2385
▁condemn	-11.2385
▁spontaneous	-11.2385
▁supreme	-11.2385
▁unnatural	-11.2385
▁anniversary	-11.2385
▁appeal	-11.2385
▁associate	-11.2385
▁association	-11.2385
▁behalf	-11.2385
▁brief	-11.2385
▁category	-11.2385
▁charlie	-11.2385
▁commercial	-11.2385
▁confirm	-11.2385
▁convention	-11.2385
▁curiosity	-11.2385
▁cyber	-11.2385
▁essence	-11.2385
▁excess	-11.2385
▁explanation	-11.2385
▁frustrating	-11.2385
▁goddamn	-11.2385
▁grandparents	-11.2385
▁inferior	-11.2385
▁intelligence	-11.2385
▁lipstick	-11.2385
▁necessit	-11.2385
▁patience	-11.2385
▁piano	-11.2385
▁president	-11.2385
▁professor	-11.2385
▁reputation	-11.2385
▁resolution	-11.2385
▁september	-11.2385
▁sibling	-11.2385
▁snobbish	-11.2385
▁succumb	-11.2385
▁trigger	-11.2385
▁village	-11.2385
▁whatsoever	-11.2385
▁zombie	-11.2385
▁acquaint	-11.2385
▁costume	-11.2385
▁hardcore	-11.2385
▁hormon	-11.2385
▁resort	-11.2385
▁convo	-11.2385
▁coworker	-11.2385
▁dessert	-11.2385
▁element	-11.2385
▁stimulat	-11.2385
▁await	-11.2385
▁contest	-11.2385
▁tomato	-11.2385
▁roast	-11.2385
▁transcend	-11.2385
▁declar	-11.2385
▁crazi	-11.2385
▁stitch	-11.2385
▁toddler	-11.2385
▁transfer	-11.2385
▁nonetheless	-11.2385
▁plasti	-11.2385
▁europe	-11.2385
▁intellectual	-11.2385
▁spur	-11.2385
▁nurtur	-11.2385
▁convey	-11.2385
▁assistant	-11.2385
▁someday	-11.2385
▁fluff	-11.2386
▁burger	-11.2386
▁jackson	-11.2386
▁goodbye	-11.2386
▁vibration	-11.2386
▁martin	-11.2386
▁paranoia	-11.2386
▁quarter	-11.2386
▁academic	-11.2386
▁latter	-11.2386
▁evil	-11.2386
▁serenity	-11.2386
▁strive	-11.2386
fertil	-11.2386
▁decade	-11.2386
▁seven	-11.2386
▁automati	-11.2386
▁chaos	-11.2386
▁continuous	-11.2386
▁monster	-11.2387
▁preparation	-11.2387
▁sacr	-11.2387
▁announce	-11.2387
▁department	-11.2387
▁worship	-11.2387
▁fancy	-11.2387
▁evaluat	-11.2387
▁boob	-11.2387
▁knitting	-11.2387
▁heartbreak	-11.2387
▁intent	-11.2388
▁region	-11.2388
▁haul	-11.2388
▁plate	-11.2388
▁replie	-11.2388
▁josh	-11.2388
▁apo	-11.2388
▁plug	-11.2388
▁emily	-11.2388
▁native	-11.2388
▁mush	-11.2388
▁rice	-11.2388
▁reduce	-11.2388
▁empathy	-11.2388
▁wick	-11.2389
▁glow	-11.2389
▁data	-11.2389
▁loop	-11.2389
▁uncar	-11.2389
▁pear	-11.2389
▁encouragement	-11.2389
▁baking	-11.2389
▁entertainment	-11.2389
▁yall	-11.239
▁jacket	-11.239
▁laughter	-11.2391
▁prom	-11.2391
▁complicated	-11.2392
▁grass	-11.2392
▁insist	-11.2392
▁finance	-11.2392
▁spice	-11.2392
▁whining	-11.2392
▁strain	-11.2392
▁scatter	-11.2393
▁litera	-11.2393
▁jim	-11.2393
▁coope	-11.2393
▁exit	-11.2394
▁torn	-11.2394
▁mall	-11.2395
▁stairs	-11.2395
▁verg	-11.2395
▁slack	-11.2396
▁repair	-11.2396
▁spoken	-11.2397
uring	-11.2398
▁duck	-11.2398
▁era	-11.2399
dol	-11.2399
▁unsettled	-11.24
▁moisturiz	-11.24
▁hardship	-11.2401
▁uneasy	-11.2401
▁wallet	-11.2401
▁dragon	-11.2401
▁distraction	-11.2401
▁fog	-11.2402
▁script	-11.2402
▁rose	-11.2403
▁binge	-11.2403
▁salt	-11.2404
oi	-11.2405
▁prote	-11.2405
boy	-11.2407
▁darkness	-11.241
serving	-11.2411
uber	-11.2411
▁handful	-11.2411
▁max	-11.2413
▁attribute	-11.2414
▁adre	-11.2416
▁empowered	-11.2418
▁entit	-11.2419
▁hike	-11.242
lew	-11.242
▁lifetime	-11.2423
umn	-11.2423
▁tank	-11.2424
▁shak	-11.2424
▁endeavors	-11.2428
▁screwed	-11.2428
▁sickness	-11.2428
▁myster	-11.243
▁bibl	-11.243
ggy	-11.2431
▁independent	-11.2431
▁spit	-11.2434
ston	-11.244
▁nest	-11.244
▁pan	-11.2448
rin	-11.245
▁enjoyment	-11.2453
▁cage	-11.2453
▁thighs	-11.2455
▁engaged	-11.2455
ked	-11.2457
▁passes	-11.2458
▁wheel	-11.246
▁mari	-11.2461
▁tiredness	-11.2464
▁awe	-11.2471
▁rev	-11.2473
oooo	-11.2475
▁observing	-11.2476
▁musician	-11.2478
▁recognise	-11.2482
▁nagg	-11.2483
▁driver	-11.2484
▁conflicted	-11.2485
▁soap	-11.2486
▁hotel	-11.2487
▁pee	-11.2488
▁accomplishing	-11.2498
▁tense	-11.2502
▁existed	-11.2505
ek	-11.2507
▁farm	-11.2507
▁objects	-11.2511
▁pig	-11.2512
▁xd	-11.2517
▁deserved	-11.2521
▁pac	-11.2526
▁challenged	-11.2529
▁tha	-11.2537
▁quilting	-11.2538
▁washing	-11.2552
▁aut	-11.2581
▁needless	-11.2586
▁consumer	-11.259
mor	-11.2594
▁sports	-11.2596
▁semi	-11.2596
▁hind	-11.2597
▁holds	-11.2613
▁lab	-11.2616
odor	-11.262
▁complaint	-11.262
kin	-11.2623
▁imagined	-11.2627
▁emerg	-11.2628
▁stat	-11.2629
▁existing	-11.2642
▁lovers	-11.2653
▁circles	-11.2653
▁lights	-11.2654
hen	-11.2661
king	-11.2674
▁cath	-11.2677
▁recording	-11.2683
▁poll	-11.2684
▁penn	-11.2691
▁scare	-11.2693
eh	-11.2714
ception	-11.2718
lump	-11.2724
▁marketing	-11.2724
▁pretending	-11.2724
blo	-11.2734
▁paintings	-11.2738
▁teenagers	-11.2739
▁sis	-11.2742
za	-11.2757
ache	-11.276
▁behaviors	-11.2768
▁nick	-11.2769
ability	-11.2789
▁waves	-11.2796
▁pasta	-11.2827
▁wire	-11.2832
▁tap	-11.2837
▁christians	-11.2852
▁damned	-11.2856
▁tw	-11.2864
▁auto	-11.2882
hem	-11.2885
▁yearn	-11.2902
▁commun	-11.2904
rma	-11.292
▁butter	-11.2936
▁der	-11.2938
▁believer	-11.2941
▁workouts	-11.2942
oz	-11.2944
▁cre	-11.2966
▁bab	-11.2968
ink	-11.2973
▁aim	-11.2996
▁xm	-11.2998
▁scenes	-11.3001
▁signs	-11.3001
▁links	-11.3005
▁drops	-11.3005
▁temp	-11.3008
elle	-11.3015
▁reli	-11.302
▁cuddl	-11.304
fo	-11.3079
▁trusted	-11.3086
▁kidd	-11.3125
▁kara	-11.3127
▁loos	-11.3151
▁fro	-11.3166
fu	-11.3175
▁ut	-11.3184
af	-11.319
ani	-11.3201
▁ec	-11.3232
utter	-11.3234
▁cra	-11.324
maid	-11.3247
▁humili	-11.3259
long	-11.3262
wn	-11.3318
▁papers	-11.3331
where	-11.3351
▁souls	-11.3359
cle	-11.3376
sia	-11.3377
ook	-11.3387
tical	-11.3392
▁radiat	-11.34
▁flatte	-11.3424
▁numbers	-11.3427
ulation	-11.3435
rian	-11.3462
▁alternate	-11.3466
lung	-11.3478
▁lat	-11.3502
tone	-11.3521
epic	-11.3523
▁truths	-11.3547
eli	-11.3548
▁cases	-11.3554
▁pra	-11.3577
▁spark	-11.359
anny	-11.3605
dia	-11.3617
▁reg	-11.3637
▁lea	-11.3676
▁hoo	-11.369
▁envelope	-11.3695
oul	-11.3743
▁commit	-11.3793
▁disc	-11.3811
tha	-11.3811
▁conc	-11.3826
▁metaphor	-11.385
▁begins	-11.3864
▁introduc	-11.3911
▁ages	-11.3919
▁drug	-11.392
berry	-11.3969
▁pleas	-11.3975
▁bou	-11.3985
version	-11.4018
▁ske	-11.4028
elated	-11.4044
hire	-11.405
mme	-11.4056
▁describ	-11.4062
▁concentrat	-11.4083
rous	-11.4123
▁arriv	-11.4129
ug	-11.4131
ership	-11.4136
rade	-11.4143
▁integr	-11.4167
▁defens	-11.4177
▁tech	-11.4181
▁soooo	-11.4198
▁bl	-11.42
▁chick	-11.4225
▁cigarette	-11.4231
▁object	-11.4231
▁argument	-11.4232
ese	-11.4242
▁guest	-11.4246
▁bug	-11.4247
lan	-11.425
▁gene	-11.4251
▁controll	-11.4254
▁multi	-11.4257
hr	-11.4258
▁shoe	-11.426
done	-11.4264
▁bless	-11.427
ternal	-11.4271
▁observ	-11.4278
▁lip	-11.4279
▁logic	-11.4285
▁designer	-11.4287
if	-11.4293
▁chip	-11.43
▁medication	-11.4305
dication	-11.4306
▁tick	-11.4307
▁decid	-11.4309
▁exception	-11.431
ice	-11.4313
interest	-11.4313
▁distract	-11.4318
▁determin	-11.4319
▁bow	-11.4328
blog	-11.4328
▁reject	-11.433
▁disregard	-11.4331
▁pump	-11.4333
▁disappoint	-11.4334
▁cherish	-11.4334
▁screw	-11.4335
▁alarm	-11.4336
ifying	-11.4336
▁disturb	-11.4337
▁defeat	-11.4337
▁devastat	-11.4337
▁piss	-11.4338
▁threaten	-11.4338
▁honor	-11.4339
▁pow	-11.4343
ground	-11.4352
care	-11.4355
brow	-11.4358
▁wipe	-11.436
▁careful	-11.4361
▁destin	-11.4362
▁appreciati	-11.4363
for	-11.4363
script	-11.4363
▁til	-11.4363
burn	-11.4365
field	-11.4365
pray	-11.4365
feel	-11.4365
just	-11.4367
life	-11.4368
▁possess	-11.4369
made	-11.437
▁define	-11.4371
word	-11.4371
▁dev	-11.4374
cal	-11.4377
▁behavio	-11.4379
▁terror	-11.438
▁determine	-11.438
▁stole	-11.4381
▁teenage	-11.4382
▁jane	-11.4382
▁participa	-11.4383
mposed	-11.4383
▁transform	-11.4384
▁seque	-11.4384
▁energi	-11.4384
▁john	-11.4384
pathy	-11.4385
▁fantas	-11.4385
▁emphasi	-11.4385
▁luxur	-11.4385
▁shimm	-11.4385
▁vocal	-11.4385
thyroid	-11.4385
trospect	-11.4385
▁accommodat	-11.4385
▁affair	-11.4385
▁breastfeed	-11.4385
▁campaign	-11.4385
▁cautious	-11.4385
▁contrast	-11.4385
▁convenience	-11.4385
▁convenient	-11.4385
▁cricket	-11.4385
▁cupcake	-11.4385
▁curtains	-11.4385
▁dedicate	-11.4385
▁detox	-11.4385
▁divorce	-11.4385
▁election	-11.4385
▁entrance	-11.4385
▁examination	-11.4385
▁fascinat	-11.4385
▁feminis	-11.4385
▁guarantee	-11.4385
▁heartbeat	-11.4385
▁highschool	-11.4385
▁hmmm	-11.4385
▁homeschool	-11.4385
▁inclined	-11.4385
▁insignificant	-11.4385
▁insincere	-11.4385
▁introvert	-11.4385
▁lecture	-11.4385
▁manuscript	-11.4385
▁michael	-11.4385
▁mount	-11.4385
▁neighbour	-11.4385
▁nonsense	-11.4385
▁nowadays	-11.4385
▁oppose	-11.4385
▁pencil	-11.4385
▁permalink	-11.4385
▁picnic	-11.4385
▁privacy	-11.4385
▁promotion	-11.4385
▁purple	-11.4385
▁pursuing	-11.4385
▁rainbow	-11.4385
▁rejuvenate	-11.4385
▁relentless	-11.4385
▁scenario	-11.4385
▁shallow	-11.4385
▁sniff	-11.4385
▁suspens	-11.4385
▁temporarily	-11.4385
▁temporary	-11.4385
▁throbbing	-11.4385
▁thursday	-11.4385
▁universal	-11.4385
▁violated	-11.4385
▁zoom	-11.4385
▁absence	-11.4385
▁backpack	-11.4385
▁cartoon	-11.4385
▁chamber	-11.4385
▁flesh	-11.4385
▁flood	-11.4385
▁perpetua	-11.4385
▁philip	-11.4385
▁shiver	-11.4385
▁uplift	-11.4385
▁volume	-11.4385
▁chunk	-11.4385
▁german	-11.4385
▁restrict	-11.4385
▁ugg	-11.4385
▁wrist	-11.4385
▁gesture	-11.4385
▁legend	-11.4385
▁trash	-11.4385
▁smack	-11.4385
▁december	-11.4385
▁ugli	-11.4385
▁weapon	-11.4385
▁hollywood	-11.4385
▁pulse	-11.4385
▁remarks	-11.4385
▁stirr	-11.4385
▁woeful	-11.4385
▁etsy	-11.4385
▁disrupt	-11.4385
▁glamourous	-11.4385
▁daniel	-11.4385
▁wealth	-11.4385
▁gallery	-11.4385
▁pip	-11.4385
▁athletic	-11.4385
▁munch	-11.4385
▁qualif	-11.4385
▁primar	-11.4385
▁robert	-11.4385
▁constructive	-11.4385
▁tweet	-11.4385
▁spider	-11.4385
▁alien	-11.4385
▁empathize	-11.4385
▁separation	-11.4385
▁flex	-11.4385
▁geek	-11.4385
▁assistance	-11.4386
▁demons	-11.4386
▁precise	-11.4386
▁fluid	-11.4386
▁milestone	-11.4386
▁dawn	-11.4386
▁echo	-11.4386
▁sauce	-11.4386
▁virginia	-11.4386
▁population	-11.4386
▁advocate	-11.4386
▁owl	-11.4386
▁steam	-11.4386
▁invitation	-11.4386
berg	-11.4386
▁ignorant	-11.4386
▁lemon	-11.4386
▁stiff	-11.4386
▁corps	-11.4386
▁severely	-11.4386
▁saint	-11.4386
▁nuts	-11.4386
▁devil	-11.4386
▁misery	-11.4386
▁desert	-11.4386
▁virus	-11.4386
▁panel	-11.4387
furi	-11.4387
▁rapid	-11.4387
▁obsession	-11.4387
▁sloth	-11.4387
▁lisa	-11.4387
valent	-11.4387
▁cruel	-11.4387
▁stock	-11.4387
▁property	-11.4387
▁tidy	-11.4387
▁beef	-11.4387
▁lj	-11.4387
▁unappreciated	-11.4387
▁licen	-11.4387
▁clarity	-11.4387
▁timing	-11.4387
▁polish	-11.4387
▁stopping	-11.4387
nstance	-11.4387
▁blush	-11.4387
▁artwork	-11.4387
▁cancel	-11.4388
▁steady	-11.4388
▁sensible	-11.4388
▁jaw	-11.4388
▁conscience	-11.4388
▁soothe	-11.4388
▁buff	-11.4388
▁psychological	-11.4388
▁insight	-11.4388
▁bride	-11.4389
▁owe	-11.4389
▁prick	-11.4389
▁starter	-11.4389
▁addiction	-11.4389
▁meditation	-11.4389
▁cabin	-11.4389
▁fold	-11.439
▁giveaway	-11.439
▁organiz	-11.439
▁graduating	-11.439
▁theater	-11.439
▁haze	-11.439
▁french	-11.439
▁dash	-11.439
▁lake	-11.4391
▁apology	-11.4391
▁engineer	-11.4391
▁gaming	-11.4391
▁editor	-11.4392
▁linger	-11.4392
▁align	-11.4392
▁batter	-11.4392
▁rib	-11.4392
▁mash	-11.4392
minent	-11.4392
▁ego	-11.4392
▁surroundings	-11.4392
▁cities	-11.4393
▁hubby	-11.4393
▁zen	-11.4393
▁relaxation	-11.4394
▁reread	-11.4394
▁duties	-11.4394
▁meaningless	-11.4394
▁naive	-11.4395
▁overload	-11.4396
▁wax	-11.4396
▁chain	-11.4397
mpress	-11.4398
▁enemy	-11.4398
btw	-11.4398
▁sinus	-11.4398
▁mentality	-11.4398
▁prep	-11.4398
▁marry	-11.4399
▁translate	-11.4399
▁gna	-11.4399
▁vast	-11.4399
bama	-11.44
▁jerk	-11.4401
▁num	-11.4401
▁stereotype	-11.4401
▁possession	-11.4401
▁formula	-11.4401
▁gown	-11.4402
uous	-11.4402
more	-11.4402
▁stem	-11.4403
▁consideration	-11.4404
▁cling	-11.4404
▁strengthen	-11.4404
▁fiance	-11.4404
▁crew	-11.4404
▁improvement	-11.4406
▁tingle	-11.4407
▁snapp	-11.4407
▁slave	-11.4407
▁harmful	-11.4408
▁destiny	-11.4408
ltitude	-11.4408
▁shove	-11.4409
▁profit	-11.4409
▁suppli	-11.441
▁attraction	-11.441
▁chore	-11.4411
▁palm	-11.4412
▁fri	-11.4412
▁chew	-11.4413
▁angle	-11.4413
▁stable	-11.4414
▁backward	-11.4415
▁strip	-11.4415
▁delivery	-11.4416
▁pinch	-11.442
▁heap	-11.4421
▁breed	-11.4425
▁scrap	-11.4425
▁disliked	-11.4428
▁march	-11.4429
▁grit	-11.4429
▁lighten	-11.4429
▁subtl	-11.443
▁auss	-11.4432
▁bumm	-11.4434
▁bang	-11.4434
▁interaction	-11.4435
▁rack	-11.4438
▁bout	-11.4442
▁hopelessness	-11.4443
▁sucker	-11.4443
▁dragg	-11.4444
bbed	-11.4445
▁advanced	-11.4446
▁articulate	-11.4447
▁intimate	-11.4447
mont	-11.4448
▁disrespected	-11.445
▁poke	-11.445
▁bin	-11.4451
▁rang	-11.4452
▁improving	-11.4452
▁clau	-11.4453
▁rally	-11.4453
▁cave	-11.4456
▁twin	-11.4458
▁dec	-11.4459
▁ambitio	-11.4459
▁boo	-11.446
▁rot	-11.4461
▁square	-11.4462
▁attended	-11.4463
▁ob	-11.4464
cally	-11.4468
▁flaws	-11.4472
▁grieving	-11.4474
▁skipp	-11.4477
▁stru	-11.4477
▁justified	-11.4481
▁complimented	-11.4486
yard	-11.4487
▁nicer	-11.4487
▁raise	-11.4488
ez	-11.4491
ryan	-11.4496
rimming	-11.4496
▁revealed	-11.4497
▁neglected	-11.4497
some	-11.4503
▁bump	-11.4504
▁agent	-11.4507
▁chapters	-11.4507
▁runners	-11.4507
▁retire	-11.4508
▁generat	-11.451
▁discovery	-11.4515
▁sca	-11.4515
bucks	-11.4518
ika	-11.4518
▁candy	-11.4518
ogue	-11.4518
▁crow	-11.4519
▁yearning	-11.452
bor	-11.4527
▁todd	-11.4538
aging	-11.4538
washington	-11.4538
▁fleet	-11.4541
▁cigarettes	-11.4542
▁arguments	-11.4542
▁popp	-11.4546
▁bombing	-11.4551
▁worrie	-11.4552
▁gamer	-11.4553
urt	-11.4555
▁shin	-11.4559
▁rud	-11.4561
▁subsid	-11.4563
▁employe	-11.4566
▁thai	-11.4574
zo	-11.4582
▁techn	-11.4586
vor	-11.4586
▁edit	-11.4587
▁attacked	-11.4593
▁rape	-11.4598
▁dial	-11.4602
hub	-11.4607
▁noise	-11.4608
▁joint	-11.4611
▁economic	-11.4612
sha	-11.4625
▁crushing	-11.4627
▁sho	-11.4631
fer	-11.4634
▁stares	-11.4637
▁bake	-11.4644
ult	-11.4651
characteristic	-11.4658
illy	-11.4666
▁nud	-11.4666
▁fishing	-11.4678
solation	-11.4684
▁cas	-11.4699
▁bod	-11.4709
▁swo	-11.4709
▁obligations	-11.4719
▁pri	-11.4721
lim	-11.4737
▁dressed	-11.4743
▁patt	-11.4765
▁bal	-11.4776
▁eve	-11.4777
iled	-11.478
▁sweater	-11.479
▁politics	-11.4791
▁boot	-11.4795
hand	-11.4796
▁tai	-11.4802
▁puzzle	-11.4807
▁slo	-11.481
▁calv	-11.4819
ern	-11.4837
▁wars	-11.4837
▁whine	-11.4846
ini	-11.4851
▁benefits	-11.4863
▁corners	-11.4867
▁dam	-11.487
lock	-11.4872
▁choi	-11.4876
▁dose	-11.4878
▁disabilit	-11.4879
▁balls	-11.4895
mmie	-11.4908
▁cub	-11.4913
▁lest	-11.4924
▁outfits	-11.4936
ugh	-11.4948
▁bills	-11.4951
animate	-11.4953
▁pose	-11.4972
▁attitudes	-11.4972
bul	-11.4977
▁haircut	-11.4978
▁giggl	-11.4983
▁bum	-11.4984
gle	-11.4991
vity	-11.5004
▁predict	-11.5009
▁magn	-11.5014
uki	-11.5016
uit	-11.5026
▁hasn	-11.5027
vice	-11.5048
anne	-11.5065
▁keys	-11.5083
▁positions	-11.5083
▁sleepy	-11.5114
pped	-11.5115
▁user	-11.5116
▁shops	-11.512
▁clar	-11.5129
cky	-11.5139
▁audiences	-11.5157
▁jar	-11.5177
▁cul	-11.5181
▁gl	-11.5186
iff	-11.5189
▁ven	-11.5191
▁services	-11.5195
▁videos	-11.5195
▁windows	-11.5195
▁bay	-11.5196
anity	-11.5204
▁toys	-11.5207
▁kin	-11.5229
▁minim	-11.5274
▁histor	-11.5282
ige	-11.5292
arily	-11.5303
▁sheet	-11.5308
aving	-11.5317
▁pil	-11.5334
ester	-11.5338
▁massag	-11.5365
▁ev	-11.5381
par	-11.5413
tics	-11.5443
▁barn	-11.5473
ola	-11.5498
corporate	-11.5507
teen	-11.5526
▁wis	-11.5531
ith	-11.5558
oc	-11.559
▁hyp	-11.5634
hol	-11.5648
▁cab	-11.5658
▁package	-11.5666
▁exercis	-11.5667
▁hai	-11.5704
amper	-11.572
▁demo	-11.5809
▁shir	-11.5815
not	-11.5816
▁traumati	-11.584
qui	-11.585
▁ko	-11.5869
used	-11.5896
▁radi	-11.5976
▁chase	-11.5984
▁chatt	-11.5997
ado	-11.5999
▁bru	-11.6007
▁min	-11.6014
tine	-11.6025
▁recogniz	-11.6047
▁medi	-11.611
hb	-11.6145
tting	-11.6177
▁supporter	-11.6192
▁sla	-11.6192
▁emerge	-11.6258
▁pr	-11.6259
nia	-11.6276
▁contemplate	-11.6296
▁replac	-11.6305
lapse	-11.6312
nalin	-11.6317
▁socialis	-11.634
▁ki	-11.6381
load	-11.64
illion	-11.6449
ango	-11.6467
uk	-11.6498
▁fin	-11.6513
unk	-11.6541
ential	-11.6551
▁mat	-11.6553
ender	-11.6554
▁hone	-11.6555
ake	-11.6577
▁valid	-11.6588
▁squ	-11.661
fare	-11.6617
▁supervis	-11.662
rator	-11.6628
uche	-11.6636
▁trac	-11.6664
▁mate	-11.6682
▁bubbl	-11.673
▁chapter	-11.6731
▁nerve	-11.6736
▁animal	-11.6741
▁runner	-11.6742
▁surviv	-11.6742
▁nation	-11.6753
▁bone	-11.6765
tious	-11.677
▁griev	-11.6773
▁uh	-11.6779
burg	-11.6783
pro	-11.6785
▁tackl	-11.6794
▁intima	-11.6806
umped	-11.6808
▁seri	-11.6811
lute	-11.6812
pay	-11.6814
antic	-11.6817
▁achiev	-11.6819
▁imagin	-11.6819
▁immediate	-11.6821
▁consistent	-11.6823
▁spoil	-11.683
▁tub	-11.6831
▁empower	-11.6833
▁exhaust	-11.6834
je	-11.6835
▁intimidat	-11.6837
▁drain	-11.6838
tribute	-11.6839
▁inspect	-11.6841
seas	-11.6844
▁wrap	-11.6847
▁bliss	-11.685
▁bound	-11.6851
sert	-11.6853
pines	-11.6855
▁negativ	-11.6857
▁profi	-11.6858
mina	-11.6859
▁flip	-11.6861
▁privilege	-11.6862
▁relieve	-11.6862
iation	-11.6862
▁illustrat	-11.6862
▁moistur	-11.6862
▁uneas	-11.6863
claim	-11.6863
▁spec	-11.6864
paper	-11.6864
well	-11.6864
shadow	-11.6864
front	-11.6864
polite	-11.6864
capable	-11.6864
screen	-11.6864
zzy	-11.6864
▁resolve	-11.6865
▁profession	-11.6865
pool	-11.6865
shirt	-11.6865
lead	-11.6865
post	-11.6865
issue	-11.6865
world	-11.6865
wood	-11.6866
▁bull	-11.6866
trick	-11.6867
wash	-11.6867
▁inspire	-11.6868
▁exhibit	-11.6868
▁republic	-11.687
▁hesitat	-11.6871
▁surge	-11.6872
▁independen	-11.6874
▁command	-11.6875
▁fee	-11.6877
▁greed	-11.6877
▁sparkle	-11.6877
▁yea	-11.6877
▁holl	-11.6878
▁horr	-11.6879
bound	-11.688
lip	-11.6881
espond	-11.6882
ggie	-11.6882
▁knit	-11.6882
agne	-11.6882
▁manifest	-11.6883
▁motiv	-11.6883
▁remorse	-11.6884
▁allerg	-11.6884
▁quar	-11.6884
▁virgin	-11.6884
band	-11.6884
▁sympathi	-11.6884
▁consult	-11.6884
▁optimis	-11.6885
nior	-11.6885
▁intellect	-11.6885
mmar	-11.6885
▁slut	-11.6885
minated	-11.6885
graph	-11.6885
▁arrang	-11.6885
▁exaggerat	-11.6885
eeeeee	-11.6885
▁congratulat	-11.6885
▁impuls	-11.6885
▁unsavo	-11.6885
▁abdomen	-11.6885
▁amsterdam	-11.6885
▁ancient	-11.6885
▁assignments	-11.6885
▁assumption	-11.6885
▁baptized	-11.6885
▁benedict	-11.6885
▁bewildered	-11.6885
▁bracelet	-11.6885
▁built	-11.6885
▁bullshit	-11.6885
▁celebrit	-11.6885
▁channel	-11.6885
▁chicago	-11.6885
▁cliff	-11.6885
▁clique	-11.6885
▁comprehen	-11.6885
▁condescending	-11.6885
▁conquer	-11.6885
▁conspiracy	-11.6885
▁cubicle	-11.6885
▁democrat	-11.6885
▁desperation	-11.6885
▁discount	-11.6885
▁disdain	-11.6885
▁dismiss	-11.6885
▁eagle	-11.6885
▁emptiness	-11.6885
▁encompass	-11.6885
▁epidural	-11.6885
▁evidence	-11.6885
▁expand	-11.6885
▁february	-11.6885
▁florida	-11.6885
▁flustered	-11.6885
▁frequenc	-11.6885
▁fridge	-11.6885
▁furniture	-11.6885
▁george	-11.6885
▁ghost	-11.6885
▁hilarious	-11.6885
▁impatience	-11.6885
▁injustice	-11.6885
▁labour	-11.6885
▁league	-11.6885
▁legacy	-11.6885
▁liberal	-11.6885
▁luggage	-11.6885
▁module	-11.6885
▁monitor	-11.6885
▁morbid	-11.6885
▁mundane	-11.6885
▁mutual	-11.6885
▁obstacle	-11.6885
▁occupied	-11.6885
▁occupy	-11.6885
▁pakistan	-11.6885
▁passenger	-11.6885
▁plague	-11.6885
▁platform	-11.6885
▁premature	-11.6885
▁refuge	-11.6885
▁repercussion	-11.6885
▁shield	-11.6885
▁sidewalk	-11.6885
▁simplicity	-11.6885
▁smirk	-11.6885
▁splash	-11.6885
▁sponsor	-11.6885
▁sufficient	-11.6885
▁supermarket	-11.6885
▁syndrome	-11.6885
▁tantrum	-11.6885
▁thief	-11.6885
▁thirty	-11.6885
▁trimester	-11.6885
▁tsunami	-11.6885
▁tumbl	-11.6885
▁unconscious	-11.6885
▁unreasonabl	-11.6885
▁unsafe	-11.6885
▁unwilling	-11.6885
▁verbal	-11.6885
▁vulnerabilit	-11.6885
▁yellow	-11.6885
▁zealand	-11.6885
▁absurd	-11.6885
▁authentic	-11.6885
▁barrier	-11.6885
▁certifi	-11.6885
▁circu	-11.6885
▁crib	-11.6885
▁cynic	-11.6885
▁drastic	-11.6885
▁edgy	-11.6885
▁homophobi	-11.6885
▁loathe	-11.6885
▁mormon	-11.6885
▁oscar	-11.6885
▁poison	-11.6885
▁prisoner	-11.6885
▁reinforce	-11.6885
▁resume	-11.6885
▁stellar	-11.6885
▁unemploy	-11.6885
▁unrealistic	-11.6885
▁asshole	-11.6885
▁bundle	-11.6885
▁comfy	-11.6885
▁confine	-11.6885
▁congest	-11.6885
▁deceive	-11.6885
▁destructi	-11.6885
▁floral	-11.6885
▁goddess	-11.6885
▁household	-11.6885
▁interrupt	-11.6885
▁jersey	-11.6885
▁micro	-11.6885
▁muffin	-11.6885
▁pillow	-11.6885
▁reckon	-11.6885
▁envy	-11.6885
▁grumbl	-11.6885
▁tremendous	-11.6885
▁concert	-11.6885
▁fragrance	-11.6885
▁suffocate	-11.6885
▁undeserv	-11.6885
▁accent	-11.6885
▁carrot	-11.6885
▁console	-11.6885
▁embarrassment	-11.6885
▁outcast	-11.6885
▁vow	-11.6885
▁contaminat	-11.6885
▁nephew	-11.6885
▁dissolv	-11.6885
▁haunt	-11.6885
tagoni	-11.6885
▁daydream	-11.6885
▁euphori	-11.6885
▁patrioti	-11.6885
▁snuggle	-11.6885
▁exceed	-11.6885
▁lurk	-11.6885
▁clich	-11.6885
▁jones	-11.6885
▁ordeal	-11.6885
▁forehead	-11.6885
▁moaning	-11.6885
▁monast	-11.6885
▁impressive	-11.6885
▁righteous	-11.6885
▁military	-11.6885
▁stride	-11.6885
▁tutorial	-11.6885
ordan	-11.6885
▁bloat	-11.6885
▁evok	-11.6885
▁narrow	-11.6885
▁ankle	-11.6885
▁gently	-11.6885
▁chaotic	-11.6885
▁mercy	-11.6885
▁obligated	-11.6885
▁decorations	-11.6885
▁inherent	-11.6885
▁senior	-11.6886
▁whale	-11.6886
▁possibilities	-11.6886
▁olympic	-11.6886
▁psychotic	-11.6886
▁finland	-11.6886
▁transport	-11.6886
▁oncologist	-11.6886
cumber	-11.6886
▁mournful	-11.6886
▁wardro	-11.6886
▁scripture	-11.6886
▁trop	-11.6886
▁arab	-11.6886
▁proclaim	-11.6886
▁diagnosis	-11.6886
▁propos	-11.6886
▁siren	-11.6886
▁nudge	-11.6886
▁adapt	-11.6886
▁hypocrite	-11.6886
▁jason	-11.6886
▁newspaper	-11.6886
▁confrontation	-11.6886
elve	-11.6886
mpathetic	-11.6886
▁recreat	-11.6886
▁blake	-11.6887
▁lucy	-11.6887
▁sheep	-11.6887
▁gloss	-11.6887
▁ignorance	-11.6887
▁psychologist	-11.6887
▁pertain	-11.6887
▁immerse	-11.6887
▁equi	-11.6887
▁transformation	-11.6887
▁royal	-11.6887
▁jew	-11.6887
▁diabet	-11.6887
▁vivi	-11.6887
▁existance	-11.6887
▁loung	-11.6887
▁emoti	-11.6887
cade	-11.6887
▁zum	-11.6887
▁seams	-11.6888
▁affirmation	-11.6888
▁blink	-11.6888
▁clip	-11.6888
▁exhaustion	-11.6888
▁duke	-11.6888
▁plung	-11.6888
▁indig	-11.6888
ellie	-11.6888
▁hoard	-11.6888
▁flush	-11.6888
▁commitment	-11.6888
▁tangibl	-11.6888
▁missionary	-11.6888
▁sober	-11.6888
▁thread	-11.6888
▁preach	-11.6888
▁sample	-11.6888
▁dramatically	-11.6889
▁fuel	-11.6889
▁accurate	-11.6889
▁annual	-11.6889
nstru	-11.6889
▁assist	-11.6889
▁mineral	-11.6889
▁sarah	-11.6889
▁nerd	-11.6889
▁assessment	-11.6889
▁potter	-11.6889
▁revel	-11.6889
warm	-11.6889
▁priority	-11.689
harmony	-11.689
▁campus	-11.689
▁veggie	-11.689
omet	-11.689
▁repet	-11.689
▁ministries	-11.689
▁minister	-11.689
▁adorable	-11.689
gram	-11.689
▁interven	-11.689
▁lull	-11.689
▁selection	-11.6891
▁tablets	-11.6891
▁hollow	-11.6891
▁underneath	-11.6891
▁bunny	-11.6891
▁coerc	-11.6891
▁golden	-11.6892
▁loner	-11.6892
▁communication	-11.6892
▁flag	-11.6892
▁scientist	-11.6893
▁champ	-11.6893
▁adjustment	-11.6894
▁judgment	-11.6894
▁classmate	-11.6894
▁dick	-11.6894
▁fulfillment	-11.6894
▁swings	-11.6894
▁coaster	-11.6895
▁mobile	-11.6895
▁panicky	-11.6895
▁protective	-11.6895
▁arche	-11.6896
▁stolen	-11.6896
▁kim	-11.6896
▁mull	-11.6896
▁highlight	-11.6897
egal	-11.6897
▁candle	-11.6897
▁comb	-11.6898
▁visible	-11.6898
▁plead	-11.6899
▁conduct	-11.6899
▁retain	-11.6899
▁combo	-11.6899
▁agreement	-11.69
away	-11.6901
▁liqu	-11.6901
▁truck	-11.6901
▁tuition	-11.6901
▁comeback	-11.6901
▁broad	-11.6901
cule	-11.6902
▁buddy	-11.6902
▁eco	-11.6902
▁riders	-11.6903
▁distan	-11.6903
greg	-11.6903
▁daycare	-11.6904
▁insecurities	-11.6904
▁insensitive	-11.6904
▁loyalty	-11.6905
▁eric	-11.6905
▁authority	-11.6906
▁poet	-11.6906
▁portrayal	-11.6907
▁disconnected	-11.6909
▁disoriented	-11.6909
▁indulgent	-11.6909
▁carol	-11.6909
▁stew	-11.6909
▁slice	-11.691
▁ingredients	-11.6911
▁pursuits	-11.6911
▁landscape	-11.6911
▁bruise	-11.6912
▁deadline	-11.6912
▁ethic	-11.6912
▁boil	-11.6914
▁jazz	-11.6914
▁angeles	-11.6915
▁dew	-11.6915
▁shiny	-11.6915
▁feder	-11.6916
alian	-11.6917
▁yard	-11.6918
▁math	-11.6918
▁fig	-11.6918
▁shatter	-11.6919
▁pb	-11.692
▁sail	-11.692
sters	-11.692
▁bind	-11.6922
icul	-11.6922
kind	-11.6922
bie	-11.6922
ford	-11.6923
▁bitten	-11.6923
▁douche	-11.6924
▁compromised	-11.6924
▁raid	-11.6925
▁solved	-11.6927
position	-11.6927
▁batch	-11.6929
▁surv	-11.6931
▁publisher	-11.6932
▁tape	-11.6932
▁confession	-11.6932
▁doodle	-11.6934
▁brat	-11.6935
interested	-11.6935
▁squir	-11.6936
▁appropriately	-11.6937
wl	-11.6937
▁nois	-11.6938
▁conducted	-11.694
▁stoned	-11.6941
▁peep	-11.6942
▁cure	-11.6943
▁kidnappe	-11.6944
▁promis	-11.6946
▁bitches	-11.6947
▁national	-11.695
link	-11.6951
dominant	-11.6954
▁babysit	-11.6954
▁eggs	-11.6955
▁outdoors	-11.6955
▁instructions	-11.6955
▁disregarded	-11.6955
▁donut	-11.6956
▁nipp	-11.6956
▁lowest	-11.6956
▁popped	-11.6957
▁pumped	-11.6957
▁numbness	-11.6957
▁jona	-11.696
▁tax	-11.696
▁restore	-11.6961
▁kay	-11.6961
cies	-11.6961
▁recovery	-11.6962
▁weaker	-11.6964
custom	-11.697
▁hunger	-11.697
▁delivered	-11.6971
▁separated	-11.6973
▁ambula	-11.6976
▁stupidity	-11.6978
▁jenn	-11.6981
▁perfection	-11.6981
▁tickle	-11.6982
▁destroyed	-11.6986
▁collected	-11.6986
▁bagg	-11.6986
▁carefully	-11.699
▁attain	-11.6991
▁pills	-11.6999
▁clients	-11.7
▁miracles	-11.7
▁relations	-11.7001
▁treasures	-11.7005
▁grave	-11.7008
▁digg	-11.7009
▁poop	-11.7011
tality	-11.7012
▁momo	-11.7015
▁encountered	-11.7018
▁piling	-11.7024
▁doom	-11.7026
▁greatness	-11.7027
▁ul	-11.7028
▁vibra	-11.7031
list	-11.7033
▁jac	-11.7035
tique	-11.7038
▁spo	-11.704
▁explored	-11.704
▁bubble	-11.7043
▁nations	-11.7046
▁photographer	-11.7049
▁agreed	-11.7049
▁bloody	-11.7056
▁balanced	-11.7058
▁raped	-11.7059
issan	-11.7061
▁referr	-11.707
▁homeless	-11.7076
▁gripp	-11.7078
itt	-11.709
▁medications	-11.7092
▁chicks	-11.7093
▁pounding	-11.7106
▁legion	-11.7106
▁devotee	-11.7106
▁manda	-11.7127
▁captur	-11.713
atu	-11.7138
▁flak	-11.7146
▁telephon	-11.7148
▁socializ	-11.7151
roll	-11.7158
▁mary	-11.7165
gust	-11.717
▁kisse	-11.7175
eur	-11.7182
▁spinn	-11.719
▁occasions	-11.7193
▁provocati	-11.7199
▁paw	-11.7201
▁arouse	-11.7203
▁capit	-11.7227
▁linked	-11.723
nny	-11.7243
helm	-11.7246
logging	-11.7248
▁resident	-11.7253
▁killer	-11.7254
nno	-11.7262
lon	-11.7265
▁flu	-11.7266
▁brit	-11.7279
▁curr	-11.7283
▁han	-11.7283
ital	-11.7284
▁stated	-11.7301
▁linu	-11.7307
▁glu	-11.7323
▁expose	-11.7333
ided	-11.7338
scrib	-11.7377
but	-11.7382
erson	-11.7385
▁distribut	-11.7421
▁legal	-11.7433
▁salva	-11.7438
▁dave	-11.744
▁parad	-11.7447
▁bob	-11.7448
western	-11.7455
ripped	-11.7493
nish	-11.7514
▁nic	-11.7529
▁trade	-11.7563
▁lad	-11.7589
▁eu	-11.7595
▁gaz	-11.7618
guard	-11.7634
lated	-11.7648
▁rip	-11.7649
peak	-11.7704
▁varie	-11.7722
▁bre	-11.7788
oma	-11.779
▁environmental	-11.7801
ome	-11.7811
ility	-11.7817
nched	-11.7833
▁smok	-11.7837
ran	-11.7868
bq	-11.7874
▁hon	-11.7927
lery	-11.7946
served	-11.7987
▁explor	-11.7997
▁fran	-11.805
exa	-11.8073
lush	-11.8076
clear	-11.8088
▁pete	-11.8128
▁sil	-11.8144
rie	-11.8148
▁bun	-11.8169
ila	-11.8177
▁consume	-11.8195
▁alternat	-11.8199
▁scha	-11.8221
▁peni	-11.8249
▁melod	-11.8265
ister	-11.827
▁hype	-11.8271
strop	-11.8307
▁bb	-11.8322
▁cleanse	-11.8324
ocre	-11.8355
▁decorate	-11.8381
wh	-11.8454
▁bounc	-11.847
cker	-11.8539
aken	-11.854
ublin	-11.855
▁embrac	-11.8574
liar	-11.8596
▁eva	-11.8599
▁watcher	-11.8618
▁fru	-11.869
▁lou	-11.8691
fra	-11.8693
car	-11.8729
eep	-11.8743
oops	-11.875
▁stumble	-11.8756
sync	-11.8758
bet	-11.8759
otic	-11.8771
▁compete	-11.8821
ife	-11.8827
▁coco	-11.8842
tast	-11.8846
▁produc	-11.8855
imply	-11.8866
▁nico	-11.8904
you	-11.8914
rence	-11.8923
▁xan	-11.8965
rcis	-11.8976
ept	-11.9041
ore	-11.9044
▁enabl	-11.9047
▁charg	-11.9054
▁donate	-11.9078
▁influenc	-11.9098
vin	-11.9112
▁jok	-11.9225
▁opi	-11.925
rance	-11.9276
▁loo	-11.9286
▁coll	-11.9299
cate	-11.9346
▁flo	-11.9355
▁flirt	-11.9436
itche	-11.9437
▁whipp	-11.9439
ckey	-11.9445
▁improv	-11.9449
▁practic	-11.9453
▁desir	-11.9458
iggle	-11.9487
▁puzzl	-11.9506
ucky	-11.9549
nnie	-11.9553
▁dep	-11.9559
yash	-11.9567
▁guid	-11.9572
rite	-11.9598
▁ep	-11.9601
lance	-11.9615
vill	-11.9619
▁compet	-11.9632
pha	-11.9643
▁invit	-11.9649
full	-11.9659
print	-11.9671
uff	-11.9703
▁dub	-11.9709
uper	-11.9711
▁packe	-11.9718
abba	-11.9743
▁swa	-11.9811
ribe	-11.9811
peter	-11.9821
▁str	-11.9832
▁refr	-11.9837
ttered	-11.9844
▁victor	-11.9863
balm	-11.9894
▁devote	-11.9895
▁employ	-11.9899
▁strik	-11.9908
▁flee	-11.9946
▁revis	-11.9954
mint	-11.9958
ification	-11.9964
play	-11.997
gging	-11.9986
bac	-11.9992
▁retir	-12.0003
form	-12.0008
▁recogni	-12.0009
▁affirm	-12.0011
▁chin	-12.0037
▁treasure	-12.004
▁measur	-12.0048
▁wig	-12.005
dded	-12.0056
▁client	-12.006
▁miracle	-12.006
▁updat	-12.0065
▁thigh	-12.0067
▁glas	-12.0069
▁jog	-12.0071
▁circumstance	-12.0074
ppy	-12.0075
yyy	-12.0075
▁blu	-12.0075
▁relation	-12.0081
▁standard	-12.0086
▁poo	-12.0089
▁suggestion	-12.0089
▁relat	-12.0093
▁dialog	-12.0105
▁pic	-12.0115
▁spi	-12.0116
iber	-12.0122
▁conduc	-12.0124
▁flaw	-12.0125
▁centr	-12.0126
▁scot	-12.0131
▁challeng	-12.0143
attracti	-12.0144
▁easi	-12.0146
▁balanc	-12.0148
▁engag	-12.015
▁appropriate	-12.0152
▁frequent	-12.0156
▁dine	-12.0162
cation	-12.0164
▁lone	-12.0165
▁compromis	-12.0165
▁repress	-12.017
▁intend	-12.017
▁assault	-12.017
▁cheat	-12.0175
▁choos	-12.0176
▁pill	-12.018
▁grip	-12.0187
stairs	-12.0187
▁qui	-12.0189
wise	-12.0193
break	-12.0194
onic	-12.0194
mark	-12.0194
heartedly	-12.0195
▁enem	-12.0196
mission	-12.0197
correct	-12.0197
graduate	-12.0197
▁preten	-12.0198
know	-12.0198
▁gloom	-12.0198
flow	-12.0198
current	-12.0198
service	-12.0199
resolved	-12.0199
course	-12.0199
emotional	-12.0199
point	-12.0199
fact	-12.0199
least	-12.0199
productive	-12.0199
little	-12.0199
soft	-12.02
▁visibl	-12.02
▁assure	-12.02
fault	-12.0201
treat	-12.0202
▁slum	-12.0202
▁extrem	-12.0202
water	-12.0203
tape	-12.0204
▁scru	-12.0205
both	-12.0206
sky	-12.0207
▁engine	-12.0207
▁scient	-12.0208
nounce	-12.0209
quake	-12.0212
face	-12.0212
▁convers	-12.0214
▁irrita	-12.0214
▁assess	-12.0214
▁govern	-12.0215
▁bask	-12.0215
▁homosexual	-12.0216
▁obsessi	-12.0216
oured	-12.0216
nail	-12.0216
▁enthusiast	-12.0217
▁writt	-12.0217
▁hahaha	-12.0217
▁excel	-12.0217
▁differ	-12.0218
relevant	-12.0218
▁triumph	-12.0218
▁neuro	-12.0218
litary	-12.0218
plex	-12.0218
▁confront	-12.0218
▁tutor	-12.0218
udent	-12.0218
servation	-12.0218
▁snug	-12.0218
▁influ	-12.0218
▁contradict	-12.0218
▁egypt	-12.0218
▁pessimis	-12.0218
▁abroad	-12.0218
▁accessories	-12.0218
▁accumulat	-12.0218
▁adequate	-12.0218
▁administration	-12.0218
▁adverse	-12.0218
▁advertising	-12.0218
▁advise	-12.0218
▁analyze	-12.0218
▁analyzing	-12.0218
▁benjamin	-12.0218
▁bladder	-12.0218
▁blogosphere	-12.0218
▁bloom	-12.0218
▁blossom	-12.0218
▁brazil	-12.0218
▁canadian	-12.0218
▁caregiver	-12.0218
▁caterpillar	-12.0218
▁chuffed	-12.0218
▁clums	-12.0218
▁clutch	-12.0218
▁cluttered	-12.0218
▁compuls	-12.0218
▁constrain	-12.0218
▁creator	-12.0218
▁criminal	-12.0218
▁cultural	-12.0218
▁dallas	-12.0218
▁dehydrated	-12.0218
▁demotivate	-12.0218
▁diminish	-12.0218
▁disbelie	-12.0218
▁district	-12.0218
▁dubai	-12.0218
▁efficien	-12.0218
▁elusive	-12.0218
▁embarass	-12.0218
▁embark	-12.0218
▁erik	-12.0218
▁evident	-12.0218
▁evolution	-12.0218
▁excluded	-12.0218
▁exclusively	-12.0218
▁excruciating	-12.0218
▁fatigue	-12.0218
▁festival	-12.0218
▁flourish	-12.0218
▁fraud	-12.0218
▁fundamental	-12.0218
▁garments	-12.0218
▁generic	-12.0218
▁glitter	-12.0218
▁gospel	-12.0218
▁graphic	-12.0218
▁housewife	-12.0218
▁humbug	-12.0218
▁hurricane	-12.0218
▁hyun	-12.0218
▁impractical	-12.0218
▁inadequac	-12.0218
▁inconvenience	-12.0218
▁insomnia	-12.0218
▁instagram	-12.0218
▁interpretation	-12.0218
▁katniss	-12.0218
▁laziness	-12.0218
▁lemonade	-12.0218
▁masculin	-12.0218
▁masterpiece	-12.0218
▁mathematic	-12.0218
▁mexican	-12.0218
▁midterm	-12.0218
▁motivator	-12.0218
▁netflix	-12.0218
▁noodle	-12.0218
▁nugget	-12.0218
▁occupation	-12.0218
▁olivia	-12.0218
▁oregon	-12.0218
▁outburst	-12.0218
▁oxygen	-12.0218
▁pedestrian	-12.0218
▁pelvi	-12.0218
▁pepper	-12.0218
▁percieve	-12.0218
▁pizza	-12.0218
▁preschool	-12.0218
▁prettie	-12.0218
▁productivity	-12.0218
▁pupils	-12.0218
▁quantit	-12.0218
▁rabbit	-12.0218
▁recession	-12.0218
▁reconcil	-12.0218
▁remembrance	-12.0218
▁rhetoric	-12.0218
▁rhyme	-12.0218
▁sarcasm	-12.0218
▁sceptical	-12.0218
▁scissor	-12.0218
▁shinobi	-12.0218
▁slumber	-12.0218
▁soundtrack	-12.0218
▁spectator	-12.0218
▁spritz	-12.0218
▁stanza	-12.0218
▁straightforward	-12.0218
▁surfacing	-12.0218
▁sweetheart	-12.0218
▁tattoo	-12.0218
▁terrain	-12.0218
▁territory	-12.0218
▁thirsty	-12.0218
▁thunder	-12.0218
▁tournament	-12.0218
▁tunnel	-12.0218
▁unbelievabl	-12.0218
▁unconditional	-12.0218
▁unlovable	-12.0218
▁urgency	-12.0218
▁valentine	-12.0218
▁vampire	-12.0218
▁vertigo	-12.0218
▁wrinkle	-12.0218
▁xxx	-12.0218
▁zimbabwe	-12.0218
▁council	-12.0218
▁ensue	-12.0218
▁feminin	-12.0218
▁impoten	-12.0218
▁mammo	-12.0218
▁nathan	-12.0218
▁outrageous	-12.0218
▁parallel	-12.0218
▁phenomen	-12.0218
▁abusive	-12.0218
▁acquire	-12.0218
▁awoke	-12.0218
▁cardio	-12.0218
▁clench	-12.0218
▁hammer	-12.0218
▁harrass	-12.0218
▁muslim	-12.0218
▁obedien	-12.0218
▁oneself	-12.0218
▁paralysed	-12.0218
▁queasy	-12.0218
▁salad	-12.0218
▁suburb	-12.0218
▁tabby	-12.0218
▁thumb	-12.0218
▁undertaking	-12.0218
▁georgi	-12.0218
▁reckless	-12.0218
▁sneak	-12.0218
▁strolling	-12.0218
▁upbeat	-12.0218
▁whimsical	-12.0218
▁wreck	-12.0218
itarian	-12.0218
nonym	-12.0218
▁balloon	-12.0218
▁behaving	-12.0218
▁conceal	-12.0218
▁enact	-12.0218
▁feast	-12.0218
▁investigat	-12.0218
▁pompo	-12.0218
▁spiral	-12.0218
▁transparen	-12.0218
▁unfit	-12.0218
▁deploy	-12.0218
▁ebay	-12.0218
▁ignit	-12.0218
▁micah	-12.0218
▁panties	-12.0218
▁snake	-12.0218
▁depart	-12.0218
▁ferocious	-12.0218
▁ipod	-12.0218
▁punctu	-12.0218
▁welcoming	-12.0218
▁frigg	-12.0218
▁ailments	-12.0218
▁beneficial	-12.0218
▁dissect	-12.0218
▁mantra	-12.0218
▁dazzl	-12.0218
▁omg	-12.0218
▁prosecut	-12.0218
▁implement	-12.0218
▁snob	-12.0218
▁detest	-12.0219
▁fetch	-12.0219
▁horizon	-12.0219
▁sincerity	-12.0219
▁uninteresting	-12.0219
▁orphan	-12.0219
▁prestig	-12.0219
▁refine	-12.0219
▁restrain	-12.0219
▁vendor	-12.0219
endar	-12.0219
▁winners	-12.0219
▁limitations	-12.0219
▁squeal	-12.0219
▁cease	-12.0219
▁dentist	-12.0219
▁euro	-12.0219
▁indicate	-12.0219
▁register	-12.0219
▁collaborati	-12.0219
▁iraq	-12.0219
▁shelter	-12.0219
▁taunt	-12.0219
▁aesthetics	-12.0219
▁compell	-12.0219
▁glee	-12.0219
▁orgasm	-12.0219
▁chronicles	-12.0219
▁tornado	-12.0219
▁vinegar	-12.0219
▁turkey	-12.0219
▁suitcase	-12.0219
▁surre	-12.0219
▁twinges	-12.0219
▁mamma	-12.0219
scepti	-12.0219
▁borrow	-12.0219
ncidence	-12.0219
▁niko	-12.0219
▁submission	-12.0219
huckle	-12.0219
▁sinai	-12.0219
▁consist	-12.0219
▁instill	-12.0219
▁fingernail	-12.0219
continent	-12.0219
▁plateau	-12.0219
▁sublime	-12.0219
umbleupon	-12.0219
▁overeat	-12.0219
waddle	-12.0219
▁persevere	-12.0219
▁column	-12.0219
▁courthouse	-12.0219
▁admission	-12.0219
▁operation	-12.0219
▁prejudice	-12.0219
▁montana	-12.0219
fortune	-12.0219
▁savor	-12.0219
▁atheist	-12.0219
▁ladder	-12.0219
▁william	-12.0219
▁hedge	-12.0219
▁feeble	-12.0219
▁obey	-12.0219
▁sickening	-12.0219
▁cents	-12.0219
▁swamp	-12.0219
▁urban	-12.0219
▁sympathize	-12.0219
▁alert	-12.0219
▁thailand	-12.0219
▁snor	-12.022
▁bullet	-12.022
▁preform	-12.022
▁robbed	-12.022
▁whistle	-12.022
▁urging	-12.022
▁minimum	-12.022
▁slope	-12.022
▁horrid	-12.022
▁keyboard	-12.022
▁sunrise	-12.022
▁cinema	-12.022
▁stadium	-12.022
▁barbie	-12.022
▁teddy	-12.022
▁pierc	-12.022
▁representative	-12.022
▁sluggish	-12.022
▁steep	-12.022
▁constitution	-12.022
▁approv	-12.022
▁prominent	-12.022
▁resonate	-12.022
▁memoriz	-12.022
▁spazz	-12.022
▁exposure	-12.022
▁baff	-12.022
▁shortlist	-12.022
install	-12.022
▁delay	-12.022
▁stripped	-12.022
▁ponder	-12.022
wagon	-12.0221
▁drift	-12.0221
▁tangle	-12.0221
▁dorm	-12.0221
▁revelation	-12.0221
▁instructor	-12.0221
▁summar	-12.0221
▁blade	-12.0221
▁glory	-12.0221
▁immigrant	-12.0221
▁xvi	-12.0221
▁spy	-12.0221
▁shaming	-12.0221
▁papa	-12.0221
▁salon	-12.0221
▁extension	-12.0221
▁observation	-12.0221
▁ginger	-12.0222
▁barrage	-12.0222
▁oak	-12.0222
advert	-12.0222
ponent	-12.0222
▁java	-12.0222
▁feat	-12.0222
▁employers	-12.0222
▁stup	-12.0222
▁theories	-12.0222
▁troph	-12.0222
mitten	-12.0222
▁spoon	-12.0222
▁merit	-12.0223
▁priest	-12.0223
▁temptation	-12.0223
▁regime	-12.0223
▁allergies	-12.0223
▁bryan	-12.0223
▁equa	-12.0223
▁mouse	-12.0223
math	-12.0223
▁beast	-12.0223
▁despise	-12.0224
▁aimless	-12.0224
▁karen	-12.0224
▁compensate	-12.0224
▁contrary	-12.0224
▁morph	-12.0224
▁artisan	-12.0224
▁herald	-12.0224
▁spouse	-12.0224
mmun	-12.0224
▁cooperati	-12.0224
▁chemistry	-12.0224
▁leaf	-12.0224
▁ruth	-12.0224
▁statistic	-12.0224
▁jewel	-12.0224
▁warri	-12.0224
▁expansive	-12.0224
▁defian	-12.0224
▁spotlight	-12.0224
▁shack	-12.0225
▁genetic	-12.0225
▁alice	-12.0225
▁luna	-12.0225
▁preference	-12.0225
▁betty	-12.0225
▁tram	-12.0225
▁disgr	-12.0225
▁princess	-12.0225
▁enthusiastic	-12.0225
fathom	-12.0225
architectural	-12.0225
▁antho	-12.0226
▁appli	-12.0226
▁fade	-12.0226
ebra	-12.0226
▁june	-12.0226
▁overtake	-12.0226
theless	-12.0227
▁overpower	-12.0227
▁construction	-12.0227
▁mature	-12.0227
▁devour	-12.0227
▁peach	-12.0227
▁conclude	-12.0228
▁consec	-12.0228
▁validation	-12.0228
▁scann	-12.0228
▁squee	-12.0228
▁minority	-12.0228
▁broom	-12.0228
▁slate	-12.0228
▁downstairs	-12.0228
▁terrorist	-12.0228
▁secretary	-12.0228
▁pushover	-12.0229
▁mayhem	-12.0229
▁neat	-12.0229
ples	-12.0229
▁teasing	-12.023
▁excitment	-12.023
▁unbearable	-12.023
▁laun	-12.0231
▁flac	-12.0231
▁comic	-12.0231
thomas	-12.0232
▁trav	-12.0232
▁vol	-12.0232
▁scan	-12.0232
▁mock	-12.0232
▁dro	-12.0232
▁psycho	-12.0232
▁sass	-12.0233
▁void	-12.0233
calcula	-12.0233
amous	-12.0233
rinth	-12.0233
▁flame	-12.0233
▁angsty	-12.0233
▁announcement	-12.0233
itz	-12.0233
eapple	-12.0233
▁lax	-12.0234
▁sleeve	-12.0234
▁hump	-12.0234
▁judgement	-12.0234
▁intri	-12.0235
▁eyelid	-12.0235
▁meantime	-12.0235
▁kai	-12.0235
isplaced	-12.0236
rify	-12.0236
▁relish	-12.0237
rivi	-12.0237
▁enca	-12.0238
▁frost	-12.0238
shop	-12.0238
▁rug	-12.0239
▁informal	-12.0239
▁denni	-12.0239
▁termin	-12.0239
▁hesitation	-12.0239
▁republican	-12.0239
▁agony	-12.024
▁budd	-12.024
▁razo	-12.024
▁flop	-12.024
▁jug	-12.024
▁slugg	-12.0241
▁arrival	-12.0241
▁surgeon	-12.0241
▁criticiz	-12.0242
▁explosi	-12.0243
ejected	-12.0243
▁offens	-12.0244
▁bearable	-12.0244
▁flirty	-12.0245
▁sep	-12.0245
▁analysi	-12.0245
▁peek	-12.0245
▁squad	-12.0245
▁examine	-12.0247
▁irre	-12.0248
▁forgiven	-12.0249
▁vine	-12.025
tastic	-12.025
▁spotless	-12.025
▁rins	-12.0251
▁swell	-12.0251
▁ensur	-12.0251
▁masses	-12.0251
▁blast	-12.0252
▁remed	-12.0252
▁publicity	-12.0252
hael	-12.0253
▁exhilarated	-12.0253
▁enriched	-12.0253
▁bully	-12.0255
▁holly	-12.0255
mph	-12.0256
▁bern	-12.0256
trude	-12.0256
▁accompani	-12.0257
▁bam	-12.026
▁blam	-12.0261
tuition	-12.0261
river	-12.0261
▁superman	-12.0263
▁kha	-12.0264
▁journalist	-12.0264
▁leak	-12.0265
avi	-12.0266
▁bald	-12.0267
▁blissful	-12.0267
▁marie	-12.0267
▁whooooo	-12.0267
▁manipulate	-12.0268
▁heartedly	-12.027
▁cum	-12.027
▁wiped	-12.0271
▁comfortably	-12.0271
▁proceed	-12.0275
▁proce	-12.0276
▁whiske	-12.0276
▁funk	-12.0277
▁mala	-12.028
▁chant	-12.028
▁humanity	-12.0281
▁nao	-12.0281
versary	-12.0284
rise	-12.0286
▁tail	-12.0287
▁slump	-12.0288
▁stray	-12.029
▁locate	-12.0292
▁blend	-12.0292
▁rash	-12.0292
▁urgent	-12.0293
▁spine	-12.0294
musings	-12.0295
▁buzz	-12.0296
▁slapp	-12.0296
▁vice	-12.0297
▁spoiled	-12.0298
joy	-12.0298
▁cel	-12.0301
▁salut	-12.0303
▁strapp	-12.0303
▁wince	-12.0306
mention	-12.0308
▁russ	-12.0308
▁jay	-12.0309
▁shark	-12.031
▁creepy	-12.0311
ddit	-12.0312
▁brad	-12.0313
▁mich	-12.0318
▁trainer	-12.032
hobic	-12.0324
▁bury	-12.0327
▁err	-12.0327
▁rear	-12.0329
▁net	-12.033
ryeo	-12.0332
▁atlant	-12.0336
gress	-12.0338
▁shameful	-12.0344
▁deepen	-12.0344
▁hawk	-12.035
▁reassure	-12.035
▁crumble	-12.035
▁overdo	-12.0351
▁pastor	-12.0356
agnate	-12.0357
nerable	-12.0361
▁bobb	-12.0362
▁glo	-12.0366
war	-12.0368
▁trem	-12.0372
boo	-12.038
▁gall	-12.0395
▁italy	-12.0396
▁tolerat	-12.0396
▁deck	-12.0397
▁satan	-12.0399
▁sang	-12.0402
audi	-12.0404
▁bomber	-12.0406
▁peas	-12.0407
tches	-12.041
▁kar	-12.0413
lick	-12.0417
trustworthy	-12.0421
titude	-12.0423
ishi	-12.0426
ju	-12.0448
▁testi	-12.0464
▁releas	-12.0464
aved	-12.0469
▁jamie	-12.0473
▁logical	-12.0473
▁disciple	-12.048
▁slipper	-12.0484
▁tyle	-12.0486
▁additional	-12.0492
▁snee	-12.0503
leb	-12.0507
ject	-12.0509
▁presu	-12.0511
ural	-12.0519
your	-12.0524
▁residu	-12.0526
▁israeli	-12.0529
tled	-12.0538
cid	-12.0539
▁crud	-12.0562
loc	-12.0571
▁defense	-12.06
▁empathi	-12.0601
▁emergenc	-12.0602
kah	-12.0604
▁integrate	-12.062
▁pickle	-12.0626
▁refra	-12.0647
▁hugg	-12.0657
▁occurr	-12.0664
▁squa	-12.0668
▁swee	-12.0673
yomi	-12.0703
▁spac	-12.071
vari	-12.0716
asha	-12.0718
oster	-12.0723
empted	-12.0726
▁carb	-12.0755
sprint	-12.0776
stroph	-12.0786
▁lapp	-12.0796
pelt	-12.0799
zine	-12.0811
rugged	-12.0818
▁brun	-12.083
▁argu	-12.0846
▁organi	-12.0887
▁hurr	-12.0914
▁dork	-12.0919
▁qa	-12.0931
▁blurr	-12.0934
▁tease	-12.095
mise	-12.096
▁pun	-12.0965
▁grat	-12.1023
▁seren	-12.1053
▁rum	-12.1128
▁blogg	-12.1137
▁copie	-12.1144
tale	-12.1144
truck	-12.1174
▁guil	-12.1198
▁sci	-12.1211
▁assum	-12.1252
rtu	-12.1258
▁committ	-12.1311
▁clam	-12.1314
aska	-12.1315
dow	-12.1373
nate	-12.1388
▁pinn	-12.139
▁showcas	-12.1425
eak	-12.1436
▁bon	-12.1447
rat	-12.1598
▁fut	-12.1642
▁pine	-12.1662
▁nig	-12.1709
▁communicat	-12.1777
▁schedul	-12.1808
thful	-12.1809
▁stumbl	-12.1927
matic	-12.1937
quit	-12.1949
competent	-12.195
▁damp	-12.197
▁jak	-12.2023
brake	-12.2039
ological	-12.2098
▁weave	-12.2124
wak	-12.2228
▁packag	-12.226
coffin	-12.2313
dioc	-12.2513
mel	-12.2522
▁skillz	-12.2542
jah	-12.2543
▁luk	-12.2578
ium	-12.258
▁diagnos	-12.2584
lds	-12.2655
nuff	-12.2757
▁incen	-12.2805
wee	-12.2817
hm	-12.2842
otherhood	-12.2959
raini	-12.2979
charged	-12.2979
▁rocket	-12.3006
▁lib	-12.3008
ravity	-12.3093
llows	-12.3256
▁magnif	-12.3418
bert	-12.3452
case	-12.3488
solate	-12.3489
▁stretche	-12.35
▁communit	-12.3539
loy	-12.3556
dependent	-12.3557
▁lev	-12.3665
▁animat	-12.3729
flare	-12.382
▁battl	-12.3889
▁trad	-12.3926
logical	-12.3954
▁scum	-12.3963
love	-12.4016
▁resid	-12.4077
riety	-12.4101
▁unsu	-12.4151
ribbl	-12.4255
▁epi	-12.436
▁midwest	-12.4527
owners	-12.4528
▁imperfect	-12.4557
mitted	-12.4668
step	-12.4675
▁cogni	-12.4692
fighter	-12.4699
▁israel	-12.4732
▁activis	-12.4751
▁plac	-12.4757
itude	-12.4762
▁discipl	-12.4805
rrow	-12.4839
▁uninten	-12.4857
▁trimm	-12.4902
undant	-12.4929
▁domin	-12.4945
▁preci	-12.4991
▁crumbl	-12.5006
void	-12.5012
roads	-12.5016
merican	-12.5017
▁stud	-12.5017
whore	-12.5018
tention	-12.502
▁crim	-12.503
▁rub	-12.5036
▁plea	-12.5039
▁isolat	-12.504
▁soooooooo	-12.5043
▁nightmar	-12.5051
▁gree	-12.5059
▁articula	-12.5061
▁egg	-12.5062
▁outdoor	-12.5062
▁instruction	-12.5063
ficial	-12.5066
▁charm	-12.5067
▁endeavor	-12.5069
▁consequence	-12.5072
▁symptom	-12.5073
▁electr	-12.5073
▁lyric	-12.5076
leans	-12.5082
▁practi	-12.5095
easy	-12.51
ocated	-12.5104
▁apologiz	-12.5117
ilities	-12.5121
▁cloth	-12.5122
beck	-12.5122
ography	-12.513
ttle	-12.5132
tray	-12.5134
▁princ	-12.5139
owned	-12.5142
▁accompan	-12.5155
▁tortur	-12.5156
▁ethi	-12.5157
▁eventual	-12.5162
▁enrich	-12.5162
▁exhilarat	-12.5162
aaaand	-12.5164
▁disorient	-12.5164
▁disconnect	-12.5165
tracted	-12.5165
▁unsettl	-12.5167
▁discourag	-12.5171
▁energiz	-12.5173
▁depriv	-12.5173
▁margin	-12.5174
▁styl	-12.5176
▁recl	-12.5177
▁slug	-12.518
▁trap	-12.5184
wear	-12.5184
power	-12.5185
▁east	-12.5186
▁slap	-12.5187
appreciated	-12.5193
▁damag	-12.5194
▁ashame	-12.5196
▁demonstrat	-12.5196
coaster	-12.5196
mobile	-12.5196
▁angst	-12.5196
▁centur	-12.5197
articulate	-12.5197
sheet	-12.5197
▁pupp	-12.5197
▁societ	-12.5198
security	-12.5198
structure	-12.5198
▁melanchol	-12.5198
phrase	-12.5198
▁dirt	-12.5198
behavior	-12.5198
prepared	-12.5198
touched	-12.5198
glass	-12.5199
deem	-12.5199
understanding	-12.5199
pause	-12.5199
mind	-12.5199
finished	-12.5199
forget	-12.5199
held	-12.5199
personal	-12.5199
storm	-12.5199
explain	-12.5199
confident	-12.5199
food	-12.5199
through	-12.5199
family	-12.5199
spring	-12.5199
sweet	-12.5199
▁unbearabl	-12.5199
▁irritate	-12.52
frame	-12.52
▁hubb	-12.52
foot	-12.5201
corn	-12.5201
▁pimp	-12.5201
▁sensitiv	-12.5202
attain	-12.5204
with	-12.5204
▁enjo	-12.5204
▁korea	-12.5205
inform	-12.5205
direct	-12.5206
bike	-12.5206
spirit	-12.5206
whelmed	-12.5207
write	-12.5207
▁abou	-12.5208
marry	-12.5209
▁advertise	-12.5209
shift	-12.5209
ounce	-12.521
▁custo	-12.521
▁intens	-12.521
iator	-12.521
▁potato	-12.5211
▁physic	-12.5211
▁ebo	-12.5211
mix	-12.5212
▁percepti	-12.5212
ustin	-12.5212
▁sentiment	-12.5213
look	-12.5213
▁fren	-12.5214
design	-12.5214
▁academi	-12.5216
▁frag	-12.5216
▁threat	-12.5216
▁appr	-12.5216
▁advoca	-12.5216
▁hypocri	-12.5216
▁oblig	-12.5216
▁conservat	-12.5216
ronto	-12.5216
▁mourn	-12.5217
evolve	-12.5217
nstitution	-12.5217
stract	-12.5217
▁situat	-12.5217
▁opera	-12.5218
▁vegeta	-12.5218
▁monog	-12.5218
gitate	-12.5218
▁favour	-12.5218
▁turk	-12.5218
▁japan	-12.5218
▁chronic	-12.5218
▁undu	-12.5218
iiii	-12.5218
journ	-12.5218
▁inflammat	-12.5218
▁blabber	-12.5218
▁columb	-12.5218
▁decreas	-12.5218
▁disapprove	-12.5218
▁embedd	-12.5218
▁enforce	-12.5218
▁facilitat	-12.5218
▁grimac	-12.5218
▁grudg	-12.5218
▁hawaii	-12.5218
▁klein	-12.5218
▁maneuver	-12.5218
▁navigat	-12.5218
▁patroni	-12.5218
▁pediatric	-12.5218
▁procrastinat	-12.5218
▁prohibit	-12.5218
▁rebuild	-12.5218
▁satisfy	-12.5218
▁savour	-12.5218
▁suicidal	-12.5218
▁teeter	-12.5218
▁waaaa	-12.5218
▁wizard	-12.5218
bertram	-12.5218
bourg	-12.5218
brisbane	-12.5218
centric	-12.5218
clusive	-12.5218
interpreted	-12.5218
phobia	-12.5218
tinguished	-12.5218
▁adjectives	-12.5218
▁administrator	-12.5218
▁analogy	-12.5218
▁antisocial	-12.5218
▁antonio	-12.5218
▁appease	-12.5218
▁appetite	-12.5218
▁approximate	-12.5218
▁arrogan	-12.5218
▁baltimore	-12.5218
▁beijing	-12.5218
▁biscuit	-12.5218
▁bizarre	-12.5218
▁blatant	-12.5218
▁bureaucra	-12.5218
▁candidate	-12.5218
▁capacities	-12.5218
▁captivated	-12.5218
▁caretaker	-12.5218
▁cassandra	-12.5218
▁categorie	-12.5218
▁chemicals	-12.5218
▁chivalr	-12.5218
▁churn	-12.5218
▁clamour	-12.5218
▁clerk	-12.5218
▁climate	-12.5218
▁commodities	-12.5218
▁consolidat	-12.5218
▁constipated	-12.5218
▁constructivism	-12.5218
▁consumption	-12.5218
▁coordinate	-12.5218
▁credential	-12.5218
▁dammit	-12.5218
▁daunting	-12.5218
▁depleted	-12.5218
▁detached	-12.5218
▁detect	-12.5218
▁deteriorate	-12.5218
▁devotion	-12.5218
▁diarrh	-12.5218
▁dissipate	-12.5218
▁distort	-12.5218
▁distrust	-12.5218
▁dynamic	-12.5218
▁elicit	-12.5218
▁eloquen	-12.5218
▁emptied	-12.5218
▁enclose	-12.5218
▁endorphin	-12.5218
▁entrenched	-12.5218
▁entrust	-12.5218
▁estrogen	-12.5218
▁eternity	-12.5218
▁ethnic	-12.5218
▁eviction	-12.5218
▁extrovert	-12.5218
▁fanfiction	-12.5218
▁feauture	-12.5218
▁flavour	-12.5218
▁flounder	-12.5218
▁frailt	-12.5218
▁generosity	-12.5218
▁gimmick	-12.5218
▁glycerin	-12.5218
▁guardian	-12.5218
▁halloween	-12.5218
▁hallucinat	-12.5218
▁hamster	-12.5218
▁hijack	-12.5218
▁hyena	-12.5218
▁incessant	-12.5218
▁inclination	-12.5218
▁incomplete	-12.5218
▁insatiabl	-12.5218
▁isprivate	-12.5218
▁jubilation	-12.5218
▁katrina	-12.5218
▁kilter	-12.5218
▁kristi	-12.5218
▁leslie	-12.5218
▁liberated	-12.5218
▁liberty	-12.5218
▁loathing	-12.5218
▁marvellous	-12.5218
▁mascara	-12.5218
▁melbourne	-12.5218
▁merciless	-12.5218
▁midwife	-12.5218
▁miraculous	-12.5218
▁misrepresent	-12.5218
▁morris	-12.5218
▁murmur	-12.5218
▁netherlands	-12.5218
▁nominees	-12.5218
▁nonexisten	-12.5218
▁nyquil	-12.5218
▁occassional	-12.5218
▁ominous	-12.5218
▁oppress	-12.5218
▁orchestra	-12.5218
▁orthodo	-12.5218
▁outsourc	-12.5218
▁outweigh	-12.5218
▁overreact	-12.5218
▁oxford	-12.5218
▁pajama	-12.5218
▁paralysis	-12.5218
▁passersby	-12.5218
▁pavilion	-12.5218
▁peanut	-12.5218
▁philadelphia	-12.5218
▁photoshoot	-12.5218
▁pistol	-12.5218
▁pitiful	-12.5218
▁poignant	-12.5218
▁positivity	-12.5218
▁predator	-12.5218
▁premonition	-12.5218
▁preposterous	-12.5218
▁prevail	-12.5218
▁protocol	-12.5218
▁psychopath	-12.5218
▁punjabi	-12.5218
▁rearrange	-12.5218
▁reciprocate	-12.5218
▁recollection	-12.5218
▁recruiter	-12.5218
▁recycl	-12.5218
▁refocus	-12.5218
▁resembl	-12.5218
▁retaliation	-12.5218
▁revenue	-12.5218
▁rigorous	-12.5218
▁ritual	-12.5218
▁rivalry	-12.5218
▁rupees	-12.5218
▁schoolgirl	-12.5218
▁screenwriter	-12.5218
▁senator	-12.5218
▁sensibilities	-12.5218
▁sephora	-12.5218
▁shuffle	-12.5218
▁shunned	-12.5218
▁slaughter	-12.5218
▁snippet	-12.5218
▁spencer	-12.5218
▁stigma	-12.5218
▁strict	-12.5218
▁subsequently	-12.5218
▁sulfate	-12.5218
▁superstition	-12.5218
▁supplement	-12.5218
▁suspicion	-12.5218
▁sustained	-12.5218
▁technorati	-12.5218
▁terrifying	-12.5218
▁therapeutic	-12.5218
▁triangle	-12.5218
▁trudg	-12.5218
▁trumpeter	-12.5218
▁ultra	-12.5218
▁unacceptabl	-12.5218
▁unavoidabl	-12.5218
▁uncommon	-12.5218
▁uncontrollabl	-12.5218
▁undesired	-12.5218
▁unfulfilled	-12.5218
▁unhappiness	-12.5218
▁unloveable	-12.5218
▁unsurprising	-12.5218
▁unworthiness	-12.5218
▁vehicle	-12.5218
▁verdict	-12.5218
▁vietnam	-12.5218
▁vitamins	-12.5218
▁wainwright	-12.5218
▁webpage	-12.5218
▁wretch	-12.5218
descend	-12.5218
▁hannah	-12.5218
▁monarch	-12.5218
▁ovation	-12.5218
▁yelp	-12.5218
▁alteration	-12.5218
▁artificial	-12.5218
▁audio	-12.5218
▁bachelor	-12.5218
▁broodin	-12.5218
▁bucket	-12.5218
▁bunnies	-12.5218
▁censor	-12.5218
▁cereal	-12.5218
▁conceiv	-12.5218
▁delusion	-12.5218
▁ditched	-12.5218
▁edmonton	-12.5218
▁enchant	-12.5218
▁eyelash	-12.5218
▁frapp	-12.5218
▁galax	-12.5218
▁hummus	-12.5218
▁illicit	-12.5218
▁inaugura	-12.5218
▁incredul	-12.5218
▁ingrain	-12.5218
▁intoxicati	-12.5218
▁irresist	-12.5218
▁kardashi	-12.5218
▁mistress	-12.5218
▁motorcycl	-12.5218
▁oblivio	-12.5218
▁oliver	-12.5218
▁oriented	-12.5218
▁origins	-12.5218
▁overhear	-12.5218
▁permeate	-12.5218
▁persisten	-12.5218
▁persuasi	-12.5218
▁plummet	-12.5218
▁pulp	-12.5218
▁savior	-12.5218
▁scold	-12.5218
▁segregate	-12.5218
▁skater	-12.5218
▁snoop	-12.5218
▁subscriber	-12.5218
▁tigger	-12.5218
▁trepidatio	-12.5218
▁tulip	-12.5218
▁vagina	-12.5218
cessor	-12.5218
freud	-12.5218
iliate	-12.5218
weightloss	-12.5218
▁assembl	-12.5218
▁filter	-12.5218
▁handbag	-12.5218
▁innovati	-12.5218
▁mishandl	-12.5218
▁scrunch	-12.5218
▁stroller	-12.5218
▁swimsuit	-12.5218
▁swirl	-12.5218
▁treacher	-12.5218
▁unnotice	-12.5218
lvani	-12.5218
▁arrangement	-12.5218
▁bookstore	-12.5218
▁cypr	-12.5218
▁frightful	-12.5218
▁grandpa	-12.5218
▁haptic	-12.5218
▁juicy	-12.5218
▁menswear	-12.5218
▁nfl	-12.5218
▁pirate	-12.5218
▁pix	-12.5218
▁quixot	-12.5218
▁sanct	-12.5218
▁scandal	-12.5218
▁sledding	-12.5218
▁sustainability	-12.5218
▁scarlet	-12.5218
lustr	-12.5218
▁bleache	-12.5218
▁espress	-12.5218
▁falter	-12.5218
▁fanatic	-12.5218
▁inhaler	-12.5218
▁krem	-12.5218
▁phil	-12.5218
▁refl	-12.5218
▁smash	-12.5218
▁solicit	-12.5218
▁subdue	-12.5218
▁shelves	-12.5218
▁diapers	-12.5218
▁harvest	-12.5218
▁riot	-12.5218
dolph	-12.5218
tigated	-12.5218
▁addison	-12.5218
▁luminar	-12.5218
▁ohio	-12.5218
▁predica	-12.5218
▁repuls	-12.5218
▁spectac	-12.5218
▁swedish	-12.5218
▁titani	-12.5218
▁wallow	-12.5218
▁zipl	-12.5218
sophist	-12.5218
▁dickens	-12.5218
▁erupt	-12.5218
▁malign	-12.5218
▁sarco	-12.5218
▁crotch	-12.5219
▁ahaha	-12.5219
▁domestic	-12.5219
▁harass	-12.5219
▁streak	-12.5219
endous	-12.5219
▁atheism	-12.5219
▁inquisiti	-12.5219
dickinson	-12.5219
vocab	-12.5219
▁dyke	-12.5219
▁smother	-12.5219
▁substitute	-12.5219
▁tactic	-12.5219
simila	-12.5219
▁snatch	-12.5219
▁sweden	-12.5219
▁botan	-12.5219
▁branch	-12.5219
▁dense	-12.5219
▁rekindle	-12.5219
▁stepchildren	-12.5219
▁surf	-12.5219
▁unsatisfied	-12.5219
▁austen	-12.5219
▁mould	-12.5219
▁rachel	-12.5219
▁whitley	-12.5219
▁bushes	-12.5219
▁jessica	-12.5219
▁dudes	-12.5219
▁heinous	-12.5219
▁actress	-12.5219
▁boast	-12.5219
▁stunt	-12.5219
▁morsel	-12.5219
▁personnel	-12.5219
▁belittled	-12.5219
